{
  "version": "1.0",
  "truncation": {
    "direction": "Right",
    "max_length": 128,
    "strategy": "LongestFirst",
    "stride": 0
  },
  "padding": null,
  "added_tokens": [
    {
      "id": 0,
      "content": "[PAD]",
      "single_word": false,
      "lstrip": false,
      "rstrip": false,
      "normalized": false,
      "special": true
    },
    {
      "id": 1,
      "content": "[UNK]",
      "single_word": false,
      "lstrip": false,
      "rstrip": false,
      "normalized": false,
      "special": true
    },
    {
      "id": 2,
      "content": "[CLS]",
      "single_word": false,
      "lstrip": false,
      "rstrip": false,
      "normalized": false,
      "special": true
    },
    {
      "id": 3,
      "content": "[SEP]",
      "single_word": false,
      "lstrip": false,
      "rstrip": false,
      "normalized": false,
      "special": true
    },
    {
      "id": 4,
      "content": "[MASK]",
      "single_word": false,
      "lstrip": false,
      "rstrip": false,
      "normalized": false,
      "special": true
    },
    {
      "id": 30000,
      "content": "<bos>",
      "single_word": false,
      "lstrip": false,
      "rstrip": false,
      "normalized": false,
      "special": true
    },
    {
      "id": 30001,
      "content": "<eos>",
      "single_word": false,
      "lstrip": false,
      "rstrip": false,
      "normalized": false,
      "special": true
    }
  ],
  "normalizer": {
    "type": "BertNormalizer",
    "clean_text": true,
    "handle_chinese_chars": true,
    "strip_accents": null,
    "lowercase": true
  },
  "pre_tokenizer": {
    "type": "BertPreTokenizer"
  },
  "post_processor": {
    "type": "TemplateProcessing",
    "single": [
      {
        "SpecialToken": {
          "id": "[CLS]",
          "type_id": 0
        }
      },
      {
        "Sequence": {
          "id": "A",
          "type_id": 0
        }
      },
      {
        "SpecialToken": {
          "id": "[SEP]",
          "type_id": 0
        }
      }
    ],
    "pair": [
      {
        "SpecialToken": {
          "id": "[CLS]",
          "type_id": 0
        }
      },
      {
        "Sequence": {
          "id": "A",
          "type_id": 0
        }
      },
      {
        "SpecialToken": {
          "id": "[SEP]",
          "type_id": 0
        }
      },
      {
        "Sequence": {
          "id": "B",
          "type_id": 1
        }
      },
      {
        "SpecialToken": {
          "id": "[SEP]",
          "type_id": 1
        }
      }
    ],
    "special_tokens": {
      "[CLS]": {
        "id": "[CLS]",
        "ids": [
          2
        ],
        "tokens": [
          "[CLS]"
        ]
      },
      "[SEP]": {
        "id": "[SEP]",
        "ids": [
          3
        ],
        "tokens": [
          "[SEP]"
        ]
      }
    }
  },
  "decoder": {
    "type": "WordPiece",
    "prefix": "##",
    "cleanup": true
  },
  "model": {
    "type": "WordPiece",
    "unk_token": "[UNK]",
    "continuing_subword_prefix": "##",
    "max_input_chars_per_word": 100,
    "vocab": {
      "[PAD]": 0,
      "[UNK]": 1,
      "[CLS]": 2,
      "[SEP]": 3,
      "[MASK]": 4,
      "!": 5,
      "\"": 6,
      "#": 7,
      "'": 8,
      "(": 9,
      ")": 10,
      ",": 11,
      "-": 12,
      ".": 13,
      "0": 14,
      "1": 15,
      "2": 16,
      "3": 17,
      "4": 18,
      "5": 19,
      "6": 20,
      "7": 21,
      "8": 22,
      "9": 23,
      ":": 24,
      "?": 25,
      "A": 26,
      "B": 27,
      "C": 28,
      "D": 29,
      "E": 30,
      "F": 31,
      "G": 32,
      "H": 33,
      "I": 34,
      "J": 35,
      "K": 36,
      "L": 37,
      "M": 38,
      "N": 39,
      "O": 40,
      "P": 41,
      "Q": 42,
      "R": 43,
      "S": 44,
      "T": 45,
      "U": 46,
      "V": 47,
      "W": 48,
      "X": 49,
      "Y": 50,
      "Z": 51,
      "a": 52,
      "b": 53,
      "c": 54,
      "d": 55,
      "e": 56,
      "f": 57,
      "g": 58,
      "h": 59,
      "i": 60,
      "j": 61,
      "k": 62,
      "l": 63,
      "m": 64,
      "n": 65,
      "o": 66,
      "p": 67,
      "q": 68,
      "r": 69,
      "s": 70,
      "t": 71,
      "u": 72,
      "v": 73,
      "w": 74,
      "x": 75,
      "y": 76,
      "z": 77,
      "ì": 78,
      "ú": 79,
      "‘": 80,
      "’": 81,
      "“": 82,
      "”": 83,
      "…": 84,
      "##a": 85,
      "##l": 86,
      "##s": 87,
      "##t": 88,
      "##o": 89,
      "##g": 90,
      "##k": 91,
      "##m": 92,
      "##u": 93,
      "##i": 94,
      "##r": 95,
      "##n": 96,
      "##p": 97,
      "##d": 98,
      "##y": 99,
      "##b": 100,
      "##3": 101,
      "##e": 102,
      "##v": 103,
      "##c": 104,
      "##w": 105,
      "##h": 106,
      "##f": 107,
      "##j": 108,
      "##K": 109,
      "##S": 110,
      "##5": 111,
      "##1": 112,
      "##0": 113,
      "##6": 114,
      "##A": 115,
      "##N": 116,
      "##I": 117,
      "##O": 118,
      "##P": 119,
      "##G": 120,
      "##L": 121,
      "##T": 122,
      "##H": 123,
      "##q": 124,
      "##Y": 125,
      "##2": 126,
      "##4": 127,
      "##8": 128,
      "##V": 129,
      "##M": 130,
      "##D": 131,
      "##z": 132,
      "##B": 133,
      "##R": 134,
      "##9": 135,
      "##E": 136,
      "##7": 137,
      "##x": 138,
      "##F": 139,
      "##C": 140,
      "##W": 141,
      "##U": 142,
      "##J": 143,
      "##X": 144,
      "##Z": 145,
      "##Q": 146,
      "##ú": 147,
      "##ì": 148,
      "##an": 149,
      "##ti": 150,
      "##ag": 151,
      "ti": 152,
      "##ay": 153,
      "##en": 154,
      "iti": 155,
      "##na": 156,
      "##as": 157,
      "##da": 158,
      "##ga": 159,
      "##agi": 160,
      "##al": 161,
      "##ak": 162,
      "##ar": 163,
      "##in": 164,
      "##at": 165,
      "##agiti": 166,
      "##ang": 167,
      "nga": 168,
      "##on": 169,
      "##ad": 170,
      "##et": 171,
      "##ap": 172,
      "##am": 173,
      "ken": 174,
      "##ab": 175,
      "##to": 176,
      "dagiti": 177,
      "##ta": 178,
      "ni": 179,
      "##ai": 180,
      "##li": 181,
      "ag": 182,
      "pan": 183,
      "##er": 184,
      "##si": 185,
      "##di": 186,
      "##aw": 187,
      "ket": 188,
      "##no": 189,
      "##ur": 190,
      "##em": 191,
      "##ul": 192,
      "##es": 193,
      "kad": 194,
      "##um": 195,
      "##un": 196,
      "##ada": 197,
      "##aan": 198,
      "##ri": 199,
      "##toy": 200,
      "##us": 201,
      "##ayo": 202,
      "##eng": 203,
      "##el": 204,
      "##ud": 205,
      "kadagiti": 206,
      "##it": 207,
      "nag": 208,
      "##ina": 209,
      "##os": 210,
      "day": 211,
      "##ana": 212,
      "##is": 213,
      "##id": 214,
      "##sa": 215,
      "kas": 216,
      "##or": 217,
      "##ek": 218,
      "##nak": 219,
      "##eg": 220,
      "ad": 221,
      "##ing": 222,
      "##om": 223,
      "##ong": 224,
      "##una": 225,
      "##il": 226,
      "panag": 227,
      "mai": 228,
      "idi": 229,
      "##im": 230,
      "no": 231,
      "##ik": 232,
      "in": 233,
      "ta": 234,
      "##ip": 235,
      "man": 236,
      "##aysa": 237,
      "##su": 238,
      "##ig": 239,
      "##ed": 240,
      "##mo": 241,
      "saan": 242,
      "la": 243,
      "met": 244,
      "##ro": 245,
      "##ko": 246,
      "mang": 247,
      "di": 248,
      "##lo": 249,
      "pay": 250,
      "##tayo": 251,
      "##ho": 252,
      "##gem": 253,
      "##ib": 254,
      "##ia": 255,
      "##anna": 256,
      "am": 257,
      "mak": 258,
      "##ut": 259,
      "maysa": 260,
      "nak": 261,
      "##ub": 262,
      "pag": 263,
      "##ili": 264,
      "im": 265,
      "adda": 266,
      "##aba": 267,
      "##wan": 268,
      "daytoy": 269,
      "##ram": 270,
      "##uk": 271,
      "##alin": 272,
      "##ano": 273,
      "nai": 274,
      "##ung": 275,
      "##ati": 276,
      "laeng": 277,
      "##enno": 278,
      "nap": 279,
      "##up": 280,
      "an": 281,
      "wenno": 282,
      "##ac": 283,
      "##ian": 284,
      "Di": 285,
      "##ot": 286,
      "##va": 287,
      "##ku": 288,
      "pannak": 289,
      "##ayat": 290,
      "##apno": 291,
      "##ita": 292,
      "##eho": 293,
      "##asi": 294,
      "##ol": 295,
      "##aga": 296,
      "##re": 297,
      "na": 298,
      "##apu": 299,
      "##ehova": 300,
      "tapno": 301,
      "##ug": 302,
      "dayta": 303,
      "##uan": 304,
      "##dad": 305,
      "##ua": 306,
      "##ara": 307,
      "##ra": 308,
      "##yo": 309,
      "##ali": 310,
      "##anga": 311,
      "##apan": 312,
      "##ka": 313,
      "kina": 314,
      "##bi": 315,
      "panang": 316,
      "nas": 317,
      "##anda": 318,
      "##te": 319,
      "##pas": 320,
      "Ti": 321,
      "isu": 322,
      "kada": 323,
      "##la": 324,
      "##ulo": 325,
      "ma": 326,
      "nang": 327,
      "Dios": 328,
      "um": 329,
      "amin": 330,
      "##ng": 331,
      "##ok": 332,
      "##ona": 333,
      "##ep": 334,
      "mas": 335,
      "Jehova": 336,
      "##uma": 337,
      "Ngem": 338,
      "##awen": 339,
      "ngem": 340,
      "##ramid": 341,
      "##daw": 342,
      "##sion": 343,
      "##dan": 344,
      "##asion": 345,
      "##ic": 346,
      "##atta": 347,
      "Kas": 348,
      "##ir": 349,
      "kom": 350,
      "awan": 351,
      "##uno": 352,
      "maip": 353,
      "bal": 354,
      "is": 355,
      "##ani": 356,
      "Iti": 357,
      "##tan": 358,
      "No": 359,
      "##apul": 360,
      "##bag": 361,
      "##atay": 362,
      "dagi": 363,
      "##ma": 364,
      "gapu": 365,
      "##abalin": 366,
      "al": 367,
      "##asa": 368,
      "map": 369,
      "##gar": 370,
      "##ipud": 371,
      "##alak": 372,
      "##sur": 373,
      "##ari": 374,
      "##aya": 375,
      "pam": 376,
      "##pat": 377,
      "##eb": 378,
      "pro": 379,
      "agt": 380,
      "idiay": 381,
      "##adi": 382,
      "##po": 383,
      "##aram": 384,
      "##imm": 385,
      "##so": 386,
      "##ayan": 387,
      "Ad": 388,
      "In": 389,
      "si": 390,
      "Ag": 391,
      "##add": 392,
      "##nay": 393,
      "kin": 394,
      "##ray": 395,
      "##pi": 396,
      "Jes": 397,
      "##kel": 398,
      "##ec": 399,
      "Saan": 400,
      "##anag": 401,
      "##ter": 402,
      "kal": 403,
      "pas": 404,
      "agb": 405,
      "##angay": 406,
      "agp": 407,
      "An": 408,
      "##atan": 409,
      "##kuana": 410,
      "##sid": 411,
      "##lak": 412,
      "manipud": 413,
      "ap": 414,
      "##ags": 415,
      "##iag": 416,
      "##00": 417,
      "##ado": 418,
      "##abaen": 419,
      "##mi": 420,
      "##ulong": 421,
      "kab": 422,
      "kenkuana": 423,
      "##uar": 424,
      "Jesus": 425,
      "##enna": 426,
      "tatta": 427,
      "##law": 428,
      "ka": 429,
      "para": 430,
      "koma": 431,
      "sum": 432,
      "##oli": 433,
      "ip": 434,
      "pak": 435,
      "ina": 436,
      "##adduma": 437,
      "##ami": 438,
      "tattao": 439,
      "pang": 440,
      "##lia": 441,
      "dadduma": 442,
      "##gal": 443,
      "##tay": 444,
      "nab": 445,
      "babaen": 446,
      "Ch": 447,
      "Ilo": 448,
      "##anay": 449,
      "##le": 450,
      "ar": 451,
      "##tr": 452,
      "Bib": 453,
      "pagi": 454,
      "##bay": 455,
      "ay": 456,
      "##uy": 457,
      "##ton": 458,
      "##bo": 459,
      "##udno": 460,
      "nal": 461,
      "##gat": 462,
      "##ino": 463,
      "##ese": 464,
      "da": 465,
      "##tar": 466,
      "Biblia": 467,
      "imp": 468,
      "##ris": 469,
      "tao": 470,
      "##aay": 471,
      "kasta": 472,
      "dak": 473,
      "dagitoy": 474,
      "##tal": 475,
      "bab": 476,
      "##ao": 477,
      "##tu": 478,
      "##anto": 479,
      "Nag": 480,
      "##int": 481,
      "##enda": 482,
      "as": 483,
      "##lan": 484,
      "ditoy": 485,
      "##pan": 486,
      "##sia": 487,
      "mat": 488,
      "adu": 489,
      "daga": 490,
      "##pal": 491,
      "##lian": 492,
      "Idi": 493,
      "sab": 494,
      "##do": 495,
      "aldaw": 496,
      "tal": 497,
      "kar": 498,
      "##amak": 499,
      "##aro": 500,
      "##adagiti": 501,
      "aramid": 502,
      "##kan": 503,
      "##aramid": 504,
      "Am": 505,
      "Ket": 506,
      "##eh": 507,
      "##ah": 508,
      "mabalin": 509,
      "##AN": 510,
      "##tur": 511,
      "sak": 512,
      "ags": 513,
      "tawen": 514,
      "nagb": 515,
      "uray": 516,
      "es": 517,
      "Im": 518,
      "Is": 519,
      "##edi": 520,
      "biag": 521,
      "##agan": 522,
      "par": 523,
      "##kuada": 524,
      "##unana": 525,
      "##ted": 526,
      "kadakuada": 527,
      "Dagiti": 528,
      "##ero": 529,
      "bas": 530,
      "Adda": 531,
      "##uko": 532,
      "##unot": 533,
      "kayat": 534,
      "unay": 535,
      "ida": 536,
      "dua": 537,
      "nat": 538,
      "##og": 539,
      "ari": 540,
      "##ente": 541,
      "##io": 542,
      "Mar": 543,
      "Ania": 544,
      "Kin": 545,
      "##tor": 546,
      "maipapan": 547,
      "##sit": 548,
      "##bal": 549,
      "ania": 550,
      "##arita": 551,
      "##cos": 552,
      "##ob": 553,
      "##ayaw": 554,
      "ub": 555,
      "##der": 556,
      "##ayaat": 557,
      "Day": 558,
      "kap": 559,
      "##sat": 560,
      "##agas": 561,
      "##aman": 562,
      "##ilip": 563,
      "balay": 564,
      "##rib": 565,
      "##kayo": 566,
      "imm": 567,
      "tr": 568,
      "##nac": 569,
      "##abas": 570,
      "Ar": 571,
      "maik": 572,
      "ili": 573,
      "pannakai": 574,
      "##rud": 575,
      "sang": 576,
      "##kar": 577,
      "cadagiti": 578,
      "##anan": 579,
      "kadi": 580,
      "##awa": 581,
      "ita": 582,
      "20": 583,
      "ngarud": 584,
      "Sig": 585,
      "##man": 586,
      "##pasan": 587,
      "##dak": 588,
      "##ent": 589,
      "nagan": 590,
      "##age": 591,
      "aging": 592,
      "##udad": 593,
      "##ers": 594,
      "Man": 595,
      "pagilian": 596,
      "##he": 597,
      "##ubong": 598,
      "##angan": 599,
      "##uto": 600,
      "##ugar": 601,
      "##onal": 602,
      "##uc": 603,
      "##amm": 604,
      "##alaki": 605,
      "lal": 606,
      "##par": 607,
      "##uli": 608,
      "manen": 609,
      "##agsak": 610,
      "kani": 611,
      "##pay": 612,
      "##angr": 613,
      "##pak": 614,
      "mal": 615,
      "sabali": 616,
      "##deng": 617,
      "##udi": 618,
      "pamm": 619,
      "##san": 620,
      "nad": 621,
      "imb": 622,
      "##ammo": 623,
      "nar": 624,
      "##kat": 625,
      "lalaki": 626,
      "pin": 627,
      "##din": 628,
      "##urat": 629,
      "kak": 630,
      "##sh": 631,
      "tung": 632,
      "##ca": 633,
      "sadi": 634,
      "##rael": 635,
      "##ort": 636,
      "##angu": 637,
      "re": 638,
      "##uloy": 639,
      "Ilocos": 640,
      "anak": 641,
      "##eo": 642,
      "##sip": 643,
      "##ala": 644,
      "paset": 645,
      "Isu": 646,
      "##upay": 647,
      "bagi": 648,
      "kam": 649,
      "##arangay": 650,
      "##awat": 651,
      "##kam": 652,
      "##ursur": 653,
      "cas": 654,
      "jehova": 655,
      "mar": 656,
      "##erno": 657,
      "ammo": 658,
      "##oman": 659,
      "poli": 660,
      "##anayon": 661,
      "##co": 662,
      "##anguage": 663,
      "annak": 664,
      "##awan": 665,
      "pina": 666,
      "agingga": 667,
      "##umb": 668,
      "19": 669,
      "##diay": 670,
      "##bat": 671,
      "##ilang": 672,
      "##ten": 673,
      "##angg": 674,
      "##res": 675,
      "##ni": 676,
      "##sar": 677,
      "kaniak": 678,
      "##ch": 679,
      "##adu": 680,
      "##ult": 681,
      "kadagi": 682,
      "##gaw": 683,
      "##asamak": 684,
      "##rin": 685,
      "Language": 686,
      "go": 687,
      "Sign": 688,
      "##amb": 689,
      "##mat": 690,
      "##kas": 691,
      "sal": 692,
      "##erb": 693,
      "lugar": 694,
      "##de": 695,
      "masapul": 696,
      "kon": 697,
      "##agip": 698,
      "##integ": 699,
      "ketdi": 700,
      "##ish": 701,
      "##min": 702,
      "sin": 703,
      "##erbi": 704,
      "Nak": 705,
      "##igan": 706,
      "dan": 707,
      "prob": 708,
      "##abaho": 709,
      "sadiay": 710,
      "##gan": 711,
      "sanga": 712,
      "##av": 713,
      "##sidente": 714,
      "##uray": 715,
      "##usar": 716,
      "##ento": 717,
      "mab": 718,
      "Mai": 719,
      "sa": 720,
      "##entayo": 721,
      "##pet": 722,
      "##rek": 723,
      "or": 724,
      "##apulan": 725,
      "lallak": 726,
      "Nai": 727,
      "##gap": 728,
      "##dal": 729,
      "tunggal": 730,
      "addaan": 731,
      "##awag": 732,
      "siudad": 733,
      "##bierno": 734,
      "##las": 735,
      "kinuna": 736,
      "kan": 737,
      "201": 738,
      "##mbag": 739,
      "ak": 740,
      "##sio": 741,
      "Es": 742,
      "agbalin": 743,
      "##sub": 744,
      "##op": 745,
      "kenka": 746,
      "latta": 747,
      "nam": 748,
      "##pudno": 749,
      "##abi": 750,
      "panawen": 751,
      "##iw": 752,
      "Mal": 753,
      "gobierno": 754,
      "##yan": 755,
      "##od": 756,
      "##lem": 757,
      "banag": 758,
      "lallaki": 759,
      "##atang": 760,
      "##tak": 761,
      "##kami": 762,
      "##inas": 763,
      "Ta": 764,
      "kinunana": 765,
      "kasla": 766,
      "##tion": 767,
      "##adda": 768,
      "##ilin": 769,
      "Kal": 770,
      "##emb": 771,
      "##adal": 772,
      "pamili": 773,
      "##uana": 774,
      "##ion": 775,
      "##iti": 776,
      "##asao": 777,
      "ib": 778,
      "##apatay": 779,
      "##raman": 780,
      "inter": 781,
      "##adan": 782,
      "Pag": 783,
      "lubong": 784,
      "##ine": 785,
      "kuna": 786,
      "##abil": 787,
      "##sian": 788,
      "##arag": 789,
      "##nan": 790,
      "Kinuna": 791,
      "##sial": 792,
      "sig": 793,
      "mo": 794,
      "##urot": 795,
      "##bing": 796,
      "##TI": 797,
      "##nga": 798,
      "kalpasan": 799,
      "agk": 800,
      "##absat": 801,
      "Daytoy": 802,
      "##piri": 803,
      "##rug": 804,
      "##biag": 805,
      "umili": 806,
      "##surat": 807,
      "kasano": 808,
      "##bas": 809,
      "##ays": 810,
      "##ukod": 811,
      "mam": 812,
      "##angruna": 813,
      "inaramid": 814,
      "##ce": 815,
      "Na": 816,
      "##unga": 817,
      "##ken": 818,
      "##bak": 819,
      "##oy": 820,
      "nanga": 821,
      "un": 822,
      "##angit": 823,
      "##pek": 824,
      "Apo": 825,
      "##agm": 826,
      "dina": 827,
      "##ria": 828,
      "##pen": 829,
      "##akita": 830,
      "##nam": 831,
      "mapan": 832,
      "adi": 833,
      "##nal": 834,
      "##ateg": 835,
      "mangip": 836,
      "tallo": 837,
      "##teng": 838,
      "babai": 839,
      "isuna": 840,
      "##all": 841,
      "##aka": 842,
      "##ias": 843,
      "##nek": 844,
      "Kasano": 845,
      "pags": 846,
      "maib": 847,
      "##eli": 848,
      "pal": 849,
      "adad": 850,
      "Sur": 851,
      "##subli": 852,
      "##tuan": 853,
      "##ngeg": 854,
      "Kris": 855,
      "dakkel": 856,
      "##rik": 857,
      "##danto": 858,
      "##ungbat": 859,
      "##ultuloy": 860,
      "ik": 861,
      "Ab": 862,
      "##empo": 863,
      "Awan": 864,
      "##AG": 865,
      "##ura": 866,
      "##apa": 867,
      "pus": 868,
      "##ika": 869,
      "aw": 870,
      "Sak": 871,
      "##ato": 872,
      "tim": 873,
      "##agna": 874,
      "kai": 875,
      "bul": 876,
      "##arak": 877,
      "##ity": 878,
      "##ew": 879,
      "##ito": 880,
      "##awid": 881,
      "pannaka": 882,
      "tum": 883,
      "apay": 884,
      "ang": 885,
      "##usor": 886,
      "Chin": 887,
      "##per": 888,
      "##akit": 889,
      "Ni": 890,
      "##qu": 891,
      "##aliw": 892,
      "Nas": 893,
      "kadatayo": 894,
      "##ungpal": 895,
      "Mas": 896,
      "nasayaat": 897,
      "simm": 898,
      "Al": 899,
      "##ist": 900,
      "##day": 901,
      "Apay": 902,
      "dum": 903,
      "##adua": 904,
      "##isi": 905,
      "##ann": 906,
      "agda": 907,
      "##atak": 908,
      "ng": 909,
      "##atayo": 910,
      "Gapu": 911,
      "##ida": 912,
      "Chinese": 913,
      "##udso": 914,
      "tiempo": 915,
      "nags": 916,
      "##ya": 917,
      "panags": 918,
      "##ial": 919,
      "##pon": 920,
      "ins": 921,
      "Israel": 922,
      "pudno": 923,
      "TI": 924,
      "com": 925,
      "umuna": 926,
      "##alan": 927,
      "##inan": 928,
      "##ran": 929,
      "bayat": 930,
      "Nap": 931,
      "Yah": 932,
      "##balin": 933,
      "agn": 934,
      "Yahw": 935,
      "Yahweh": 936,
      "cada": 937,
      "##ula": 938,
      "##agus": 939,
      "San": 940,
      "##teg": 941,
      "idin": 942,
      "##udsod": 943,
      "opi": 944,
      "sim": 945,
      "ayat": 946,
      "##engan": 947,
      "napan": 948,
      "##uen": 949,
      "ab": 950,
      "##dayaw": 951,
      "Ma": 952,
      "metten": 953,
      "##ayy": 954,
      "##antay": 955,
      "Nupay": 956,
      "natay": 957,
      "dakes": 958,
      "##ubli": 959,
      "ubbing": 960,
      "##amano": 961,
      "##sis": 962,
      "##ismo": 963,
      "##son": 964,
      "makap": 965,
      "Pan": 966,
      "bay": 967,
      "##onto": 968,
      "kasapulan": 969,
      "##AS": 970,
      "##agmamano": 971,
      "res": 972,
      "##ursuro": 973,
      "danum": 974,
      "##ilipinas": 975,
      "dam": 976,
      "mann": 977,
      "probin": 978,
      "Maysa": 979,
      "pagar": 980,
      "lib": 981,
      "nada": 982,
      "saanda": 983,
      "aga": 984,
      "##angon": 985,
      "##ikna": 986,
      "##lawlaw": 987,
      "##men": 988,
      "##urok": 989,
      "##aran": 990,
      "de": 991,
      "Mabalin": 992,
      "trabaho": 993,
      "##sang": 994,
      "Um": 995,
      "Sw": 996,
      "##inn": 997,
      "pakai": 998,
      "baro": 999,
      "##abaw": 1000,
      "##ata": 1001,
      "##edia": 1002,
      "it": 1003,
      "##ayyem": 1004,
      "agar": 1005,
      "Dav": 1006,
      "sakbay": 1007,
      "##uyo": 1008,
      "##dael": 1009,
      "##alo": 1010,
      "##reg": 1011,
      "bukod": 1012,
      "bar": 1013,
      "##tin": 1014,
      "##enyo": 1015,
      "##ore": 1016,
      "##osi": 1017,
      "##EN": 1018,
      "nagp": 1019,
      "New": 1020,
      "sib": 1021,
      "nakap": 1022,
      "bin": 1023,
      "bak": 1024,
      "##atulong": 1025,
      "##th": 1026,
      "David": 1027,
      "kadagitoy": 1028,
      "Adu": 1029,
      "lim": 1030,
      "##and": 1031,
      "panunot": 1032,
      "##ation": 1033,
      "dios": 1034,
      "##abael": 1035,
      "napal": 1036,
      "##atar": 1037,
      "##ayag": 1038,
      "##sipud": 1039,
      "##wen": 1040,
      "kita": 1041,
      "Qu": 1042,
      "nakai": 1043,
      "gr": 1044,
      "##gapu": 1045,
      "##war": 1046,
      "naimbag": 1047,
      "linteg": 1048,
      "nagbalin": 1049,
      "Ken": 1050,
      "##angrunaan": 1051,
      "##oc": 1052,
      "ibag": 1053,
      "manga": 1054,
      "##lig": 1055,
      "##sina": 1056,
      "dagita": 1057,
      "##uel": 1058,
      "nakas": 1059,
      "kakabsat": 1060,
      "##ubo": 1061,
      "##aniw": 1062,
      "ani": 1063,
      "##tik": 1064,
      "##ukel": 1065,
      "##baga": 1066,
      "pad": 1067,
      "##apuna": 1068,
      "pammati": 1069,
      "##abii": 1070,
      "##ayam": 1071,
      "sumagmamano": 1072,
      "##ech": 1073,
      "##pasanna": 1074,
      "maka": 1075,
      "##ril": 1076,
      "##nama": 1077,
      "sarita": 1078,
      "##udan": 1079,
      "##iko": 1080,
      "lak": 1081,
      "kadakayo": 1082,
      "##sab": 1083,
      "ITI": 1084,
      "naka": 1085,
      "##residente": 1086,
      "##emp": 1087,
      "panagk": 1088,
      "##kano": 1089,
      "##du": 1090,
      "panagp": 1091,
      "kano": 1092,
      "##liw": 1093,
      "kenni": 1094,
      "##AY": 1095,
      "##araon": 1096,
      "Mak": 1097,
      "##alinteg": 1098,
      "dat": 1099,
      "##pulo": 1100,
      "Barangay": 1101,
      "##ubat": 1102,
      "polis": 1103,
      "##ela": 1104,
      "Sim": 1105,
      "##kkel": 1106,
      "##ario": 1107,
      "il": 1108,
      "Uray": 1109,
      "##nos": 1110,
      "panagb": 1111,
      "kinapudno": 1112,
      "Mo": 1113,
      "##ikti": 1114,
      "##tiano": 1115,
      "##pateg": 1116,
      "laengen": 1117,
      "Juan": 1118,
      "Sal": 1119,
      "##esti": 1120,
      "pu": 1121,
      "panagi": 1122,
      "##ubos": 1123,
      "##AL": 1124,
      "napasamak": 1125,
      "adipen": 1126,
      "agsipud": 1127,
      "##angk": 1128,
      "isuda": 1129,
      "ri": 1130,
      "Saksi": 1131,
      "Jos": 1132,
      "##inaed": 1133,
      "##intas": 1134,
      "##tibo": 1135,
      "ubing": 1136,
      "##orm": 1137,
      "Roman": 1138,
      "##alem": 1139,
      "bum": 1140,
      "##uda": 1141,
      "bi": 1142,
      "pamilia": 1143,
      "agl": 1144,
      "##papan": 1145,
      "kangrunaan": 1146,
      "agtut": 1147,
      "##ugan": 1148,
      "agdama": 1149,
      "may": 1150,
      "##itan": 1151,
      "babb": 1152,
      "##ged": 1153,
      "##ppat": 1154,
      "##iktima": 1155,
      "dis": 1156,
      "uneg": 1157,
      "##iac": 1158,
      "##eddeng": 1159,
      "maipaay": 1160,
      "kuar": 1161,
      "##ista": 1162,
      "basol": 1163,
      "##tot": 1164,
      "##ue": 1165,
      "aniaman": 1166,
      "rabii": 1167,
      "##ila": 1168,
      "ek": 1169,
      "##tra": 1170,
      "cadac": 1171,
      "##dud": 1172,
      "City": 1173,
      "mag": 1174,
      "##ileg": 1175,
      "##ensia": 1176,
      "sag": 1177,
      "12": 1178,
      "bulan": 1179,
      "isut": 1180,
      "aramiden": 1181,
      "##ba": 1182,
      "##lic": 1183,
      "##yon": 1184,
      "min": 1185,
      "probinsia": 1186,
      "sao": 1187,
      "kenc": 1188,
      "##ras": 1189,
      "##uteng": 1190,
      "nasao": 1191,
      "##rian": 1192,
      "Kristiano": 1193,
      "can": 1194,
      "Pro": 1195,
      "##pa": 1196,
      "##abak": 1197,
      "tulong": 1198,
      "##ayor": 1199,
      "itoy": 1200,
      "dim": 1201,
      "naan": 1202,
      "nagannak": 1203,
      "##ammuan": 1204,
      "Kuna": 1205,
      "##duk": 1206,
      "inton": 1207,
      "kasasa": 1208,
      "nain": 1209,
      "barangay": 1210,
      "##big": 1211,
      "Jer": 1212,
      "##ban": 1213,
      "##tog": 1214,
      "annac": 1215,
      "##kamat": 1216,
      "##uada": 1217,
      "##aban": 1218,
      "##urado": 1219,
      "##umbeng": 1220,
      "##ulos": 1221,
      "Si": 1222,
      "pannakap": 1223,
      "##ema": 1224,
      "##ayen": 1225,
      "##adawan": 1226,
      "kat": 1227,
      "Nor": 1228,
      "sar": 1229,
      "babbai": 1230,
      "bassit": 1231,
      "##ilipino": 1232,
      "biktima": 1233,
      "##hi": 1234,
      "tar": 1235,
      "News": 1236,
      "##ungg": 1237,
      "libro": 1238,
      "dada": 1239,
      "##uro": 1240,
      "##ff": 1241,
      "##arigat": 1242,
      "##alip": 1243,
      "##igsa": 1244,
      "##asat": 1245,
      "##ey": 1246,
      "kencuana": 1247,
      "gag": 1248,
      "##eksion": 1249,
      "##dek": 1250,
      "##ell": 1251,
      "##ikas": 1252,
      "##antayo": 1253,
      "##sik": 1254,
      "ngata": 1255,
      "##egun": 1256,
      "##ver": 1257,
      "##uba": 1258,
      "##upo": 1259,
      "##gnay": 1260,
      "##ablo": 1261,
      "##inoman": 1262,
      "##aruno": 1263,
      "##piritu": 1264,
      "##uti": 1265,
      "200": 1266,
      "kabael": 1267,
      "##ises": 1268,
      "Ilokano": 1269,
      "sango": 1270,
      "##uat": 1271,
      "##az": 1272,
      "##sing": 1273,
      "kaad": 1274,
      "##urong": 1275,
      "Sa": 1276,
      "##sak": 1277,
      "bag": 1278,
      "##undaw": 1279,
      "##panunot": 1280,
      "makit": 1281,
      "##lov": 1282,
      "10": 1283,
      "ngamin": 1284,
      "##gak": 1285,
      "11": 1286,
      "tina": 1287,
      "Manda": 1288,
      "##ayatan": 1289,
      "Slov": 1290,
      "##we": 1291,
      "##alek": 1292,
      "uppat": 1293,
      "opisial": 1294,
      "##alog": 1295,
      "##IT": 1296,
      "##lik": 1297,
      "kasasaad": 1298,
      "##pit": 1299,
      "israel": 1300,
      "Nal": 1301,
      "##umad": 1302,
      "##ongan": 1303,
      "##tional": 1304,
      "##ador": 1305,
      "taga": 1306,
      "mismo": 1307,
      "##ren": 1308,
      "panangip": 1309,
      "intero": 1310,
      "naip": 1311,
      "##sig": 1312,
      "##sua": 1313,
      "##pe": 1314,
      "##inal": 1315,
      "Mandarin": 1316,
      "agraman": 1317,
      "##sal": 1318,
      "##se": 1319,
      "##erbian": 1320,
      "el": 1321,
      "Kasta": 1322,
      "##naig": 1323,
      "pap": 1324,
      "##ayang": 1325,
      "iny": 1326,
      "##umaduma": 1327,
      "##don": 1328,
      "##iso": 1329,
      "pangg": 1330,
      "##mon": 1331,
      "tin": 1332,
      "agas": 1333,
      "##gram": 1334,
      "bamb": 1335,
      "##ukaw": 1336,
      "##baliw": 1337,
      "ben": 1338,
      "asaw": 1339,
      "sakit": 1340,
      "maaw": 1341,
      "##embre": 1342,
      "##amin": 1343,
      "##ayon": 1344,
      "##uman": 1345,
      "##ly": 1346,
      "##osto": 1347,
      "nati": 1348,
      "grupo": 1349,
      "18": 1350,
      "##ibiag": 1351,
      "Tr": 1352,
      "15": 1353,
      "##ber": 1354,
      "##ekto": 1355,
      "##IN": 1356,
      "pagarigan": 1357,
      "##rugi": 1358,
      "Mat": 1359,
      "Sam": 1360,
      "##mp": 1361,
      "##ev": 1362,
      "##ez": 1363,
      "kanayon": 1364,
      "Dut": 1365,
      "##asan": 1366,
      "##inna": 1367,
      "itan": 1368,
      "sup": 1369,
      "##undaway": 1370,
      "car": 1371,
      "##apati": 1372,
      "daton": 1373,
      "pat": 1374,
      "sus": 1375,
      "##risto": 1376,
      "##sao": 1377,
      "kong": 1378,
      "kabsat": 1379,
      "##eknek": 1380,
      "##ment": 1381,
      "panggep": 1382,
      "##usalem": 1383,
      "ig": 1384,
      "##uga": 1385,
      "##est": 1386,
      "##udo": 1387,
      "##sideg": 1388,
      "##kal": 1389,
      "Kalpasan": 1390,
      "##engg": 1391,
      "sit": 1392,
      "Pas": 1393,
      "##ayna": 1394,
      "kum": 1395,
      "##ego": 1396,
      "posi": 1397,
      "mi": 1398,
      "idinto": 1399,
      "kayo": 1400,
      "##ugu": 1401,
      "puso": 1402,
      "##ante": 1403,
      "##nong": 1404,
      "##AR": 1405,
      "makita": 1406,
      "##dor": 1407,
      "nadumaduma": 1408,
      "agnanayon": 1409,
      "##nog": 1410,
      "mannurat": 1411,
      "##rio": 1412,
      "##urk": 1413,
      "##ango": 1414,
      "agarup": 1415,
      "Lu": 1416,
      "##aray": 1417,
      "langit": 1418,
      "mapas": 1419,
      "en": 1420,
      "napalabas": 1421,
      "##mag": 1422,
      "##tian": 1423,
      "Kayat": 1424,
      "rumbeng": 1425,
      "lat": 1426,
      "pananga": 1427,
      "##nang": 1428,
      "pakas": 1429,
      "mannal": 1430,
      "Poli": 1431,
      "iy": 1432,
      "##ama": 1433,
      "##erna": 1434,
      "mannalon": 1435,
      "Cor": 1436,
      "anac": 1437,
      "##ilo": 1438,
      "kameng": 1439,
      "pr": 1440,
      "##imong": 1441,
      "##ena": 1442,
      "rep": 1443,
      "Serbian": 1444,
      "Sin": 1445,
      "##tok": 1446,
      "mapasamak": 1447,
      "sol": 1448,
      "tul": 1449,
      "Pilipinas": 1450,
      "##nero": 1451,
      "##era": 1452,
      "nagl": 1453,
      "kastoy": 1454,
      "naaramid": 1455,
      "##nag": 1456,
      "##rok": 1457,
      "pagta": 1458,
      "Presidente": 1459,
      "nasken": 1460,
      "##ason": 1461,
      "adadda": 1462,
      "##agana": 1463,
      "Masapul": 1464,
      "bambanag": 1465,
      "##uanan": 1466,
      "saanna": 1467,
      "naik": 1468,
      "din": 1469,
      "##aet": 1470,
      "##nana": 1471,
      "Dan": 1472,
      "Ita": 1473,
      "Kalpasanna": 1474,
      "Tag": 1475,
      "mad": 1476,
      "##lako": 1477,
      "##agr": 1478,
      "daniw": 1479,
      "##arian": 1480,
      "Panag": 1481,
      "##asang": 1482,
      "dagus": 1483,
      "##ukat": 1484,
      "umay": 1485,
      "Dayta": 1486,
      "Ay": 1487,
      "daydi": 1488,
      "##ant": 1489,
      "lattan": 1490,
      "##igbig": 1491,
      "##ric": 1492,
      "dida": 1493,
      "pulos": 1494,
      "wagas": 1495,
      "Dagi": 1496,
      "##aon": 1497,
      "##agl": 1498,
      "##wa": 1499,
      "dalan": 1500,
      "##ayk": 1501,
      "asideg": 1502,
      "##dig": 1503,
      "##uneg": 1504,
      "##fi": 1505,
      "##erman": 1506,
      "nan": 1507,
      "Heb": 1508,
      "agtutubo": 1509,
      "Gapuna": 1510,
      "kenca": 1511,
      "kaso": 1512,
      "##ind": 1513,
      "##iter": 1514,
      "##itana": 1515,
      "##bagana": 1516,
      "##ianan": 1517,
      "aya": 1518,
      "##ice": 1519,
      "mangis": 1520,
      "diak": 1521,
      "nagk": 1522,
      "oras": 1523,
      "Kina": 1524,
      "nagt": 1525,
      "Mang": 1526,
      "Cy": 1527,
      "##gip": 1528,
      "problem": 1529,
      "##aten": 1530,
      "##duduma": 1531,
      "##daydayaw": 1532,
      "Pablo": 1533,
      "pl": 1534,
      "program": 1535,
      "##dakkel": 1536,
      "Gre": 1537,
      "Kir": 1538,
      "##ON": 1539,
      "saanen": 1540,
      "##sada": 1541,
      "##mar": 1542,
      "##maysa": 1543,
      "mangp": 1544,
      "agtultuloy": 1545,
      "14": 1546,
      "##AK": 1547,
      "gundaway": 1548,
      "taraon": 1549,
      "daydiay": 1550,
      "##ongo": 1551,
      "kaaduan": 1552,
      "##abal": 1553,
      "##ultur": 1554,
      "##akder": 1555,
      "lima": 1556,
      "##regasion": 1557,
      "##kararag": 1558,
      "##tek": 1559,
      "panagbiag": 1560,
      "##ikut": 1561,
      "Kadagiti": 1562,
      "##agay": 1563,
      "##usan": 1564,
      "nangr": 1565,
      "##uya": 1566,
      "sabsab": 1567,
      "sawen": 1568,
      "mangib": 1569,
      "rum": 1570,
      "##tang": 1571,
      "##iddaw": 1572,
      "##alaksid": 1573,
      "##naed": 1574,
      "ban": 1575,
      "manag": 1576,
      "baybay": 1577,
      "##ensa": 1578,
      "publi": 1579,
      "##unod": 1580,
      "ru": 1581,
      "##das": 1582,
      "##ble": 1583,
      "##nanto": 1584,
      "casta": 1585,
      "nagi": 1586,
      "##agum": 1587,
      "kaipapan": 1588,
      "ku": 1589,
      "##kon": 1590,
      "##AD": 1591,
      "##app": 1592,
      "##akkel": 1593,
      "##uahe": 1594,
      "espiritu": 1595,
      "sil": 1596,
      "dagidiay": 1597,
      "teng": 1598,
      "napateg": 1599,
      "##aditional": 1600,
      "##pekto": 1601,
      "Ped": 1602,
      "##ty": 1603,
      "##aritaan": 1604,
      "##otho": 1605,
      "rason": 1606,
      "##esotho": 1607,
      "nangip": 1608,
      "##uni": 1609,
      "Ben": 1610,
      "ur": 1611,
      "Chit": 1612,
      "Cyril": 1613,
      "panagl": 1614,
      "naananay": 1615,
      "adadu": 1616,
      "nupay": 1617,
      "agta": 1618,
      "coma": 1619,
      "Cyrillic": 1620,
      "Traditional": 1621,
      "kongregasion": 1622,
      "rabaw": 1623,
      "Rus": 1624,
      "##daaw": 1625,
      "13": 1626,
      "##hel": 1627,
      "##000": 1628,
      "##uyog": 1629,
      "##tiko": 1630,
      "kri": 1631,
      "##AT": 1632,
      "damag": 1633,
      "Vigan": 1634,
      "nangruna": 1635,
      "Wen": 1636,
      "##lis": 1637,
      "rin": 1638,
      "Az": 1639,
      "bilang": 1640,
      "##beng": 1641,
      "Pang": 1642,
      "##rig": 1643,
      "nac": 1644,
      "##esto": 1645,
      "lum": 1646,
      "##sision": 1647,
      "##pli": 1648,
      "##her": 1649,
      "##usa": 1650,
      "Jose": 1651,
      "Jo": 1652,
      "kuarta": 1653,
      "##les": 1654,
      "##tis": 1655,
      "sasao": 1656,
      "nalab": 1657,
      "agtal": 1658,
      "Pagarian": 1659,
      "nasurok": 1660,
      "##den": 1661,
      "##ve": 1662,
      "##ago": 1663,
      "sabsabali": 1664,
      "##bar": 1665,
      "adal": 1666,
      "##osa": 1667,
      "##dision": 1668,
      "##addaan": 1669,
      "law": 1670,
      "##mas": 1671,
      "##har": 1672,
      "##ret": 1673,
      "Eng": 1674,
      "##wat": 1675,
      "Ina": 1676,
      "bagina": 1677,
      "##suk": 1678,
      "##port": 1679,
      "##ribu": 1680,
      "bang": 1681,
      "mait": 1682,
      "##ebr": 1683,
      "##mek": 1684,
      "amm": 1685,
      "##adalan": 1686,
      "##ica": 1687,
      "araramid": 1688,
      "asawa": 1689,
      "mangit": 1690,
      "##lio": 1691,
      "umiso": 1692,
      "sac": 1693,
      "itay": 1694,
      "##aramat": 1695,
      "Japan": 1696,
      "kayatna": 1697,
      "Ap": 1698,
      "Map": 1699,
      "ima": 1700,
      "las": 1701,
      "maaramid": 1702,
      "##utot": 1703,
      "imbaga": 1704,
      "##istr": 1705,
      "##dang": 1706,
      "##ahili": 1707,
      "##ding": 1708,
      "17": 1709,
      "Af": 1710,
      "Sep": 1711,
      "ink": 1712,
      "dar": 1713,
      "matay": 1714,
      "tay": 1715,
      "##wag": 1716,
      "Nar": 1717,
      "Turk": 1718,
      "makatulong": 1719,
      "Swahili": 1720,
      "timm": 1721,
      "##onga": 1722,
      "Sing": 1723,
      "As": 1724,
      "##alubos": 1725,
      "bu": 1726,
      "##ating": 1727,
      "##ker": 1728,
      "Moises": 1729,
      "mada": 1730,
      "##uyot": 1731,
      "Kab": 1732,
      "Can": 1733,
      "aglawlaw": 1734,
      "mili": 1735,
      "saludsod": 1736,
      "##ef": 1737,
      "##erm": 1738,
      "##urang": 1739,
      "lina": 1740,
      "##nib": 1741,
      "masak": 1742,
      "caniac": 1743,
      "reli": 1744,
      "German": 1745,
      "Nab": 1746,
      "nasion": 1747,
      "Imb": 1748,
      "16": 1749,
      "##ungtot": 1750,
      "sangapulo": 1751,
      "naw": 1752,
      "##ilidad": 1753,
      "##ideg": 1754,
      "talaga": 1755,
      "##unk": 1756,
      "Hebre": 1757,
      "Pedro": 1758,
      "pito": 1759,
      "lam": 1760,
      "sel": 1761,
      "cadacuada": 1762,
      "Tapno": 1763,
      "gimong": 1764,
      "##yaman": 1765,
      "##ons": 1766,
      "##tro": 1767,
      "sek": 1768,
      "##ayangkat": 1769,
      "##tic": 1770,
      "lik": 1771,
      "klas": 1772,
      "por": 1773,
      "pre": 1774,
      "tur": 1775,
      "##abla": 1776,
      "Segun": 1777,
      "##linteg": 1778,
      "lin": 1779,
      "san": 1780,
      "gas": 1781,
      "rup": 1782,
      "addan": 1783,
      "##onia": 1784,
      "Nang": 1785,
      "Port": 1786,
      "mainaig": 1787,
      "ada": 1788,
      "pers": 1789,
      "Sen": 1790,
      "##rain": 1791,
      "##pirituan": 1792,
      "produk": 1793,
      "##pital": 1794,
      "Kita": 1795,
      "nakaro": 1796,
      "##agsen": 1797,
      "##espirituan": 1798,
      "dara": 1799,
      "##apay": 1800,
      "##get": 1801,
      "##igh": 1802,
      "##ligi": 1803,
      "##fied": 1804,
      "Ef": 1805,
      "Ital": 1806,
      "##alidad": 1807,
      "namnama": 1808,
      "##angato": 1809,
      "##atanas": 1810,
      "maibusor": 1811,
      "ama": 1812,
      "##lish": 1813,
      "##dado": 1814,
      "##gipto": 1815,
      "##arang": 1816,
      "makas": 1817,
      "immay": 1818,
      "##bayan": 1819,
      "Jerusalem": 1820,
      "Kore": 1821,
      "##ulta": 1822,
      "su": 1823,
      "##ansan": 1824,
      "##ill": 1825,
      "sina": 1826,
      "La": 1827,
      "Kasla": 1828,
      "mapag": 1829,
      "Satanas": 1830,
      "##duma": 1831,
      "residente": 1832,
      "apo": 1833,
      "nakita": 1834,
      "##ading": 1835,
      "dita": 1836,
      "Mac": 1837,
      "inal": 1838,
      "rikna": 1839,
      "lengg": 1840,
      "reb": 1841,
      "inted": 1842,
      "pinag": 1843,
      "Ari": 1844,
      "##ungar": 1845,
      "##ket": 1846,
      "problema": 1847,
      "##aij": 1848,
      "##19": 1849,
      "##apat": 1850,
      "pagp": 1851,
      "naespirituan": 1852,
      "##anggep": 1853,
      "##erbaij": 1854,
      "##ugi": 1855,
      "##ASA": 1856,
      "Azerbaij": 1857,
      "Bul": 1858,
      "##talinaed": 1859,
      "agm": 1860,
      "programa": 1861,
      "ram": 1862,
      "pagsasao": 1863,
      "Par": 1864,
      "##aammo": 1865,
      "awanan": 1866,
      "##arakan": 1867,
      "gubat": 1868,
      "Singson": 1869,
      "##etro": 1870,
      "Armen": 1871,
      "Portugu": 1872,
      "##sawa": 1873,
      "sen": 1874,
      "inn": 1875,
      "sir": 1876,
      "maikadua": 1877,
      "sip": 1878,
      "##tos": 1879,
      "Tagalog": 1880,
      "nadakamat": 1881,
      "##ole": 1882,
      "##ru": 1883,
      "##ts": 1884,
      "##non": 1885,
      "##baan": 1886,
      "##eknan": 1887,
      "Portuguese": 1888,
      "##nayon": 1889,
      "##asideg": 1890,
      "##org": 1891,
      "balikas": 1892,
      "baket": 1893,
      "Azerbaijani": 1894,
      "prin": 1895,
      "##kua": 1896,
      "##done": 1897,
      "21": 1898,
      "##ting": 1899,
      "Rom": 1900,
      "mais": 1901,
      "awanen": 1902,
      "suspek": 1903,
      "bali": 1904,
      "##ais": 1905,
      "##illi": 1906,
      "##pada": 1907,
      "##vid": 1908,
      "##ele": 1909,
      "##omon": 1910,
      "Ammo": 1911,
      "Armenian": 1912,
      "sungbat": 1913,
      "Simpli": 1914,
      "ul": 1915,
      "Simplified": 1916,
      "##uso": 1917,
      "English": 1918,
      "##ex": 1919,
      "##otan": 1920,
      "pann": 1921,
      "Indone": 1922,
      "##ardeng": 1923,
      "##itak": 1924,
      "##tika": 1925,
      "##pania": 1926,
      "Arab": 1927,
      "pun": 1928,
      "##hion": 1929,
      "naggapu": 1930,
      "nalak": 1931,
      "lugan": 1932,
      "##huan": 1933,
      "pasamak": 1934,
      "##hai": 1935,
      "mensa": 1936,
      "##imb": 1937,
      "Anak": 1938,
      "##suro": 1939,
      "naib": 1940,
      "##onan": 1941,
      "##amp": 1942,
      "pimm": 1943,
      "sad": 1944,
      "liter": 1945,
      "##iy": 1946,
      "##ostol": 1947,
      "ulo": 1948,
      "##tignay": 1949,
      "##assit": 1950,
      "rel": 1951,
      "Dagitoy": 1952,
      "Mayor": 1953,
      "Uk": 1954,
      "##dida": 1955,
      "eks": 1956,
      "Ge": 1957,
      "bantay": 1958,
      "asawana": 1959,
      "Italian": 1960,
      "pannakab": 1961,
      "##nget": 1962,
      "##anon": 1963,
      "##eta": 1964,
      "Malay": 1965,
      "Tal": 1966,
      "int": 1967,
      "##tikulo": 1968,
      "agr": 1969,
      "##rigat": 1970,
      "Quech": 1971,
      "Quechua": 1972,
      "Cre": 1973,
      "##ked": 1974,
      "kalsada": 1975,
      "Iloko": 1976,
      "Nga": 1977,
      "Vi": 1978,
      "##lay": 1979,
      "##aysay": 1980,
      "Sab": 1981,
      "##inget": 1982,
      "ipapatay": 1983,
      "dandan": 1984,
      "sinurat": 1985,
      "##turong": 1986,
      "Un": 1987,
      "lengguahe": 1988,
      "agbiag": 1989,
      "ser": 1990,
      "##iri": 1991,
      "##agsakan": 1992,
      "##usion": 1993,
      "ing": 1994,
      "co": 1995,
      "dok": 1996,
      "kor": 1997,
      "##ugaw": 1998,
      "##vin": 1999,
      "##ote": 2000,
      "Japanese": 2001,
      "bilin": 2002,
      "##cho": 2003,
      "##urnos": 2004,
      "ruangan": 2005,
      "##apulo": 2006,
      "##eks": 2007,
      "##udio": 2008,
      "ala": 2009,
      "nakal": 2010,
      "##panish": 2011,
      "Ph": 2012,
      "##ulod": 2013,
      "Per": 2014,
      "##agar": 2015,
      "Russian": 2016,
      "oper": 2017,
      "sub": 2018,
      "Gen": 2019,
      "Or": 2020,
      "Spanish": 2021,
      "agserbi": 2022,
      "kadagita": 2023,
      "##emplo": 2024,
      "##gam": 2025,
      "bato": 2026,
      "Gu": 2027,
      "##20": 2028,
      "##isin": 2029,
      "##idd": 2030,
      "ko": 2031,
      "Ig": 2032,
      "ited": 2033,
      "agangay": 2034,
      "Eli": 2035,
      "dati": 2036,
      "artikulo": 2037,
      "##naka": 2038,
      "padi": 2039,
      "Kar": 2040,
      "immuna": 2041,
      "apostol": 2042,
      "Co": 2043,
      "##dic": 2044,
      "##uth": 2045,
      "usar": 2046,
      "##rah": 2047,
      "Creole": 2048,
      "##angna": 2049,
      "sias": 2050,
      "Georg": 2051,
      "##ron": 2052,
      "at": 2053,
      "mapapati": 2054,
      "dadakkel": 2055,
      "##aing": 2056,
      "##rak": 2057,
      "##mb": 2058,
      "##into": 2059,
      "##log": 2060,
      "##asing": 2061,
      "##yar": 2062,
      "nagta": 2063,
      "##pio": 2064,
      "sik": 2065,
      "##ular": 2066,
      "Nam": 2067,
      "##gay": 2068,
      "##amento": 2069,
      "innem": 2070,
      "##gali": 2071,
      "##dia": 2072,
      "##unggona": 2073,
      "cal": 2074,
      "##pasamak": 2075,
      "##dum": 2076,
      "Bayat": 2077,
      "##atura": 2078,
      "##siklo": 2079,
      "rimm": 2080,
      "##turay": 2081,
      "parikut": 2082,
      "##inga": 2083,
      "pannac": 2084,
      "##ayaatan": 2085,
      "Polish": 2086,
      "Bag": 2087,
      "kapan": 2088,
      "##ling": 2089,
      "##ibu": 2090,
      "##ministr": 2091,
      "anakna": 2092,
      "##dis": 2093,
      "##ukb": 2094,
      "##raeli": 2095,
      "Imm": 2096,
      "kabaelan": 2097,
      "##aglagip": 2098,
      "kadakami": 2099,
      "##taran": 2100,
      "##egta": 2101,
      "##ilia": 2102,
      "toy": 2103,
      "##val": 2104,
      "##ikip": 2105,
      "##wanda": 2106,
      "nangato": 2107,
      "lid": 2108,
      "##tudi": 2109,
      "##lawlawag": 2110,
      "sibibiag": 2111,
      "##antuan": 2112,
      "nagduduma": 2113,
      "makip": 2114,
      "bunga": 2115,
      "du": 2116,
      "rik": 2117,
      "##gana": 2118,
      "mamati": 2119,
      "##ea": 2120,
      "##adto": 2121,
      "relihion": 2122,
      "##ddo": 2123,
      "##pakita": 2124,
      "##zil": 2125,
      "##alintegan": 2126,
      "klase": 2127,
      "##IL": 2128,
      "##dam": 2129,
      "nangib": 2130,
      "##ebu": 2131,
      "##ikipedia": 2132,
      "##ord": 2133,
      "agsubli": 2134,
      "ca": 2135,
      "##agt": 2136,
      "##ablaak": 2137,
      "Korean": 2138,
      "##araman": 2139,
      "##rench": 2140,
      "##ister": 2141,
      "Pin": 2142,
      "gayam": 2143,
      "Go": 2144,
      "##imat": 2145,
      "French": 2146,
      "##pos": 2147,
      "kons": 2148,
      "narigat": 2149,
      "panagbal": 2150,
      "##akat": 2151,
      "##ate": 2152,
      "eleksion": 2153,
      "Filipinas": 2154,
      "##uak": 2155,
      "Maria": 2156,
      "Israeli": 2157,
      "inaramidna": 2158,
      "kag": 2159,
      "##aliiw": 2160,
      "gob": 2161,
      "##adaw": 2162,
      "##ets": 2163,
      "##api": 2164,
      "disso": 2165,
      "kaipapanan": 2166,
      "dag": 2167,
      "Cebu": 2168,
      "Tawid": 2169,
      "Finn": 2170,
      "##kita": 2171,
      "##insan": 2172,
      "##talek": 2173,
      "Sol": 2174,
      "##por": 2175,
      "kapu": 2176,
      "24": 2177,
      "Luc": 2178,
      "##atian": 2179,
      "##ruar": 2180,
      "##adalus": 2181,
      "soldado": 2182,
      "##bang": 2183,
      "Hunga": 2184,
      "##yekto": 2185,
      "Pilipino": 2186,
      "panagt": 2187,
      "##alakan": 2188,
      "Finnish": 2189,
      "##asaw": 2190,
      "##ead": 2191,
      "##parang": 2192,
      "rigat": 2193,
      "##imal": 2194,
      "##ernador": 2195,
      "kol": 2196,
      "surat": 2197,
      "##esta": 2198,
      "##eral": 2199,
      "Hungarian": 2200,
      "pati": 2201,
      "##AM": 2202,
      "##onom": 2203,
      "##rito": 2204,
      "##ugot": 2205,
      "##ulu": 2206,
      "payen": 2207,
      "##okal": 2208,
      "Ama": 2209,
      "pannakas": 2210,
      "putot": 2211,
      "##dag": 2212,
      "bimm": 2213,
      "##dakes": 2214,
      "Indonesian": 2215,
      "Wenno": 2216,
      "reh": 2217,
      "pir": 2218,
      "Kinunana": 2219,
      "Mateo": 2220,
      "31": 2221,
      "siak": 2222,
      "##ridad": 2223,
      "##toria": 2224,
      "gayyem": 2225,
      "##ne": 2226,
      "asino": 2227,
      "mangaramid": 2228,
      "##ultura": 2229,
      "tengnga": 2230,
      "pagb": 2231,
      "##unda": 2232,
      "nail": 2233,
      "##ubongan": 2234,
      "##alged": 2235,
      "##atarus": 2236,
      "Amer": 2237,
      "##aywan": 2238,
      "##ess": 2239,
      "proyekto": 2240,
      "matalek": 2241,
      "Manipud": 2242,
      "##can": 2243,
      "##ulnog": 2244,
      "Slovak": 2245,
      "##unkuna": 2246,
      "Cz": 2247,
      "##ual": 2248,
      "Pina": 2249,
      "cuna": 2250,
      "##ugit": 2251,
      "##aanna": 2252,
      "##pl": 2253,
      "Dutch": 2254,
      "inaldaw": 2255,
      "##adas": 2256,
      "25": 2257,
      "Arabic": 2258,
      "Czech": 2259,
      "##angpet": 2260,
      "Romanian": 2261,
      "agtalinaed": 2262,
      "##eon": 2263,
      "##cial": 2264,
      "##bagatan": 2265,
      "asinoman": 2266,
      "##rap": 2267,
      "22": 2268,
      "adtoy": 2269,
      "pagtaengan": 2270,
      "kabayatan": 2271,
      "agg": 2272,
      "Greek": 2273,
      "makai": 2274,
      "pa": 2275,
      "pud": 2276,
      "##gad": 2277,
      "##kol": 2278,
      "anghel": 2279,
      "Umuna": 2280,
      "##ddog": 2281,
      "Thai": 2282,
      "##akar": 2283,
      "uli": 2284,
      "##annaet": 2285,
      "Cristo": 2286,
      "##asaen": 2287,
      "puli": 2288,
      "##aysayaat": 2289,
      "ci": 2290,
      "##gatan": 2291,
      "Cro": 2292,
      "mac": 2293,
      "##car": 2294,
      "##bker": 2295,
      "panid": 2296,
      "Norw": 2297,
      "agassawa": 2298,
      "##digra": 2299,
      "Filipino": 2300,
      "##lam": 2301,
      "##anaw": 2302,
      "##ormasion": 2303,
      "produkto": 2304,
      "Dina": 2305,
      "agaramid": 2306,
      "Chitonga": 2307,
      "relasion": 2308,
      "wen": 2309,
      "panagadal": 2310,
      "tayo": 2311,
      "Kik": 2312,
      "nalinteg": 2313,
      "##roga": 2314,
      "Cab": 2315,
      "sumaruno": 2316,
      "##lang": 2317,
      "##ganis": 2318,
      "opisina": 2319,
      "Danish": 2320,
      "agbal": 2321,
      "Juda": 2322,
      "est": 2323,
      "Lit": 2324,
      "##nap": 2325,
      "##egian": 2326,
      "amana": 2327,
      "BASA": 2328,
      "bo": 2329,
      "##atad": 2330,
      "karayan": 2331,
      "##ngay": 2332,
      "dac": 2333,
      "##ben": 2334,
      "Norwegian": 2335,
      "Kur": 2336,
      "Sum": 2337,
      "##ayus": 2338,
      "nais": 2339,
      "BASAEN": 2340,
      "##unotan": 2341,
      "ladawan": 2342,
      "Chic": 2343,
      "##asinan": 2344,
      "Ukrain": 2345,
      "animal": 2346,
      "Ukrainian": 2347,
      "tan": 2348,
      "bigat": 2349,
      "pagt": 2350,
      "kontra": 2351,
      "##tral": 2352,
      "##trabaho": 2353,
      "Israelita": 2354,
      "##etnam": 2355,
      "Nati": 2356,
      "##AP": 2357,
      "##ANG": 2358,
      "##enian": 2359,
      "Saul": 2360,
      "30": 2361,
      "apuy": 2362,
      "##edish": 2363,
      "Swedish": 2364,
      "##dda": 2365,
      "makag": 2366,
      "Slovenian": 2367,
      "Croatian": 2368,
      "maudi": 2369,
      "Baro": 2370,
      "##eso": 2371,
      "##tudiante": 2372,
      "##basa": 2373,
      "##lubongan": 2374,
      "##ork": 2375,
      "Manila": 2376,
      "Eston": 2377,
      "##waras": 2378,
      "Turkish": 2379,
      "##taray": 2380,
      "Vietnam": 2381,
      "Hili": 2382,
      "##erte": 2383,
      "##usti": 2384,
      "##gaynon": 2385,
      "Hiligaynon": 2386,
      "##totan": 2387,
      "altar": 2388,
      "Cebuano": 2389,
      "Bra": 2390,
      "ayan": 2391,
      "##IS": 2392,
      "igid": 2393,
      "##annawag": 2394,
      "panglak": 2395,
      "Pangasinan": 2396,
      "imatang": 2397,
      "Ka": 2398,
      "##asiw": 2399,
      "##ID": 2400,
      "##ry": 2401,
      "##ump": 2402,
      "Babaen": 2403,
      "Alban": 2404,
      "maaddaan": 2405,
      "Nags": 2406,
      "dimm": 2407,
      "##st": 2408,
      "Lithuan": 2409,
      "Ok": 2410,
      "Estonian": 2411,
      "23": 2412,
      "dep": 2413,
      "sap": 2414,
      "Lithuanian": 2415,
      "##oran": 2416,
      "maammuan": 2417,
      "kabusor": 2418,
      "Albanian": 2419,
      "ruar": 2420,
      "##agaz": 2421,
      "Kinapudno": 2422,
      "##arit": 2423,
      "##abur": 2424,
      "##atingga": 2425,
      "##inum": 2426,
      "Norte": 2427,
      "Tim": 2428,
      "motor": 2429,
      "impormasion": 2430,
      "Georgian": 2431,
      "##aias": 2432,
      "lab": 2433,
      "imbilin": 2434,
      "ipat": 2435,
      "pagadalan": 2436,
      "##anagan": 2437,
      "maika": 2438,
      "##akan": 2439,
      "Com": 2440,
      "kaw": 2441,
      "##alaknib": 2442,
      "##balay": 2443,
      "##likan": 2444,
      "##agasy": 2445,
      "##lab": 2446,
      "Malagasy": 2447,
      "kaday": 2448,
      "Kristo": 2449,
      "Judio": 2450,
      "##ella": 2451,
      "##acob": 2452,
      "##didato": 2453,
      "##bangon": 2454,
      "##alis": 2455,
      "##land": 2456,
      "id": 2457,
      "##cay": 2458,
      "gagayyem": 2459,
      "##agazine": 2460,
      "Marcos": 2461,
      "sing": 2462,
      "mangida": 2463,
      "##legal": 2464,
      "malaksid": 2465,
      "##abb": 2466,
      "##rec": 2467,
      "sumrek": 2468,
      "agturong": 2469,
      "##ow": 2470,
      "##kaw": 2471,
      "per": 2472,
      "Dakkel": 2473,
      "Diak": 2474,
      "bangk": 2475,
      "init": 2476,
      "##hewa": 2477,
      "tak": 2478,
      "Chichewa": 2479,
      "ex": 2480,
      "napas": 2481,
      "droga": 2482,
      "Solomon": 2483,
      "kur": 2484,
      "adayo": 2485,
      "##ilan": 2486,
      "nadalus": 2487,
      "napintas": 2488,
      "kaadu": 2489,
      "maymaysa": 2490,
      "gapuna": 2491,
      "makal": 2492,
      "panangp": 2493,
      "##usi": 2494,
      "nasantuan": 2495,
      "##iit": 2496,
      "##lim": 2497,
      "mayor": 2498,
      "##uratan": 2499,
      "posible": 2500,
      "nabayag": 2501,
      "Kat": 2502,
      "##AW": 2503,
      "mensahe": 2504,
      "epekto": 2505,
      "So": 2506,
      "##14": 2507,
      "Amhar": 2508,
      "panglakayen": 2509,
      "Amharic": 2510,
      "##gin": 2511,
      "##ensi": 2512,
      "##itay": 2513,
      "balasang": 2514,
      "##mula": 2515,
      "##12": 2516,
      "templo": 2517,
      "Ur": 2518,
      "reg": 2519,
      "##arsua": 2520,
      "##trek": 2521,
      "lider": 2522,
      "Bal": 2523,
      "maawatan": 2524,
      "##iddut": 2525,
      "##ary": 2526,
      "prib": 2527,
      "prinsi": 2528,
      "##ilis": 2529,
      "##abako": 2530,
      "ibaga": 2531,
      "##asaba": 2532,
      "nalawag": 2533,
      "mapaspasamak": 2534,
      "Bas": 2535,
      "##AGI": 2536,
      "##bek": 2537,
      "administr": 2538,
      "##gen": 2539,
      "##ukua": 2540,
      "##ungb": 2541,
      "napigsa": 2542,
      "david": 2543,
      "kababalin": 2544,
      "Para": 2545,
      "dem": 2546,
      "##unos": 2547,
      "##me": 2548,
      "##uay": 2549,
      "agtawen": 2550,
      "Bulga": 2551,
      "Magazine": 2552,
      "patay": 2553,
      "##ros": 2554,
      "##dom": 2555,
      "annakda": 2556,
      "ac": 2557,
      "presio": 2558,
      "nego": 2559,
      "pab": 2560,
      "Vietnamese": 2561,
      "sika": 2562,
      "##embro": 2563,
      "##adanon": 2564,
      "##istema": 2565,
      "##raham": 2566,
      "gangg": 2567,
      "masansan": 2568,
      "##yarwanda": 2569,
      "Medi": 2570,
      "NG": 2571,
      "##aans": 2572,
      "panangis": 2573,
      "Kinyarwanda": 2574,
      "##rus": 2575,
      "##rikaans": 2576,
      "turay": 2577,
      "##ER": 2578,
      "pakasaritaan": 2579,
      "Cat": 2580,
      "##sut": 2581,
      "pannakabalin": 2582,
      "Afrikaans": 2583,
      "pada": 2584,
      "inda": 2585,
      "nangrugi": 2586,
      "nagbaet": 2587,
      "Sho": 2588,
      "nagsubli": 2589,
      "angin": 2590,
      "##aut": 2591,
      "lakay": 2592,
      "##ugao": 2593,
      "##tub": 2594,
      "kararag": 2595,
      "##ans": 2596,
      "##und": 2597,
      "rimmuar": 2598,
      "report": 2599,
      "##way": 2600,
      "lawas": 2601,
      "Il": 2602,
      "##akon": 2603,
      "akin": 2604,
      "sica": 2605,
      "##gari": 2606,
      "naragsak": 2607,
      "Ang": 2608,
      "nakar": 2609,
      "##igagay": 2610,
      "ciudad": 2611,
      "##ribuk": 2612,
      "##bod": 2613,
      "tagi": 2614,
      "##atlo": 2615,
      "##basol": 2616,
      "tumulong": 2617,
      "makis": 2618,
      "sanguanan": 2619,
      "Kinapudnona": 2620,
      "malem": 2621,
      "##adingit": 2622,
      "##ramanan": 2623,
      "##entar": 2624,
      "##aludsod": 2625,
      "##ingan": 2626,
      "Kirg": 2627,
      "Bulgarian": 2628,
      "##top": 2629,
      "##ite": 2630,
      "didigra": 2631,
      "tinapay": 2632,
      "naba": 2633,
      "##ukong": 2634,
      "nangngeg": 2635,
      "##aanda": 2636,
      "##hiz": 2637,
      "##hala": 2638,
      "tabako": 2639,
      "agtr": 2640,
      "Sinhala": 2641,
      "gobernador": 2642,
      "Bet": 2643,
      "sigud": 2644,
      "We": 2645,
      "Maik": 2646,
      "Duterte": 2647,
      "Kirghiz": 2648,
      "ch": 2649,
      "imbagana": 2650,
      "##abasol": 2651,
      "Uni": 2652,
      "##adna": 2653,
      "sistema": 2654,
      "##ayatanna": 2655,
      "Ik": 2656,
      "simbaan": 2657,
      "##erserbi": 2658,
      "##ragsak": 2659,
      "pur": 2660,
      "Sesotho": 2661,
      "imana": 2662,
      "nalaing": 2663,
      "esku": 2664,
      "imbes": 2665,
      "panangil": 2666,
      "##ulongan": 2667,
      "Canton": 2668,
      "desision": 2669,
      "Mi": 2670,
      "Zulu": 2671,
      "mari": 2672,
      "Cantonese": 2673,
      "Egipto": 2674,
      "bukodna": 2675,
      "##aykaysa": 2676,
      "##apo": 2677,
      "##ayawaya": 2678,
      "nait": 2679,
      "##ple": 2680,
      "ketdin": 2681,
      "kadakkel": 2682,
      "##amat": 2683,
      "##sardeng": 2684,
      "sigurado": 2685,
      "lang": 2686,
      "siac": 2687,
      "mangan": 2688,
      "##vincial": 2689,
      "##agarup": 2690,
      "##wana": 2691,
      "##ins": 2692,
      "##ited": 2693,
      "marik": 2694,
      "##sangayan": 2695,
      "illegal": 2696,
      "##aig": 2697,
      "nay": 2698,
      "##dep": 2699,
      "##bid": 2700,
      "##asyon": 2701,
      "##arus": 2702,
      "##adayaw": 2703,
      "Car": 2704,
      "apag": 2705,
      "##IA": 2706,
      "agnaed": 2707,
      "gum": 2708,
      "dal": 2709,
      "##awlaw": 2710,
      "Papi": 2711,
      "##ust": 2712,
      "diay": 2713,
      "Ins": 2714,
      "##gatang": 2715,
      "Philip": 2716,
      "Papiamento": 2717,
      "##omi": 2718,
      "##agayan": 2719,
      "Imp": 2720,
      "Week": 2721,
      "##line": 2722,
      "dimteng": 2723,
      "bileg": 2724,
      "off": 2725,
      "nata": 2726,
      "con": 2727,
      "pon": 2728,
      "##errek": 2729,
      "##usto": 2730,
      "panagr": 2731,
      "##omo": 2732,
      "Sepedi": 2733,
      "ragsak": 2734,
      "##meng": 2735,
      "estudiante": 2736,
      "kaadda": 2737,
      "St": 2738,
      "##kasion": 2739,
      "Tson": 2740,
      "media": 2741,
      "##ayab": 2742,
      "Tsonga": 2743,
      "to": 2744,
      "##awagan": 2745,
      "##gawid": 2746,
      "##arr": 2747,
      "##matmat": 2748,
      "##banag": 2749,
      "##via": 2750,
      "##hosa": 2751,
      "mangm": 2752,
      "Tig": 2753,
      "##AB": 2754,
      "maseknan": 2755,
      "El": 2756,
      "Mayo": 2757,
      "Xhosa": 2758,
      "##ise": 2759,
      "bat": 2760,
      "##iel": 2761,
      "##penna": 2762,
      "pampanunot": 2763,
      "nagbaetan": 2764,
      "##10": 2765,
      "##ono": 2766,
      "miembro": 2767,
      "ganggannaet": 2768,
      "Bantay": 2769,
      "##wi": 2770,
      "ber": 2771,
      "nangis": 2772,
      "Sets": 2773,
      "pi": 2774,
      "##yanmar": 2775,
      "makapag": 2776,
      "Setswana": 2777,
      "timek": 2778,
      "Weekly": 2779,
      "Myanmar": 2780,
      "Sta": 2781,
      "##dali": 2782,
      "siglo": 2783,
      "Maced": 2784,
      "##eal": 2785,
      "##ngato": 2786,
      "Col": 2787,
      "##ping": 2788,
      "kapanunotan": 2789,
      "##len": 2790,
      "##isit": 2791,
      "##erv": 2792,
      "naganna": 2793,
      "inna": 2794,
      "Manong": 2795,
      "##atur": 2796,
      "##mata": 2797,
      "##tad": 2798,
      "interes": 2799,
      "dumteng": 2800,
      "##alam": 2801,
      "makuna": 2802,
      "##abah": 2803,
      "Shona": 2804,
      "##ach": 2805,
      "##akay": 2806,
      "napar": 2807,
      "##adadael": 2808,
      "##eggad": 2809,
      "arm": 2810,
      "##apaap": 2811,
      "mangs": 2812,
      "##ilit": 2813,
      "arak": 2814,
      "De": 2815,
      "baka": 2816,
      "jer": 2817,
      "##wid": 2818,
      "babassit": 2819,
      "sibub": 2820,
      "tuk": 2821,
      "##agaba": 2822,
      "##atakder": 2823,
      "Sup": 2824,
      "tab": 2825,
      "##bengan": 2826,
      "##ail": 2827,
      "##undi": 2828,
      "nagka": 2829,
      "karar": 2830,
      "##iwat": 2831,
      "##akaammo": 2832,
      "Imbes": 2833,
      "Philipp": 2834,
      "agpay": 2835,
      "Simm": 2836,
      "panagbalbaliw": 2837,
      "PAN": 2838,
      "##oso": 2839,
      "adalan": 2840,
      "##elan": 2841,
      "kalpasanna": 2842,
      "damo": 2843,
      "talon": 2844,
      "##ayanak": 2845,
      "##imbag": 2846,
      "agnana": 2847,
      "##sam": 2848,
      "##ripi": 2849,
      "baet": 2850,
      "kari": 2851,
      "ob": 2852,
      "##bagi": 2853,
      "plan": 2854,
      "##asin": 2855,
      "imbag": 2856,
      "199": 2857,
      "tribu": 2858,
      "organis": 2859,
      "##ci": 2860,
      "mata": 2861,
      "Mam": 2862,
      "annakna": 2863,
      "CIT": 2864,
      "Ez": 2865,
      "##emias": 2866,
      "bac": 2867,
      "lokal": 2868,
      "##muar": 2869,
      "##inged": 2870,
      "##saw": 2871,
      "pakairamanan": 2872,
      "bit": 2873,
      "koman": 2874,
      "Sakbay": 2875,
      "sagut": 2876,
      "dimo": 2877,
      "Samuel": 2878,
      "Roma": 2879,
      "##amammo": 2880,
      "org": 2881,
      "mangted": 2882,
      "biagna": 2883,
      "##chool": 2884,
      "28": 2885,
      "baba": 2886,
      "##za": 2887,
      "det": 2888,
      "op": 2889,
      "##UM": 2890,
      "##umento": 2891,
      "Cen": 2892,
      "##oan": 2893,
      "addanto": 2894,
      "masi": 2895,
      "##tag": 2896,
      "agsao": 2897,
      "sangalubongan": 2898,
      "##mong": 2899,
      "gagangay": 2900,
      "##IG": 2901,
      "kaduana": 2902,
      "makin": 2903,
      "Aramid": 2904,
      "bagas": 2905,
      "##uka": 2906,
      "National": 2907,
      "nakem": 2908,
      "##lin": 2909,
      "nawaya": 2910,
      "Abraham": 2911,
      "##15": 2912,
      "maipanggep": 2913,
      "let": 2914,
      "##spital": 2915,
      "nasaysayaat": 2916,
      "CITY": 2917,
      "##lat": 2918,
      "publiko": 2919,
      "##uanna": 2920,
      "medi": 2921,
      "##adagi": 2922,
      "sana": 2923,
      "agkak": 2924,
      "Kirundi": 2925,
      "sadino": 2926,
      "##iki": 2927,
      "literatura": 2928,
      "kasapul": 2929,
      "karnero": 2930,
      "Igbo": 2931,
      "Bannawag": 2932,
      "tatang": 2933,
      "pagimbag": 2934,
      "natur": 2935,
      "ammona": 2936,
      "##aron": 2937,
      "Ewe": 2938,
      "ribu": 2939,
      "##uam": 2940,
      "##bot": 2941,
      "##dina": 2942,
      "Kastoy": 2943,
      "##aganad": 2944,
      "adipenna": 2945,
      "##vian": 2946,
      "##acan": 2947,
      "nabiit": 2948,
      "Lib": 2949,
      "##sional": 2950,
      "Hebrew": 2951,
      "asi": 2952,
      "##lit": 2953,
      "##ulio": 2954,
      "##apit": 2955,
      "##uluan": 2956,
      "maic": 2957,
      "daya": 2958,
      "nabileg": 2959,
      "pagarian": 2960,
      "Hai": 2961,
      "Sao": 2962,
      "agnanaed": 2963,
      "##akad": 2964,
      "naisurat": 2965,
      "ah": 2966,
      "##lon": 2967,
      "nataengan": 2968,
      "agpaay": 2969,
      "##iliste": 2970,
      "pondo": 2971,
      "Santo": 2972,
      "##takder": 2973,
      "##OV": 2974,
      "##aden": 2975,
      "##AGITI": 2976,
      "mapu": 2977,
      "ayayat": 2978,
      "##ast": 2979,
      "linaon": 2980,
      "Pres": 2981,
      "Amin": 2982,
      "Bin": 2983,
      "Enero": 2984,
      "##ingay": 2985,
      "Pudno": 2986,
      "pili": 2987,
      "##sangsangayan": 2988,
      "Dom": 2989,
      "##peta": 2990,
      "NGA": 2991,
      "Cam": 2992,
      "Lesotho": 2993,
      "##utos": 2994,
      "##gapuan": 2995,
      "##isita": 2996,
      "##ustisia": 2997,
      "Manang": 2998,
      "##ican": 2999,
      "##ontra": 3000,
      "##igid": 3001,
      "agpada": 3002,
      "##rikna": 3003,
      "Nort": 3004,
      "##hia": 3005,
      "##ususar": 3006,
      "agbas": 3007,
      "paltog": 3008,
      "simrek": 3009,
      "Hun": 3010,
      "Kom": 3011,
      "##ye": 3012,
      "##rinya": 3013,
      "##liwa": 3014,
      "Tigrinya": 3015,
      "pungtot": 3016,
      "segun": 3017,
      "##ehio": 3018,
      "situ": 3019,
      "pagk": 3020,
      "nalaka": 3021,
      "##ulag": 3022,
      "auto": 3023,
      "ba": 3024,
      "bib": 3025,
      "mangb": 3026,
      "politika": 3027,
      "langa": 3028,
      "mamm": 3029,
      "##deb": 3030,
      "##cayo": 3031,
      "##aano": 3032,
      "##utan": 3033,
      "nakab": 3034,
      "resulta": 3035,
      "mula": 3036,
      "##lac": 3037,
      "##kis": 3038,
      "##adayo": 3039,
      "##rial": 3040,
      "nalabit": 3041,
      "##aybay": 3042,
      "nakitana": 3043,
      "ngiwat": 3044,
      "serbi": 3045,
      "##adasan": 3046,
      "maikatlo": 3047,
      "Salmo": 3048,
      "yan": 3049,
      "nagbal": 3050,
      "##utisar": 3051,
      "balitok": 3052,
      "00": 3053,
      "##urnong": 3054,
      "##anglaw": 3055,
      "##aim": 3056,
      "##birok": 3057,
      "Linga": 3058,
      "Yor": 3059,
      "mayat": 3060,
      "nasi": 3061,
      "##11": 3062,
      "amianan": 3063,
      "##uganda": 3064,
      "rek": 3065,
      "##tultuloy": 3066,
      "aramidem": 3067,
      "##OR": 3068,
      "ind": 3069,
      "Lingala": 3070,
      "ter": 3071,
      "Jona": 3072,
      "panangmatmat": 3073,
      "motorsiklo": 3074,
      "##put": 3075,
      "Kwan": 3076,
      "situasion": 3077,
      "##go": 3078,
      "##eto": 3079,
      "akem": 3080,
      "Cabugao": 3081,
      "ph": 3082,
      "##olusion": 3083,
      "##bision": 3084,
      "masakbayan": 3085,
      "pudpudno": 3086,
      "prinsipio": 3087,
      "##ungbatan": 3088,
      "maibilang": 3089,
      "##abit": 3090,
      "Ditoy": 3091,
      "kinap": 3092,
      "plano": 3093,
      "bina": 3094,
      "##bon": 3095,
      "addang": 3096,
      "barukong": 3097,
      "##tong": 3098,
      "##enmi": 3099,
      "ospital": 3100,
      "direk": 3101,
      "##agasin": 3102,
      "Ing": 3103,
      "##ampanunot": 3104,
      "##erd": 3105,
      "Fi": 3106,
      "Nah": 3107,
      "ra": 3108,
      "##rad": 3109,
      "kinab": 3110,
      "##icol": 3111,
      "puon": 3112,
      "Nep": 3113,
      "kunana": 3114,
      "addada": 3115,
      "##ha": 3116,
      "kinunada": 3117,
      "##amilia": 3118,
      "naasaw": 3119,
      "kandidato": 3120,
      "kimm": 3121,
      "##asawa": 3122,
      "##ungs": 3123,
      "##aniel": 3124,
      "Efik": 3125,
      "##unt": 3126,
      "##aganan": 3127,
      "##apped": 3128,
      "27": 3129,
      "ikan": 3130,
      "Prov": 3131,
      "##17": 3132,
      "presidente": 3133,
      "Bo": 3134,
      "##ramat": 3135,
      "isun": 3136,
      "aglalo": 3137,
      "##ripisio": 3138,
      "##imp": 3139,
      "Brazil": 3140,
      "talna": 3141,
      "##abain": 3142,
      "gasut": 3143,
      "Haitian": 3144,
      "26": 3145,
      "##canto": 3146,
      "agip": 3147,
      "sibubukel": 3148,
      "pum": 3149,
      "Sr": 3150,
      "##net": 3151,
      "##isa": 3152,
      "##uyb": 3153,
      "Yoruba": 3154,
      "##apaay": 3155,
      "saantayo": 3156,
      "##tugaw": 3157,
      "##empre": 3158,
      "dist": 3159,
      "##dios": 3160,
      "makat": 3161,
      "##ugian": 3162,
      "nagtaud": 3163,
      "kil": 3164,
      "mangt": 3165,
      "ne": 3166,
      "##13": 3167,
      "panagayat": 3168,
      "##andon": 3169,
      "bagbagi": 3170,
      "Philippine": 3171,
      "##umbaba": 3172,
      "naasawaan": 3173,
      "lana": 3174,
      "agpa": 3175,
      "minister": 3176,
      "##tation": 3177,
      "##anggas": 3178,
      "ir": 3179,
      "##art": 3180,
      "Malaksid": 3181,
      "pinal": 3182,
      "salaysay": 3183,
      "Nasken": 3184,
      "bukodda": 3185,
      "##tubre": 3186,
      "lap": 3187,
      "Amm": 3188,
      "bagim": 3189,
      "Job": 3190,
      "Lat": 3191,
      "juda": 3192,
      "ngato": 3193,
      "baboy": 3194,
      "##aldaw": 3195,
      "lasag": 3196,
      "Fer": 3197,
      "##dar": 3198,
      "##erto": 3199,
      "doktor": 3200,
      "Ndeb": 3201,
      "US": 3202,
      "##pia": 3203,
      "##UL": 3204,
      "bagyo": 3205,
      "Ndebele": 3206,
      "##nurot": 3207,
      "##onian": 3208,
      "##utb": 3209,
      "##garud": 3210,
      "##0000": 3211,
      "papadi": 3212,
      "##agumaan": 3213,
      "administrasion": 3214,
      "Os": 3215,
      "##atpateg": 3216,
      "sanik": 3217,
      "Ip": 3218,
      "##titu": 3219,
      "Twi": 3220,
      "##ement": 3221,
      "pamiliana": 3222,
      "kailian": 3223,
      "Union": 3224,
      "Ala": 3225,
      "##iwan": 3226,
      "umno": 3227,
      "##alna": 3228,
      "Panang": 3229,
      "Tam": 3230,
      "##rado": 3231,
      "kultura": 3232,
      "##iluba": 3233,
      "##unidad": 3234,
      "Adad": 3235,
      "##abay": 3236,
      "Imbaga": 3237,
      "Ngarud": 3238,
      "To": 3239,
      "##kanto": 3240,
      "maited": 3241,
      "bangir": 3242,
      "Gal": 3243,
      "##ibus": 3244,
      "##pasngay": 3245,
      "masarakan": 3246,
      "kadagidiay": 3247,
      "Oktubre": 3248,
      "##mut": 3249,
      "Boli": 3250,
      "##angkes": 3251,
      "##daliasat": 3252,
      "Dim": 3253,
      "##mer": 3254,
      "##siembre": 3255,
      "##trol": 3256,
      "nagkauna": 3257,
      "sirib": 3258,
      "akti": 3259,
      "napag": 3260,
      "personal": 3261,
      "Macedonian": 3262,
      "ED": 3263,
      "pulo": 3264,
      "##onda": 3265,
      "##ulin": 3266,
      "##ima": 3267,
      "##ealth": 3268,
      "Uz": 3269,
      "##tipon": 3270,
      "##ost": 3271,
      "##reb": 3272,
      "##annatayo": 3273,
      "gina": 3274,
      "##bin": 3275,
      "##akaw": 3276,
      "##unay": 3277,
      "##tayon": 3278,
      "Hebreo": 3279,
      "Wikipedia": 3280,
      "##16": 3281,
      "##alag": 3282,
      "##uio": 3283,
      "##sirib": 3284,
      "inana": 3285,
      "naisangsangayan": 3286,
      "bendision": 3287,
      "Jacob": 3288,
      "##udian": 3289,
      "dik": 3290,
      "##kit": 3291,
      "##tiembre": 3292,
      "##lina": 3293,
      "##entro": 3294,
      "##estiga": 3295,
      "##ukom": 3296,
      "Disiembre": 3297,
      "##tutop": 3298,
      "papan": 3299,
      "##ecto": 3300,
      "##kasdaaw": 3301,
      "##ard": 3302,
      "And": 3303,
      "##pec": 3304,
      "##ingo": 3305,
      "29": 3306,
      "##kay": 3307,
      "##ico": 3308,
      "alas": 3309,
      "respon": 3310,
      "Nad": 3311,
      "##lasiw": 3312,
      "##lilaw": 3313,
      "##lot": 3314,
      "Marso": 3315,
      "gal": 3316,
      "NI": 3317,
      "Napan": 3318,
      "##ngal": 3319,
      "##nline": 3320,
      "##ilian": 3321,
      "##laon": 3322,
      "nangp": 3323,
      "Hunio": 3324,
      "Lev": 3325,
      "##ulad": 3326,
      "Hulio": 3327,
      "maki": 3328,
      "##illion": 3329,
      "Lucas": 3330,
      "Sias": 3331,
      "##idad": 3332,
      "##abilonia": 3333,
      "##baknang": 3334,
      "nakapar": 3335,
      "laksid": 3336,
      "Ex": 3337,
      "Rep": 3338,
      "naudi": 3339,
      "kayatmo": 3340,
      "Ac": 3341,
      "Candon": 3342,
      "Lubong": 3343,
      "##ji": 3344,
      "##angp": 3345,
      "pinar": 3346,
      "Abril": 3347,
      "cab": 3348,
      "##igubat": 3349,
      "masang": 3350,
      "##abileg": 3351,
      "tarigagay": 3352,
      "##ellaat": 3353,
      "Ed": 3354,
      "##inak": 3355,
      "panangib": 3356,
      "##angran": 3357,
      "##unak": 3358,
      "##zi": 3359,
      "##UR": 3360,
      "##apek": 3361,
      "##tiago": 3362,
      "##akpak": 3363,
      "biang": 3364,
      "Elias": 3365,
      "Ic": 3366,
      "inik": 3367,
      "agserserbi": 3368,
      "Kabayatanna": 3369,
      "Pun": 3370,
      "##agid": 3371,
      "##awi": 3372,
      "nakat": 3373,
      "##kasapulan": 3374,
      "##erdote": 3375,
      "li": 3376,
      "##dian": 3377,
      "kunada": 3378,
      "nu": 3379,
      "##ulan": 3380,
      "tol": 3381,
      "agib": 3382,
      "##laka": 3383,
      "Pal": 3384,
      "##adadu": 3385,
      "Jesu": 3386,
      "militar": 3387,
      "ali": 3388,
      "##met": 3389,
      "##awatan": 3390,
      "balakad": 3391,
      "lawag": 3392,
      "dakdakkel": 3393,
      "##lemmeng": 3394,
      "krimen": 3395,
      "##18": 3396,
      "pinan": 3397,
      "Paskua": 3398,
      "Adan": 3399,
      "naal": 3400,
      "Bar": 3401,
      "tit": 3402,
      "##erial": 3403,
      "mangik": 3404,
      "padto": 3405,
      "Kor": 3406,
      "dek": 3407,
      "##dil": 3408,
      "kinadakes": 3409,
      "serbisio": 3410,
      "##ururay": 3411,
      "##elo": 3412,
      "##anao": 3413,
      "bus": 3414,
      "##ES": 3415,
      "panna": 3416,
      "##awanan": 3417,
      "emp": 3418,
      "suel": 3419,
      "##enti": 3420,
      "moises": 3421,
      "Catalan": 3422,
      "##gi": 3423,
      "##anyo": 3424,
      "##akas": 3425,
      "##likar": 3426,
      "parti": 3427,
      "Talaga": 3428,
      "Guar": 3429,
      "pis": 3430,
      "##ilb": 3431,
      "mannak": 3432,
      "##aliwan": 3433,
      "ipakita": 3434,
      "adalanna": 3435,
      "##awis": 3436,
      "##adio": 3437,
      "ipaay": 3438,
      "##udua": 3439,
      "Nobi": 3440,
      "tawid": 3441,
      "##tao": 3442,
      "##anam": 3443,
      "naited": 3444,
      "##erbio": 3445,
      "term": 3446,
      "##elaan": 3447,
      "panagbalin": 3448,
      "pannakat": 3449,
      "pros": 3450,
      "biddut": 3451,
      "##UN": 3452,
      "##igurado": 3453,
      "Babilonia": 3454,
      "Kap": 3455,
      "Reg": 3456,
      "##gy": 3457,
      "##zon": 3458,
      "##ens": 3459,
      "##unaan": 3460,
      "ditay": 3461,
      "##sarita": 3462,
      "##dada": 3463,
      "##uatl": 3464,
      "agtrabaho": 3465,
      "Ba": 3466,
      "pres": 3467,
      "##ennak": 3468,
      "agpat": 3469,
      "##ospital": 3470,
      "##ebrero": 3471,
      "Nahuatl": 3472,
      "Mag": 3473,
      "##oni": 3474,
      "didios": 3475,
      "gam": 3476,
      "##yu": 3477,
      "##bir": 3478,
      "Santiago": 3479,
      "supor": 3480,
      "##bog": 3481,
      "##elandic": 3482,
      "Icelandic": 3483,
      "##sek": 3484,
      "##IO": 3485,
      "mangy": 3486,
      "2018": 3487,
      "Br": 3488,
      "his": 3489,
      "saanto": 3490,
      "dadael": 3491,
      "Tatar": 3492,
      "##akawan": 3493,
      "##indi": 3494,
      "##ukan": 3495,
      "agturay": 3496,
      "rehion": 3497,
      "Ga": 3498,
      "##zo": 3499,
      "##ennanto": 3500,
      "##aris": 3501,
      "##sil": 3502,
      "##report": 3503,
      "##sog": 3504,
      "kayatda": 3505,
      "Siak": 3506,
      "siasinoman": 3507,
      "Val": 3508,
      "pasdek": 3509,
      "##esis": 3510,
      "##cy": 3511,
      "manang": 3512,
      "police": 3513,
      "nangabak": 3514,
      "##toc": 3515,
      "##isok": 3516,
      "##bidad": 3517,
      "Agosto": 3518,
      "Fran": 3519,
      "sursur": 3520,
      "##ash": 3521,
      "agpas": 3522,
      "##iklikan": 3523,
      "lalo": 3524,
      "Baguio": 3525,
      "kaputotan": 3526,
      "makagapu": 3527,
      "aggapu": 3528,
      "parsua": 3529,
      "balayda": 3530,
      "nalatak": 3531,
      "politiko": 3532,
      "duapulo": 3533,
      "bir": 3534,
      "limm": 3535,
      "##indeg": 3536,
      "selpon": 3537,
      "mul": 3538,
      "Pebrero": 3539,
      "kay": 3540,
      "maawat": 3541,
      "pac": 3542,
      "Nobiembre": 3543,
      "##urak": 3544,
      "Santa": 3545,
      "amammo": 3546,
      "Iny": 3547,
      "organisasion": 3548,
      "Kanayon": 3549,
      "abagatan": 3550,
      "num": 3551,
      "##aymaysa": 3552,
      "##ilion": 3553,
      "daras": 3554,
      "##mal": 3555,
      "kakadu": 3556,
      "mangipakita": 3557,
      "##abawi": 3558,
      "##ete": 3559,
      "maiy": 3560,
      "rummuar": 3561,
      "pagimbagan": 3562,
      "Daniel": 3563,
      "mausar": 3564,
      "mapar": 3565,
      "##antoan": 3566,
      "##talon": 3567,
      "usaren": 3568,
      "Kaz": 3569,
      "mil": 3570,
      "##ebkas": 3571,
      "adipenmo": 3572,
      "##eknekan": 3573,
      "Tel": 3574,
      "agindeg": 3575,
      "saanmo": 3576,
      "##istro": 3577,
      "Kayatna": 3578,
      "nalpas": 3579,
      "cadacayo": 3580,
      "nabayagen": 3581,
      "King": 3582,
      "Tz": 3583,
      "sakup": 3584,
      "sid": 3585,
      "##rep": 3586,
      "##ulimek": 3587,
      "siled": 3588,
      "tap": 3589,
      "##kab": 3590,
      "##uron": 3591,
      "kitaen": 3592,
      "ic": 3593,
      "##luen": 3594,
      "##atayan": 3595,
      "kayatko": 3596,
      "milion": 3597,
      "Aqu": 3598,
      "##aud": 3599,
      "##lar": 3600,
      "kadaw": 3601,
      "##opa": 3602,
      "Sanga": 3603,
      "bulong": 3604,
      "##rac": 3605,
      "##nment": 3606,
      "##apuy": 3607,
      "tulag": 3608,
      "innal": 3609,
      "did": 3610,
      "sh": 3611,
      "##ose": 3612,
      "##tero": 3613,
      "ayup": 3614,
      "##daklan": 3615,
      "porsi": 3616,
      "##inep": 3617,
      "##suaan": 3618,
      "panangid": 3619,
      "##pasdek": 3620,
      "##uyu": 3621,
      "Nagbalin": 3622,
      "buyot": 3623,
      "us": 3624,
      "##vi": 3625,
      "##aknang": 3626,
      "panagg": 3627,
      "makik": 3628,
      "nakip": 3629,
      "sumaganad": 3630,
      "paka": 3631,
      "##namnama": 3632,
      "mangipaay": 3633,
      "pannakaammo": 3634,
      "Sina": 3635,
      "##tp": 3636,
      "##apada": 3637,
      "naayat": 3638,
      "aktibidad": 3639,
      "West": 3640,
      "##iahe": 3641,
      "Bolivia": 3642,
      "mati": 3643,
      "pet": 3644,
      "##des": 3645,
      "##aps": 3646,
      "Isaias": 3647,
      "Dak": 3648,
      "kiddaw": 3649,
      "##dadael": 3650,
      "nagr": 3651,
      "mangil": 3652,
      "pagg": 3653,
      "##patarus": 3654,
      "##bong": 3655,
      "##akto": 3656,
      "##ebo": 3657,
      "##aayayo": 3658,
      "##maneknek": 3659,
      "Pannak": 3660,
      "dip": 3661,
      "karaman": 3662,
      "walo": 3663,
      "##itian": 3664,
      "puesto": 3665,
      "sam": 3666,
      "##sem": 3667,
      "kadua": 3668,
      "##alagip": 3669,
      "pasurot": 3670,
      "agpayso": 3671,
      "masanguanan": 3672,
      "Saanen": 3673,
      "Dam": 3674,
      "lup": 3675,
      "st": 3676,
      "##ean": 3677,
      "##ja": 3678,
      "##uding": 3679,
      "Kan": 3680,
      "Nat": 3681,
      "##IP": 3682,
      "##awda": 3683,
      "pagbal": 3684,
      "karbengan": 3685,
      "Gov": 3686,
      "Mari": 3687,
      "##onde": 3688,
      "tungpal": 3689,
      "buis": 3690,
      "pop": 3691,
      "##atiddog": 3692,
      "kamp": 3693,
      "Kikuyu": 3694,
      "##olo": 3695,
      "makar": 3696,
      "##upan": 3697,
      "##akh": 3698,
      "padas": 3699,
      "sangoanan": 3700,
      "Police": 3701,
      "Namarsua": 3702,
      "Pid": 3703,
      "##tongo": 3704,
      "##apas": 3705,
      "##ununa": 3706,
      "##ngan": 3707,
      "##ungpalan": 3708,
      "porsiento": 3709,
      "##abat": 3710,
      "##use": 3711,
      "agsapa": 3712,
      "pannakais": 3713,
      "sugat": 3714,
      "Malayalam": 3715,
      "##win": 3716,
      "##arm": 3717,
      "Bis": 3718,
      "Dua": 3719,
      "kinabaknang": 3720,
      "Kasuratan": 3721,
      "mapukaw": 3722,
      "nadagsen": 3723,
      "Maikadua": 3724,
      "##ulasion": 3725,
      "##ongres": 3726,
      "##dawat": 3727,
      "ridaw": 3728,
      "Corinto": 3729,
      "jo": 3730,
      "##ee": 3731,
      "##ustr": 3732,
      "ilina": 3733,
      "198": 3734,
      "Guarani": 3735,
      "teks": 3736,
      "##ner": 3737,
      "##tip": 3738,
      "##apon": 3739,
      "ibagbaga": 3740,
      "Oromo": 3741,
      "maikontra": 3742,
      "##anantongo": 3743,
      "rupa": 3744,
      "Sranantongo": 3745,
      "Kazakh": 3746,
      "Linteg": 3747,
      "PAG": 3748,
      "Silo": 3749,
      "##angar": 3750,
      "Ram": 3751,
      "##usp": 3752,
      "pimmanaw": 3753,
      "##kom": 3754,
      "adun": 3755,
      "##edda": 3756,
      "##bension": 3757,
      "banbanag": 3758,
      "Latvian": 3759,
      "##meg": 3760,
      "##utor": 3761,
      "##setian": 3762,
      "Ossetian": 3763,
      "Hall": 3764,
      "Ibag": 3765,
      "##30": 3766,
      "##ze": 3767,
      "##ect": 3768,
      "matana": 3769,
      "##ukoy": 3770,
      "DAGITI": 3771,
      "Ro": 3772,
      "insurat": 3773,
      "Ezek": 3774,
      "##absing": 3775,
      "##adak": 3776,
      "kasayaatan": 3777,
      "##ikal": 3778,
      "Anian": 3779,
      "Nalawag": 3780,
      "##air": 3781,
      "laud": 3782,
      "material": 3783,
      "Apoc": 3784,
      "##ilisteo": 3785,
      "Cib": 3786,
      "##ence": 3787,
      "##unan": 3788,
      "##usay": 3789,
      "##emba": 3790,
      "panak": 3791,
      "Inter": 3792,
      "##umbuka": 3793,
      "Chitumbuka": 3794,
      "pirak": 3795,
      "##garilio": 3796,
      "Dr": 3797,
      "##oral": 3798,
      "##ingga": 3799,
      "ballasiw": 3800,
      "##dalus": 3801,
      "##ocial": 3802,
      "##agp": 3803,
      "amangan": 3804,
      "##agasut": 3805,
      "Cibemba": 3806,
      "##annak": 3807,
      "##unggal": 3808,
      "arapaap": 3809,
      "maitutop": 3810,
      "Luo": 3811,
      "sacerdote": 3812,
      "bur": 3813,
      "##kanna": 3814,
      "##lohia": 3815,
      "makab": 3816,
      "Vic": 3817,
      "##agda": 3818,
      "##sup": 3819,
      "kinalinteg": 3820,
      "Bicol": 3821,
      "Cagayan": 3822,
      "puman": 3823,
      "##jian": 3824,
      "##sursuro": 3825,
      "nangaramid": 3826,
      "persona": 3827,
      "##ld": 3828,
      "##ear": 3829,
      "panagm": 3830,
      "China": 3831,
      "##bassit": 3832,
      "Naala": 3833,
      "Me": 3834,
      "##daar": 3835,
      "##anok": 3836,
      "##undu": 3837,
      "Malt": 3838,
      "Uzbek": 3839,
      "##zema": 3840,
      "eksper": 3841,
      "Fijian": 3842,
      "Punj": 3843,
      "Maltese": 3844,
      "naurnos": 3845,
      "naglabas": 3846,
      "Ah": 3847,
      "Con": 3848,
      "Nzema": 3849,
      "suli": 3850,
      "##oria": 3851,
      "##cal": 3852,
      "##ator": 3853,
      "##amay": 3854,
      "kaadd": 3855,
      "Punjabi": 3856,
      "##yonto": 3857,
      "kaarr": 3858,
      "trabah": 3859,
      "##dukasion": 3860,
      "Ak": 3861,
      "##ladawan": 3862,
      "##ungan": 3863,
      "masirib": 3864,
      "Nepali": 3865,
      "##err": 3866,
      "##asiar": 3867,
      "##angitan": 3868,
      "agtuturay": 3869,
      "ekonom": 3870,
      "gin": 3871,
      "lamis": 3872,
      "Proverbio": 3873,
      "kadawyan": 3874,
      "##tna": 3875,
      "##uad": 3876,
      "##ulok": 3877,
      "aramidenna": 3878,
      "Telugu": 3879,
      "tudo": 3880,
      "##edked": 3881,
      "napudno": 3882,
      "##resi": 3883,
      "##que": 3884,
      "mannursuro": 3885,
      "Panunot": 3886,
      "negosio": 3887,
      "surot": 3888,
      "##hero": 3889,
      "##DA": 3890,
      "pagayatan": 3891,
      "pangulo": 3892,
      "Basaen": 3893,
      "II": 3894,
      "abay": 3895,
      "##ki": 3896,
      "##imed": 3897,
      "kinas": 3898,
      "##imbab": 3899,
      "AG": 3900,
      "ipalubos": 3901,
      "marikna": 3902,
      "##lementar": 3903,
      "urnos": 3904,
      "kadakkelan": 3905,
      "Min": 3906,
      "magasin": 3907,
      "kabar": 3908,
      "pannakaip": 3909,
      "##akitana": 3910,
      "##apektaran": 3911,
      "tag": 3912,
      "##ulap": 3913,
      "isyu": 3914,
      "nanang": 3915,
      "ahensia": 3916,
      "##EM": 3917,
      "##igrigat": 3918,
      "##balud": 3919,
      "Genesis": 3920,
      "sem": 3921,
      "makunkuna": 3922,
      "napno": 3923,
      "kukua": 3924,
      "##daton": 3925,
      "kabagi": 3926,
      "impakita": 3927,
      "siasino": 3928,
      "##bilidad": 3929,
      "makan": 3930,
      "isla": 3931,
      "castoy": 3932,
      "pakab": 3933,
      "narugit": 3934,
      "tinawen": 3935,
      "dinto": 3936,
      "Kitaen": 3937,
      "autoridad": 3938,
      "##imbabwe": 3939,
      "Jr": 3940,
      "Zimbabwe": 3941,
      "##lag": 3942,
      "##edo": 3943,
      "propeta": 3944,
      "##hen": 3945,
      "##dalan": 3946,
      "##itayo": 3947,
      "##sigentayo": 3948,
      "Sec": 3949,
      "lagip": 3950,
      "pagbalin": 3951,
      "kinak": 3952,
      "balayna": 3953,
      "eskuelaan": 3954,
      "Edi": 3955,
      "Filisteo": 3956,
      "##ven": 3957,
      "##olbar": 3958,
      "Kasapulan": 3959,
      "aramidentayo": 3960,
      "##iting": 3961,
      "##gado": 3962,
      "indi": 3963,
      "aginggana": 3964,
      "Katoli": 3965,
      "Em": 3966,
      "lug": 3967,
      "##rip": 3968,
      "##elde": 3969,
      "Agp": 3970,
      "##agrap": 3971,
      "##ION": 3972,
      "##ulbod": 3973,
      "karne": 3974,
      "##nuay": 3975,
      "Ags": 3976,
      "##ngaasi": 3977,
      "##tam": 3978,
      "panagserbi": 3979,
      "40": 3980,
      "drug": 3981,
      "##TA": 3982,
      "##urog": 3983,
      "korte": 3984,
      "purok": 3985,
      "##anes": 3986,
      "##tura": 3987,
      "nadadael": 3988,
      "##adpada": 3989,
      "##sac": 3990,
      "nangisit": 3991,
      "Hindi": 3992,
      "##anak": 3993,
      "##adag": 3994,
      "##sias": 3995,
      "##aragawag": 3996,
      "sada": 3997,
      "##IB": 3998,
      "Nalabit": 3999,
      "madadael": 4000,
      "Aquino": 4001,
      "Pidgin": 4002,
      "IS": 4003,
      "kalintegan": 4004,
      "##lap": 4005,
      "maar": 4006,
      "Eva": 4007,
      "Ri": 4008,
      "##21": 4009,
      "##tawen": 4010,
      "Joh": 4011,
      "##25": 4012,
      "naammuan": 4013,
      "##rim": 4014,
      "##royo": 4015,
      "napili": 4016,
      "Pac": 4017,
      "##ersa": 4018,
      "mangngeg": 4019,
      "napapatay": 4020,
      "sangk": 4021,
      "##hern": 4022,
      "teksto": 4023,
      "Off": 4024,
      "##eri": 4025,
      "pribado": 4026,
      "##ingna": 4027,
      "Adtoy": 4028,
      "Ink": 4029,
      "##siante": 4030,
      "##tikal": 4031,
      "papel": 4032,
      "##aria": 4033,
      "inc": 4034,
      "maitunos": 4035,
      "##uet": 4036,
      "nateng": 4037,
      "imbaon": 4038,
      "Naimbag": 4039,
      "Nain": 4040,
      "##vernment": 4041,
      "##ikasion": 4042,
      "kompania": 4043,
      "kabsatna": 4044,
      "edad": 4045,
      "ipas": 4046,
      "##oro": 4047,
      "##uktal": 4048,
      "##dex": 4049,
      "##peto": 4050,
      "dumngeg": 4051,
      "##ormal": 4052,
      "po": 4053,
      "##asim": 4054,
      "##amiris": 4055,
      "##ayaway": 4056,
      "kapit": 4057,
      "nakaparsuaan": 4058,
      "bukel": 4059,
      "ht": 4060,
      "bagik": 4061,
      "2017": 4062,
      "Central": 4063,
      "##cle": 4064,
      "##ates": 4065,
      "##ababa": 4066,
      "##emo": 4067,
      "##ingg": 4068,
      "##arias": 4069,
      "pammaneknek": 4070,
      "##tap": 4071,
      "##baro": 4072,
      "##TO": 4073,
      "##ongna": 4074,
      "##ANN": 4075,
      "United": 4076,
      "giti": 4077,
      "##angbay": 4078,
      "agsurat": 4079,
      "mangpar": 4080,
      "##hop": 4081,
      "offic": 4082,
      "distrito": 4083,
      "Silozi": 4084,
      "##aragsak": 4085,
      "##urg": 4086,
      "malagip": 4087,
      "##amba": 4088,
      "pannakaawat": 4089,
      "jerusalem": 4090,
      "##IGAN": 4091,
      "Kingdom": 4092,
      "Kanna": 4093,
      "##mara": 4094,
      "tignay": 4095,
      "##iber": 4096,
      "napanglaw": 4097,
      "##angatang": 4098,
      "##cia": 4099,
      "nagsao": 4100,
      "##rob": 4101,
      "pagay": 4102,
      "##raem": 4103,
      "Inton": 4104,
      "Siasino": 4105,
      "hen": 4106,
      "ro": 4107,
      "mairaman": 4108,
      "##opia": 4109,
      "makaammo": 4110,
      "nabati": 4111,
      "##jamin": 4112,
      "##aksion": 4113,
      "##arsar": 4114,
      "##inam": 4115,
      "kinam": 4116,
      "##uraao": 4117,
      "Curaao": 4118,
      "Rey": 4119,
      "high": 4120,
      "agbuteng": 4121,
      "publikasion": 4122,
      "Persian": 4123,
      "50": 4124,
      "##22": 4125,
      "##istaan": 4126,
      "aso": 4127,
      "buk": 4128,
      "radio": 4129,
      "##mit": 4130,
      "##aykayat": 4131,
      "Biag": 4132,
      "##neg": 4133,
      "anian": 4134,
      "main": 4135,
      "Siempre": 4136,
      "Aymara": 4137,
      "amang": 4138,
      "##ukkaw": 4139,
      "##iran": 4140,
      "Bat": 4141,
      "Kika": 4142,
      "Mada": 4143,
      "Metro": 4144,
      "cap": 4145,
      "tek": 4146,
      "Timot": 4147,
      "Kikaonde": 4148,
      "Pre": 4149,
      "##mano": 4150,
      "##nas": 4151,
      "ammok": 4152,
      "##lasinan": 4153,
      "sirmata": 4154,
      "##asping": 4155,
      "##otna": 4156,
      "##ataud": 4157,
      "ulidan": 4158,
      "senador": 4159,
      "Read": 4160,
      "##tiddog": 4161,
      "##alaw": 4162,
      "nagbay": 4163,
      "##ordan": 4164,
      "egipto": 4165,
      "##alda": 4166,
      "ipatpateg": 4167,
      "Domingo": 4168,
      "em": 4169,
      "##pu": 4170,
      "##arig": 4171,
      "##angag": 4172,
      "##lasin": 4173,
      "##elio": 4174,
      "terito": 4175,
      "##yog": 4176,
      "apit": 4177,
      "Karayan": 4178,
      "http": 4179,
      "Sav": 4180,
      "mun": 4181,
      "##supor": 4182,
      "agbasa": 4183,
      "sigun": 4184,
      "pagalag": 4185,
      "##ategoria": 4186,
      "kuarto": 4187,
      "termino": 4188,
      "dika": 4189,
      "inb": 4190,
      "imah": 4191,
      "maipar": 4192,
      "espe": 4193,
      "basta": 4194,
      "Bri": 4195,
      "so": 4196,
      "agin": 4197,
      "##idos": 4198,
      "##obra": 4199,
      "Ngamin": 4200,
      "Tin": 4201,
      "##end": 4202,
      "panagtalek": 4203,
      "##amiis": 4204,
      "kanito": 4205,
      "Bro": 4206,
      "guar": 4207,
      "##US": 4208,
      "##asaruno": 4209,
      "##laklako": 4210,
      "Kurdi": 4211,
      "Eur": 4212,
      "Luganda": 4213,
      "##amnama": 4214,
      "##acto": 4215,
      "komunidad": 4216,
      "VIGAN": 4217,
      "##ellano": 4218,
      "##labes": 4219,
      "mug": 4220,
      "##agk": 4221,
      "naawat": 4222,
      "unayen": 4223,
      "deng": 4224,
      "kalak": 4225,
      "##ism": 4226,
      "araramiden": 4227,
      "lamisaan": 4228,
      "Kurdish": 4229,
      "##wayat": 4230,
      "##tain": 4231,
      "nagbas": 4232,
      "kapadasan": 4233,
      "maminsan": 4234,
      "bangkay": 4235,
      "gar": 4236,
      "suk": 4237,
      "Kai": 4238,
      "lev": 4239,
      "more": 4240,
      "##apdan": 4241,
      "napukaw": 4242,
      "##angatuan": 4243,
      "panangs": 4244,
      "Sango": 4245,
      "hustisia": 4246,
      "pumanaw": 4247,
      "##taan": 4248,
      "sirok": 4249,
      "ababa": 4250,
      "kaipapananna": 4251,
      "##emi": 4252,
      "##ulotan": 4253,
      "##truk": 4254,
      "anakmo": 4255,
      "Unidos": 4256,
      "Tamil": 4257,
      "Mab": 4258,
      "##til": 4259,
      "panagdaydayaw": 4260,
      "2016": 4261,
      "emple": 4262,
      "Mapan": 4263,
      "##tngato": 4264,
      "maikkan": 4265,
      "Estad": 4266,
      "Jud": 4267,
      "KEN": 4268,
      "isip": 4269,
      "##aknap": 4270,
      "##aira": 4271,
      "Ca": 4272,
      "pig": 4273,
      "##24": 4274,
      "##angngeg": 4275,
      "##manji": 4276,
      "Kurmanji": 4277,
      "South": 4278,
      "Tsh": 4279,
      "kinar": 4280,
      "Noe": 4281,
      "##indanao": 4282,
      "puraw": 4283,
      "Rod": 4284,
      "##tel": 4285,
      "##anget": 4286,
      "kadin": 4287,
      "Impak": 4288,
      "##silo": 4289,
      "nakit": 4290,
      "nakis": 4291,
      "apaman": 4292,
      "Maya": 4293,
      "land": 4294,
      "wayawaya": 4295,
      "##karo": 4296,
      "##unir": 4297,
      "Agingga": 4298,
      "tanem": 4299,
      "Gri": 4300,
      "nagg": 4301,
      "dayaw": 4302,
      "##ungng": 4303,
      "##okan": 4304,
      "##warnak": 4305,
      "##antayan": 4306,
      "pinili": 4307,
      "##oper": 4308,
      "##aminsan": 4309,
      "Ingles": 4310,
      "##noy": 4311,
      "##umen": 4312,
      "mangl": 4313,
      "nakad": 4314,
      "nasantoan": 4315,
      "##patakder": 4316,
      "Idiay": 4317,
      "natibker": 4318,
      "##23": 4319,
      "maliklikan": 4320,
      "##UMIL": 4321,
      "le": 4322,
      "##aplikar": 4323,
      "##amen": 4324,
      "##ipatan": 4325,
      "natalged": 4326,
      "pagsayaatan": 4327,
      "##unggoy": 4328,
      "Timoteo": 4329,
      "kellaat": 4330,
      "##tab": 4331,
      "##neng": 4332,
      "##aii": 4333,
      "kappia": 4334,
      "##sidad": 4335,
      "kinaawan": 4336,
      "##rayber": 4337,
      "Ra": 4338,
      "##aiso": 4339,
      "##uluen": 4340,
      "maipas": 4341,
      "nababa": 4342,
      "##tuat": 4343,
      "ibagam": 4344,
      "rebbeng": 4345,
      "Isa": 4346,
      "sy": 4347,
      "##eda": 4348,
      "##IK": 4349,
      "##aren": 4350,
      "agay": 4351,
      "##inasion": 4352,
      "nabigbig": 4353,
      "##omb": 4354,
      "##unam": 4355,
      "pusona": 4356,
      "##cano": 4357,
      "inusar": 4358,
      "##ipnget": 4359,
      "dakayo": 4360,
      "##hon": 4361,
      "mangid": 4362,
      "agpal": 4363,
      "Estados": 4364,
      "##onio": 4365,
      "inawat": 4366,
      "197": 4367,
      "nagsayaat": 4368,
      "Griego": 4369,
      "Tok": 4370,
      "##ora": 4371,
      "Law": 4372,
      "Laglagip": 4373,
      "del": 4374,
      "##han": 4375,
      "##ende": 4376,
      "##libas": 4377,
      "panangit": 4378,
      "Savellano": 4379,
      "GUMIL": 4380,
      "station": 4381,
      "tel": 4382,
      "wikipedia": 4383,
      "##ional": 4384,
      "agkararag": 4385,
      "##ipat": 4386,
      "simmungbat": 4387,
      "Josue": 4388,
      "national": 4389,
      "##erra": 4390,
      "##reh": 4391,
      "Espiritu": 4392,
      "##alipsis": 4393,
      "Septiembre": 4394,
      "33": 4395,
      "social": 4396,
      "Nagp": 4397,
      "##payso": 4398,
      "kanta": 4399,
      "##ungad": 4400,
      "Cal": 4401,
      "pil": 4402,
      "te": 4403,
      "##againep": 4404,
      "panangt": 4405,
      "isuamin": 4406,
      "paraangan": 4407,
      "COV": 4408,
      "##rapia": 4409,
      "kadayta": 4410,
      "Kadi": 4411,
      "nari": 4412,
      "##uon": 4413,
      "##ansa": 4414,
      "kalding": 4415,
      "gunggona": 4416,
      "##etmet": 4417,
      "##itna": 4418,
      "##ungkar": 4419,
      "panangik": 4420,
      "Saanda": 4421,
      "Hospital": 4422,
      "mayan": 4423,
      "agdaydayaw": 4424,
      "Nasayaat": 4425,
      "dandani": 4426,
      "##lamo": 4427,
      "Apocalipsis": 4428,
      "Waray": 4429,
      "##kalintegan": 4430,
      "##kuyog": 4431,
      "Jeremias": 4432,
      "ministerio": 4433,
      "Tar": 4434,
      "##did": 4435,
      "##ulog": 4436,
      "##utbuteng": 4437,
      "Dum": 4438,
      "##ces": 4439,
      "##tib": 4440,
      "nauneg": 4441,
      "maikkat": 4442,
      "##siplina": 4443,
      "##mun": 4444,
      "maris": 4445,
      "2019": 4446,
      "regular": 4447,
      "##agaw": 4448,
      "##ometro": 4449,
      "makaayayo": 4450,
      "naangay": 4451,
      "nasapa": 4452,
      "pagilasinan": 4453,
      "##ehal": 4454,
      "##utokan": 4455,
      "##rigo": 4456,
      "Gun": 4457,
      "##fic": 4458,
      "##jo": 4459,
      "komun": 4460,
      "##surot": 4461,
      "Innayon": 4462,
      "bibig": 4463,
      "Online": 4464,
      "##uor": 4465,
      "panagungar": 4466,
      "masursuro": 4467,
      "title": 4468,
      "Haw": 4469,
      "drayber": 4470,
      "edukasion": 4471,
      "##duc": 4472,
      "panagtak": 4473,
      "buok": 4474,
      "Sabali": 4475,
      "tolda": 4476,
      "ipapan": 4477,
      "partido": 4478,
      "Patarus": 4479,
      "##eter": 4480,
      "naiy": 4481,
      "balud": 4482,
      "balbalay": 4483,
      "provincial": 4484,
      "Amianan": 4485,
      "httpsilo": 4486,
      "COVID": 4487,
      "Congo": 4488,
      "##tes": 4489,
      "##anmi": 4490,
      "Nakas": 4491,
      "turista": 4492,
      "operasion": 4493,
      "estado": 4494,
      "##ngalap": 4495,
      "Da": 4496,
      "Mad": 4497,
      "##tri": 4498,
      "##50": 4499,
      "##sual": 4500,
      "maal": 4501,
      "##annurot": 4502,
      "Samoan": 4503,
      "Luzon": 4504,
      "numero": 4505,
      "pagbaludan": 4506,
      "##Waray": 4507,
      "agd": 4508,
      "##otzil": 4509,
      "##angad": 4510,
      "alaldaw": 4511,
      "biagda": 4512,
      "##eroris": 4513,
      "Sigurado": 4514,
      "kampania": 4515,
      "inaramidda": 4516,
      "lasud": 4517,
      "Tzotzil": 4518,
      "##iro": 4519,
      "##utar": 4520,
      "agsasao": 4521,
      "##tante": 4522,
      "nakaskasdaaw": 4523,
      "WarayWaray": 4524,
      "100": 4525,
      "Karaman": 4526,
      "tagt": 4527,
      "##aniag": 4528,
      "agpar": 4529,
      "Ipakita": 4530,
      "saanka": 4531,
      "kinaman": 4532,
      "kararua": 4533,
      "php": 4534,
      "John": 4535,
      "School": 4536,
      "bug": 4537,
      "##adem": 4538,
      "metro": 4539,
      "##uktan": 4540,
      "nadangkes": 4541,
      "##annuar": 4542,
      "probinsial": 4543,
      "ammom": 4544,
      "##cam": 4545,
      "##asap": 4546,
      "##damag": 4547,
      "mangg": 4548,
      "inauna": 4549,
      "##alaing": 4550,
      "Kitaem": 4551,
      "top": 4552,
      "Arroyo": 4553,
      "2012": 4554,
      "2014": 4555,
      "##UD": 4556,
      "##ayad": 4557,
      "##enta": 4558,
      "nagpak": 4559,
      "imam": 4560,
      "##angadang": 4561,
      "194": 4562,
      "panunotna": 4563,
      "##dagup": 4564,
      "##windex": 4565,
      "buteng": 4566,
      "##engnga": 4567,
      "nangted": 4568,
      "impor": 4569,
      "ibilang": 4570,
      "awaten": 4571,
      "maawagan": 4572,
      "gumatang": 4573,
      "Faraon": 4574,
      "Kam": 4575,
      "Sh": 4576,
      "daan": 4577,
      "listaan": 4578,
      "##Kristo": 4579,
      "##udil": 4580,
      "pammadayaw": 4581,
      "Makap": 4582,
      "mammadto": 4583,
      "Kongo": 4584,
      "##nulong": 4585,
      "magunod": 4586,
      "Tah": 4587,
      "Tata": 4588,
      "bunggoy": 4589,
      "saanak": 4590,
      "##wanawanan": 4591,
      "benep": 4592,
      "populasion": 4593,
      "laglagip": 4594,
      "##daras": 4595,
      "##ters": 4596,
      "2013": 4597,
      "##basar": 4598,
      "sanikua": 4599,
      "Nan": 4600,
      "Tan": 4601,
      "ugali": 4602,
      "##konto": 4603,
      "##altog": 4604,
      "##uten": 4605,
      "##alio": 4606,
      "nacion": 4607,
      "agbasbasa": 4608,
      "Kannada": 4609,
      "Aaron": 4610,
      "annong": 4611,
      "kakabsatna": 4612,
      "Ha": 4613,
      "##awlawag": 4614,
      "JesuKristo": 4615,
      "##ood": 4616,
      "##aduan": 4617,
      "maigapu": 4618,
      "pannakal": 4619,
      "##palagip": 4620,
      "pagtaeng": 4621,
      "pul": 4622,
      "kinapateg": 4623,
      "##jar": 4624,
      "manok": 4625,
      "pagan": 4626,
      "reaksion": 4627,
      "operation": 4628,
      "bot": 4629,
      "kilo": 4630,
      "##pedia": 4631,
      "##dem": 4632,
      "##sim": 4633,
      "##asio": 4634,
      "magna": 4635,
      "teroris": 4636,
      "##WAN": 4637,
      "##esna": 4638,
      "##inar": 4639,
      "konsi": 4640,
      "Asino": 4641,
      "##asar": 4642,
      "##etget": 4643,
      "maikari": 4644,
      "Gab": 4645,
      "mangngalap": 4646,
      "ngay": 4647,
      "Kons": 4648,
      "pisi": 4649,
      "##tina": 4650,
      "##ames": 4651,
      "##eppas": 4652,
      "kombension": 4653,
      "awanto": 4654,
      "Agbalin": 4655,
      "##umo": 4656,
      "##adamag": 4657,
      "##ipnong": 4658,
      "pakaammo": 4659,
      "kagudua": 4660,
      "nailangitan": 4661,
      "kilometro": 4662,
      "tarak": 4663,
      "##wis": 4664,
      "##ubon": 4665,
      "##bio": 4666,
      "dagidi": 4667,
      "mamag": 4668,
      "orgwindex": 4669,
      "ekonomia": 4670,
      "Dagus": 4671,
      "kaano": 4672,
      "##uter": 4673,
      "sentro": 4674,
      "##wn": 4675,
      "##ubok": 4676,
      "##agpat": 4677,
      "##ait": 4678,
      "##ummong": 4679,
      "##lakuan": 4680,
      "##petsa": 4681,
      "Pagwanawanan": 4682,
      "##andat": 4683,
      "Mapapati": 4684,
      "##ks": 4685,
      "sangagasut": 4686,
      "pamiliada": 4687,
      "nangatngato": 4688,
      "pader": 4689,
      "suporta": 4690,
      "Dika": 4691,
      "sur": 4692,
      "santo": 4693,
      "##usb": 4694,
      "armas": 4695,
      "ngaruden": 4696,
      "kunam": 4697,
      "intedna": 4698,
      "kapitulo": 4699,
      "##ayu": 4700,
      "##ales": 4701,
      "##ide": 4702,
      "##ukodan": 4703,
      "baketna": 4704,
      "pagalagadan": 4705,
      "Idin": 4706,
      "Tu": 4707,
      "agawid": 4708,
      "katulong": 4709,
      "##28": 4710,
      "##ngeddeng": 4711,
      "gung": 4712,
      "##tana": 4713,
      "##altal": 4714,
      "##awang": 4715,
      "##itas": 4716,
      "panguluen": 4717,
      "##tension": 4718,
      "puersa": 4719,
      "##ueva": 4720,
      "Siudad": 4721,
      "Korte": 4722,
      "En": 4723,
      "cadagi": 4724,
      "##bilang": 4725,
      "##ilitan": 4726,
      "##ungasing": 4727,
      "##abassit": 4728,
      "##elleng": 4729,
      "##uyogen": 4730,
      "nagbayag": 4731,
      "35": 4732,
      "utang": 4733,
      "##cio": 4734,
      "##agim": 4735,
      "naglaon": 4736,
      "dica": 4737,
      "##utang": 4738,
      "nasinged": 4739,
      "naminsan": 4740,
      "Provincial": 4741,
      "makipag": 4742,
      "indust": 4743,
      "sueldo": 4744,
      "lo": 4745,
      "##was": 4746,
      "Maipapan": 4747,
      "Aldaw": 4748,
      "empleado": 4749,
      "dengg": 4750,
      "pri": 4751,
      "##aita": 4752,
      "##illo": 4753,
      "##aca": 4754,
      "pannakadadael": 4755,
      "nabal": 4756,
      "Masansan": 4757,
      "pannakabagi": 4758,
      "COVID19": 4759,
      "##cto": 4760,
      "##enn": 4761,
      "##aid": 4762,
      "##angrugi": 4763,
      "##ING": 4764,
      "kadaytoy": 4765,
      "nagbasol": 4766,
      "Sarita": 4767,
      "Tunggal": 4768,
      "utek": 4769,
      "##ukay": 4770,
      "##raysi": 4771,
      "dackel": 4772,
      "Asia": 4773,
      "##nangruna": 4774,
      "isub": 4775,
      "Urdu": 4776,
      "pannakad": 4777,
      "nangit": 4778,
      "bala": 4779,
      "Agl": 4780,
      "##AYO": 4781,
      "Tahitian": 4782,
      "##raysikel": 4783,
      "taw": 4784,
      "##uem": 4785,
      "##bis": 4786,
      "##IAL": 4787,
      "##agro": 4788,
      "##itkita": 4789,
      "agtulnog": 4790,
      "Nagk": 4791,
      "uniber": 4792,
      "Fernan": 4793,
      "tangatang": 4794,
      "##uot": 4795,
      "agsi": 4796,
      "balo": 4797,
      "padana": 4798,
      "nagtultuloy": 4799,
      "##siklopedia": 4800,
      "pateg": 4801,
      "##togan": 4802,
      "agkasapulan": 4803,
      "Island": 4804,
      "##care": 4805,
      "marigatan": 4806,
      "Hawaii": 4807,
      "rec": 4808,
      "mangrugi": 4809,
      "##ukatan": 4810,
      "##ection": 4811,
      "taber": 4812,
      "Northern": 4813,
      "Mr": 4814,
      "##ene": 4815,
      "Mann": 4816,
      "malapdan": 4817,
      "trabahador": 4818,
      "Presid": 4819,
      "34": 4820,
      "camp": 4821,
      "musi": 4822,
      "##dit": 4823,
      "anakko": 4824,
      "Katoliko": 4825,
      "##rica": 4826,
      "napak": 4827,
      "##tep": 4828,
      "panunoten": 4829,
      "likudan": 4830,
      "sapasap": 4831,
      "Timm": 4832,
      "##ich": 4833,
      "2015": 4834,
      "simmangpet": 4835,
      "##saludsod": 4836,
      "ensiklopedia": 4837,
      "Panunotem": 4838,
      "ilo": 4839,
      "kua": 4840,
      "##ser": 4841,
      "##talkan": 4842,
      "panam": 4843,
      "mano": 4844,
      "panangasaba": 4845,
      "tawenen": 4846,
      "mangibaga": 4847,
      "kunak": 4848,
      "MA": 4849,
      "dawat": 4850,
      "##kanda": 4851,
      "##pati": 4852,
      "##otec": 4853,
      "##pataud": 4854,
      "##inoy": 4855,
      "aksidente": 4856,
      "itultuloy": 4857,
      "##rict": 4858,
      "##endision": 4859,
      "##koy": 4860,
      "##ukp": 4861,
      "kinatao": 4862,
      "agparang": 4863,
      "asawam": 4864,
      "makatawen": 4865,
      "Dep": 4866,
      "ditan": 4867,
      "seg": 4868,
      "##maan": 4869,
      "##akter": 4870,
      "Green": 4871,
      "##conto": 4872,
      "tienda": 4873,
      "##esa": 4874,
      "##iman": 4875,
      "Daydiay": 4876,
      "##estig": 4877,
      "##pot": 4878,
      "##ds": 4879,
      "##uran": 4880,
      "nakak": 4881,
      "naimp": 4882,
      "Malawi": 4883,
      "nagserbi": 4884,
      "mannaniw": 4885,
      "##ther": 4886,
      "Tina": 4887,
      "se": 4888,
      "##lama": 4889,
      "##PA": 4890,
      "##ulon": 4891,
      "##imaan": 4892,
      "##imetmet": 4893,
      "nob": 4894,
      "##tista": 4895,
      "punto": 4896,
      "##ge": 4897,
      "##ger": 4898,
      "##udot": 4899,
      "##panaw": 4900,
      "Sigun": 4901,
      "situt": 4902,
      "##AWAN": 4903,
      "indibid": 4904,
      "##daulo": 4905,
      "panagdayaw": 4906,
      "##annawan": 4907,
      "pagteng": 4908,
      "pannakik": 4909,
      "Turkmen": 4910,
      "Daga": 4911,
      "Pat": 4912,
      "##tado": 4913,
      "##anges": 4914,
      "##ull": 4915,
      "##riing": 4916,
      "nagparang": 4917,
      "##eka": 4918,
      "kapat": 4919,
      "Brgy": 4920,
      "Ki": 4921,
      "rugi": 4922,
      "##apito": 4923,
      "agis": 4924,
      "taaw": 4925,
      "##ucod": 4926,
      "Malagip": 4927,
      "simple": 4928,
      "##aisuna": 4929,
      "armada": 4930,
      "pisikal": 4931,
      "sapul": 4932,
      "maipat": 4933,
      "##tured": 4934,
      "pammapatay": 4935,
      "Napateg": 4936,
      "Moore": 4937,
      "des": 4938,
      "##hol": 4939,
      "Venda": 4940,
      "traysikel": 4941,
      "##dagus": 4942,
      "##ome": 4943,
      "pasalip": 4944,
      "##aganetget": 4945,
      "natak": 4946,
      "##abbaba": 4947,
      "ususar": 4948,
      "Wol": 4949,
      "##abagi": 4950,
      "##eba": 4951,
      "parapo": 4952,
      "pinatay": 4953,
      "Iluko": 4954,
      "It": 4955,
      "##asab": 4956,
      "nagna": 4957,
      "nagtalinaed": 4958,
      "awat": 4959,
      "##sukisok": 4960,
      "##banghe": 4961,
      "proseso": 4962,
      "Pisin": 4963,
      "buya": 4964,
      "layus": 4965,
      "dayag": 4966,
      "##illa": 4967,
      "ipar": 4968,
      "karakter": 4969,
      "##ambantayan": 4970,
      "rupana": 4971,
      "##illit": 4972,
      "##elebr": 4973,
      "pagannurot": 4974,
      "##unget": 4975,
      "napanda": 4976,
      "ammoda": 4977,
      "ulep": 4978,
      "pribil": 4979,
      "Le": 4980,
      "buyb": 4981,
      "##agbaga": 4982,
      "##ert": 4983,
      "panagaramid": 4984,
      "##posi": 4985,
      "nabaknang": 4986,
      "tradi": 4987,
      "##ext": 4988,
      "##titusion": 4989,
      "kaarrub": 4990,
      "##enso": 4991,
      "panagpampanunot": 4992,
      "nakitada": 4993,
      "##elebision": 4994,
      "bol": 4995,
      "##yama": 4996,
      "##akem": 4997,
      "##abet": 4998,
      "##abuso": 4999,
      "panangida": 5000,
      "umawat": 5001,
      "pangngeddeng": 5002,
      "aramidenda": 5003,
      "##ukot": 5004,
      "abut": 5005,
      "mangabak": 5006,
      "makitam": 5007,
      "inkeddeng": 5008,
      "Baybay": 5009,
      "mon": 5010,
      "##ungaw": 5011,
      "##orld": 5012,
      "Int": 5013,
      "##lanad": 5014,
      "##kanta": 5015,
      "tawenna": 5016,
      "196": 5017,
      "naindaklan": 5018,
      "Gujar": 5019,
      "##ORIAL": 5020,
      "galad": 5021,
      "Hausa": 5022,
      "Liter": 5023,
      "Pati": 5024,
      "cac": 5025,
      "##say": 5026,
      "##pir": 5027,
      "saanko": 5028,
      "##elik": 5029,
      "##ubosan": 5030,
      "makitana": 5031,
      "##rector": 5032,
      "Kwanyama": 5033,
      "Gujarati": 5034,
      "Rumbeng": 5035,
      "Zap": 5036,
      "kuan": 5037,
      "ya": 5038,
      "##ustral": 5039,
      "saandan": 5040,
      "##annad": 5041,
      "nalawa": 5042,
      "Supr": 5043,
      "Lao": 5044,
      "NA": 5045,
      "Sika": 5046,
      "sis": 5047,
      "##boam": 5048,
      "dakulap": 5049,
      "mabasa": 5050,
      "agbalinto": 5051,
      "##fr": 5052,
      "##nakami": 5053,
      "panagsurat": 5054,
      "nakakita": 5055,
      "nasursur": 5056,
      "Zapotec": 5057,
      "May": 5058,
      "kuk": 5059,
      "nayon": 5060,
      "##tir": 5061,
      "nakitak": 5062,
      "##atiko": 5063,
      "##irus": 5064,
      "pastor": 5065,
      "agbibiag": 5066,
      "impaay": 5067,
      "##turpos": 5068,
      "Luval": 5069,
      "Luvale": 5070,
      "sipud": 5071,
      "##enio": 5072,
      "nakag": 5073,
      "##oldid": 5074,
      "biagko": 5075,
      "kampo": 5076,
      "tulongan": 5077,
      "Wolaita": 5078,
      "Mot": 5079,
      "##amili": 5080,
      "agtignay": 5081,
      "##ulagan": 5082,
      "##danon": 5083,
      "sikigan": 5084,
      "Lakay": 5085,
      "Pil": 5086,
      "bukb": 5087,
      "telebision": 5088,
      "##MA": 5089,
      "##osan": 5090,
      "##ubing": 5091,
      "pangnga": 5092,
      "##ammati": 5093,
      "Insungbat": 5094,
      "Republi": 5095,
      "32": 5096,
      "NO": 5097,
      "Narigat": 5098,
      "beddeng": 5099,
      "agururay": 5100,
      "##sita": 5101,
      "amak": 5102,
      "komer": 5103,
      "prof": 5104,
      "Saanna": 5105,
      "ipa": 5106,
      "##uyon": 5107,
      "impluen": 5108,
      "Addaan": 5109,
      "Marat": 5110,
      "ikkat": 5111,
      "agdada": 5112,
      "tengng": 5113,
      "EDIT": 5114,
      "capu": 5115,
      "##bor": 5116,
      "##aybayan": 5117,
      "##oma": 5118,
      "maadda": 5119,
      "##ick": 5120,
      "pagiwarnak": 5121,
      "bagida": 5122,
      "carar": 5123,
      "mangisursuro": 5124,
      "kakaduana": 5125,
      "Ezekiel": 5126,
      "indibidual": 5127,
      "EDITORIAL": 5128,
      "##unton": 5129,
      "naaddaan": 5130,
      "##ultana": 5131,
      "2010": 5132,
      "##yanak": 5133,
      "positibo": 5134,
      "AD": 5135,
      "##pad": 5136,
      "anakda": 5137,
      "riribuk": 5138,
      "natural": 5139,
      "##aget": 5140,
      "##ideo": 5141,
      "##edan": 5142,
      "##antangay": 5143,
      "##own": 5144,
      "Bislama": 5145,
      "##pani": 5146,
      "##utna": 5147,
      "impas": 5148,
      "pinap": 5149,
      "likud": 5150,
      "##ustrasion": 5151,
      "Mindanao": 5152,
      "kudil": 5153,
      "##rum": 5154,
      "##asit": 5155,
      "nagturong": 5156,
      "naipal": 5157,
      "sabong": 5158,
      "biagtayo": 5159,
      "negosiante": 5160,
      "petsa": 5161,
      "Basa": 5162,
      "million": 5163,
      "wat": 5164,
      "pagiliantayo": 5165,
      "Bengali": 5166,
      "Africa": 5167,
      "isunto": 5168,
      "Mis": 5169,
      "Ot": 5170,
      "cayo": 5171,
      "pasi": 5172,
      "moder": 5173,
      "ibagbag": 5174,
      "selebr": 5175,
      "porma": 5176,
      "bituen": 5177,
      "##amo": 5178,
      "##sir": 5179,
      "##epe": 5180,
      "##ruz": 5181,
      "inggana": 5182,
      "##ungsot": 5183,
      "Marathi": 5184,
      "autor": 5185,
      "##bur": 5186,
      "##bit": 5187,
      "##sukat": 5188,
      "nainkalintegan": 5189,
      "ulona": 5190,
      "##dumduma": 5191,
      "##rambak": 5192,
      "##obre": 5193,
      "benneg": 5194,
      "nanipud": 5195,
      "kampilan": 5196,
      "##resiar": 5197,
      "uni": 5198,
      "##rih": 5199,
      "##ungpar": 5200,
      "Diablo": 5201,
      "Maudi": 5202,
      "pannakapapatay": 5203,
      "Benjamin": 5204,
      "##tapatta": 5205,
      "##mul": 5206,
      "##eer": 5207,
      "##tit": 5208,
      "impal": 5209,
      "##untario": 5210,
      "Levita": 5211,
      "Agar": 5212,
      "Cris": 5213,
      "Sir": 5214,
      "##kul": 5215,
      "##kri": 5216,
      "##uyod": 5217,
      "mision": 5218,
      "Hapon": 5219,
      "tawa": 5220,
      "ung": 5221,
      "##pes": 5222,
      "dicay": 5223,
      "sumurot": 5224,
      "##karga": 5225,
      "Makatulong": 5226,
      "##baon": 5227,
      "linia": 5228,
      "kid": 5229,
      "##ft": 5230,
      "agrik": 5231,
      "##inaw": 5232,
      "##tinnag": 5233,
      "limit": 5234,
      "kitaem": 5235,
      "panagin": 5236,
      "##pleto": 5237,
      "##estigasion": 5238,
      "Mong": 5239,
      "##ET": 5240,
      "##anac": 5241,
      "panagusar": 5242,
      "napulotan": 5243,
      "##andar": 5244,
      "matungpal": 5245,
      "trans": 5246,
      "##kasaba": 5247,
      "Jonatan": 5248,
      "Batak": 5249,
      "##kukua": 5250,
      "##35": 5251,
      "##erasion": 5252,
      "Ester": 5253,
      "##tine": 5254,
      "naibatay": 5255,
      "Adadda": 5256,
      "Itoy": 5257,
      "Lo": 5258,
      "##lad": 5259,
      "impat": 5260,
      "siam": 5261,
      "##ogan": 5262,
      "Tallo": 5263,
      "dekada": 5264,
      "Office": 5265,
      "Glo": 5266,
      "dusa": 5267,
      "web": 5268,
      "##sep": 5269,
      "##gatibo": 5270,
      "##ikagum": 5271,
      "pannakis": 5272,
      "nainget": 5273,
      "Mannak": 5274,
      "patien": 5275,
      "Sumagmamano": 5276,
      "Jeh": 5277,
      "sec": 5278,
      "##uv": 5279,
      "malpas": 5280,
      "kolehio": 5281,
      "krus": 5282,
      "##tila": 5283,
      "##saad": 5284,
      "makig": 5285,
      "kontro": 5286,
      "Paset": 5287,
      "urbon": 5288,
      "Tawen": 5289,
      "buyogen": 5290,
      "plas": 5291,
      "##lara": 5292,
      "##sor": 5293,
      "nagbiag": 5294,
      "##ipen": 5295,
      "##ennatayo": 5296,
      "Aruba": 5297,
      "##desision": 5298,
      "##appia": 5299,
      "determ": 5300,
      "##aldawan": 5301,
      "ID": 5302,
      "billit": 5303,
      "##ngar": 5304,
      "##abot": 5305,
      "##awas": 5306,
      "##sango": 5307,
      "Tuval": 5308,
      "45": 5309,
      "cen": 5310,
      "##tiing": 5311,
      "##galo": 5312,
      "##unas": 5313,
      "##olan": 5314,
      "37": 5315,
      "Iso": 5316,
      "Pags": 5317,
      "fi": 5318,
      "sc": 5319,
      "##kap": 5320,
      "paniri": 5321,
      "##uklan": 5322,
      "##icip": 5323,
      "imper": 5324,
      "##ultulong": 5325,
      "ikkan": 5326,
      "away": 5327,
      "Simbaan": 5328,
      "ilustrasion": 5329,
      "Sad": 5330,
      "amo": 5331,
      "mabalinmo": 5332,
      "bakuna": 5333,
      "Austral": 5334,
      "gatad": 5335,
      "##ade": 5336,
      "##itam": 5337,
      "nangnangruna": 5338,
      "umasideg": 5339,
      "agtar": 5340,
      "##dengngeg": 5341,
      "awag": 5342,
      "lakayna": 5343,
      "responsab": 5344,
      "##rihinal": 5345,
      "Kadagi": 5346,
      "gakat": 5347,
      "mangi": 5348,
      "mangasaba": 5349,
      "nangibaon": 5350,
      "lapayag": 5351,
      "gro": 5352,
      "##sana": 5353,
      "##ues": 5354,
      "##nakkel": 5355,
      "naamm": 5356,
      "nasarakan": 5357,
      "mangidadaulo": 5358,
      "gang": 5359,
      "##salom": 5360,
      "madama": 5361,
      "KAD": 5362,
      "Mano": 5363,
      "Pa": 5364,
      "##uas": 5365,
      "##rup": 5366,
      "##waragawag": 5367,
      "saanyo": 5368,
      "Isuda": 5369,
      "##kamen": 5370,
      "##gedan": 5371,
      "pagannurotan": 5372,
      "Mongoli": 5373,
      "AN": 5374,
      "Dang": 5375,
      "ebid": 5376,
      "husto": 5377,
      "##yal": 5378,
      "##angir": 5379,
      "nagti": 5380,
      "nagaramid": 5381,
      "nakatulong": 5382,
      "##endar": 5383,
      "panggepna": 5384,
      "Nabayag": 5385,
      "sipnget": 5386,
      "Isoko": 5387,
      "Sar": 5388,
      "loc": 5389,
      "##yam": 5390,
      "##ck": 5391,
      "##wagan": 5392,
      "##iger": 5393,
      "Natay": 5394,
      "nagadu": 5395,
      "mail": 5396,
      "maikan": 5397,
      "agpatingga": 5398,
      "##ribati": 5399,
      "agnagan": 5400,
      "lames": 5401,
      "seksual": 5402,
      "dacayo": 5403,
      "letang": 5404,
      "milagro": 5405,
      "tiendaan": 5406,
      "cuc": 5407,
      "##dy": 5408,
      "##ines": 5409,
      "##usk": 5410,
      "Tuvaluan": 5411,
      "KAS": 5412,
      "##abel": 5413,
      "##unc": 5414,
      "nagnaed": 5415,
      "ann": 5416,
      "kinamat": 5417,
      "nangik": 5418,
      "Anton": 5419,
      "##laksid": 5420,
      "##tarak": 5421,
      "immasideg": 5422,
      "##dill": 5423,
      "legal": 5424,
      "##kana": 5425,
      "##urapay": 5426,
      "##enguet": 5427,
      "kakaisuna": 5428,
      "##angrunaanna": 5429,
      "pakaib": 5430,
      "##stem": 5431,
      "Kiribati": 5432,
      "Berna": 5433,
      "Her": 5434,
      "agap": 5435,
      "gat": 5436,
      "##aginayon": 5437,
      "pangal": 5438,
      "daytay": 5439,
      "Ani": 5440,
      "parbangon": 5441,
      "saul": 5442,
      "Awanen": 5443,
      "libre": 5444,
      "silaw": 5445,
      "kasapulanda": 5446,
      "histo": 5447,
      "Ndon": 5448,
      "##uo": 5449,
      "##ayatna": 5450,
      "mapa": 5451,
      "##utok": 5452,
      "Nasurok": 5453,
      "kabarbaro": 5454,
      "Ndonga": 5455,
      "Reb": 5456,
      "##tia": 5457,
      "##apsion": 5458,
      "panagturay": 5459,
      "kaaldawan": 5460,
      "##rugin": 5461,
      "demonio": 5462,
      "Europa": 5463,
      "Gabri": 5464,
      "pribilehio": 5465,
      "pigsa": 5466,
      "##bati": 5467,
      "##alli": 5468,
      "panagsi": 5469,
      "panagraem": 5470,
      "Tiv": 5471,
      "##bolo": 5472,
      "eksperto": 5473,
      "Kiluba": 5474,
      "edi": 5475,
      "##mus": 5476,
      "##fer": 5477,
      "##ikano": 5478,
      "Addan": 5479,
      "##pektibo": 5480,
      "Mamati": 5481,
      "Kwangali": 5482,
      "papatay": 5483,
      "##mis": 5484,
      "##uotan": 5485,
      "##yeg": 5486,
      "##asna": 5487,
      "##ampan": 5488,
      "##uban": 5489,
      "Anti": 5490,
      "basura": 5491,
      "arig": 5492,
      "##angged": 5493,
      "awis": 5494,
      "simmaruno": 5495,
      "agararamid": 5496,
      "##uniang": 5497,
      "balitoc": 5498,
      "##banghelio": 5499,
      "##ior": 5500,
      "intay": 5501,
      "##ley": 5502,
      "##estival": 5503,
      "subbot": 5504,
      "direksion": 5505,
      "Tshiluba": 5506,
      "##agimongan": 5507,
      "Cruz": 5508,
      "##paay": 5509,
      "##angib": 5510,
      "##one": 5511,
      "##etela": 5512,
      "kaunaan": 5513,
      "karit": 5514,
      "2011": 5515,
      "##bingay": 5516,
      "tallopulo": 5517,
      "personali": 5518,
      "Bak": 5519,
      "kaykayat": 5520,
      "orihinal": 5521,
      "sursuro": 5522,
      "kinaimbag": 5523,
      "##umaud": 5524,
      "agtalek": 5525,
      "Imbag": 5526,
      "mabigbig": 5527,
      "bayad": 5528,
      "Mesias": 5529,
      "panirigan": 5530,
      "##yn": 5531,
      "##endanto": 5532,
      "##orn": 5533,
      "##acder": 5534,
      "nausar": 5535,
      "maadal": 5536,
      "estoria": 5537,
      "resultana": 5538,
      "panagimb": 5539,
      "##lintegan": 5540,
      "kaaduanna": 5541,
      "buklen": 5542,
      "##suporta": 5543,
      "Ipak": 5544,
      "OF": 5545,
      "##adona": 5546,
      "naipas": 5547,
      "Pinag": 5548,
      "guardia": 5549,
      "Otetela": 5550,
      "Kabi": 5551,
      "Nanga": 5552,
      "P1": 5553,
      "tugaw": 5554,
      "##vers": 5555,
      "##kuan": 5556,
      "##olisan": 5557,
      "ikabil": 5558,
      "##agragsak": 5559,
      "##ayawayaan": 5560,
      "Pu": 5561,
      "bos": 5562,
      "##isio": 5563,
      "panungpalan": 5564,
      "isem": 5565,
      "Insurat": 5566,
      "##quel": 5567,
      "Umb": 5568,
      "piesta": 5569,
      "##ongreso": 5570,
      "Kis": 5571,
      "bise": 5572,
      "##let": 5573,
      "##iang": 5574,
      "pannakak": 5575,
      "sangsang": 5576,
      "Naammuan": 5577,
      "barko": 5578,
      "##liseo": 5579,
      "topiko": 5580,
      "botante": 5581,
      "Cas": 5582,
      "Se": 5583,
      "kunkuna": 5584,
      "nayanak": 5585,
      "school": 5586,
      "##uok": 5587,
      "##atna": 5588,
      "##ungdo": 5589,
      "##ative": 5590,
      "##biit": 5591,
      "mapat": 5592,
      "kallabes": 5593,
      "kabambantayan": 5594,
      "##landic": 5595,
      "Greenlandic": 5596,
      "P5": 5597,
      "dig": 5598,
      "work": 5599,
      "##ember": 5600,
      "Inaramid": 5601,
      "pasiente": 5602,
      "Mongolian": 5603,
      "Ros": 5604,
      "pe": 5605,
      "##kabil": 5606,
      "##OT": 5607,
      "##UB": 5608,
      "##awes": 5609,
      "##orre": 5610,
      "kabak": 5611,
      "Chav": 5612,
      "ayayam": 5613,
      "##utob": 5614,
      "##AYS": 5615,
      "General": 5616,
      "Fernando": 5617,
      "ebidensia": 5618,
      "Jordan": 5619,
      "Kongreso": 5620,
      "basaen": 5621,
      "bisita": 5622,
      "gatang": 5623,
      "##usig": 5624,
      "##ini": 5625,
      "agti": 5626,
      "mangal": 5627,
      "##utak": 5628,
      "maragsakan": 5629,
      "Naragsak": 5630,
      "North": 5631,
      "bagbagida": 5632,
      "Dimo": 5633,
      "Filip": 5634,
      "##uis": 5635,
      "##29": 5636,
      "##esku": 5637,
      "##rit": 5638,
      "nailian": 5639,
      "nairaman": 5640,
      "##olf": 5641,
      "arte": 5642,
      "kapitan": 5643,
      "panagkaykaysa": 5644,
      "kabaelanna": 5645,
      "rebelde": 5646,
      "Ammok": 5647,
      "ulbod": 5648,
      "Anakna": 5649,
      "OFW": 5650,
      "Dadduma": 5651,
      "##aimbag": 5652,
      "##libak": 5653,
      "##urt": 5654,
      "Ilocano": 5655,
      "##iwar": 5656,
      "mangala": 5657,
      "detal": 5658,
      "negatibo": 5659,
      "Islands": 5660,
      "36": 5661,
      "Benguet": 5662,
      "Dist": 5663,
      "Tum": 5664,
      "##uz": 5665,
      "##abag": 5666,
      "pannakip": 5667,
      "Imbagana": 5668,
      "Senado": 5669,
      "dokumento": 5670,
      "##langit": 5671,
      "##uangay": 5672,
      "manmano": 5673,
      "makakita": 5674,
      "##dadanes": 5675,
      "mapapatay": 5676,
      "tanap": 5677,
      "Motu": 5678,
      "Rob": 5679,
      "Tet": 5680,
      "rang": 5681,
      "##site": 5682,
      "mangpas": 5683,
      "Kastila": 5684,
      "agpapada": 5685,
      "kapolisan": 5686,
      "lugarda": 5687,
      "pusom": 5688,
      "##annuat": 5689,
      "riknana": 5690,
      "##ower": 5691,
      "industria": 5692,
      "Umbundu": 5693,
      "Ban": 5694,
      "datayo": 5695,
      "magm": 5696,
      "##asaritaan": 5697,
      "##apak": 5698,
      "##abuno": 5699,
      "##araem": 5700,
      "umdas": 5701,
      "Swati": 5702,
      "2000": 5703,
      "Nanang": 5704,
      "gunglo": 5705,
      "ide": 5706,
      "men": 5707,
      "str": 5708,
      "ug": 5709,
      "##zal": 5710,
      "##awna": 5711,
      "maamm": 5712,
      "masigurado": 5713,
      "##dillera": 5714,
      "war": 5715,
      "##27": 5716,
      "##unann": 5717,
      "kinal": 5718,
      "Agtultuloy": 5719,
      "marigrigat": 5720,
      "##likud": 5721,
      "lupot": 5722,
      "Ale": 5723,
      "Dili": 5724,
      "Vice": 5725,
      "##apag": 5726,
      "kakas": 5727,
      "kunaen": 5728,
      "entero": 5729,
      "nagkuna": 5730,
      "##oda": 5731,
      "##dua": 5732,
      "##AAN": 5733,
      "##GU": 5734,
      "##parit": 5735,
      "38": 5736,
      "##aset": 5737,
      "panga": 5738,
      "##ungt": 5739,
      "##eph": 5740,
      "government": 5741,
      "peggad": 5742,
      "##mmo": 5743,
      "##34": 5744,
      "##urod": 5745,
      "##tansia": 5746,
      "gapuanan": 5747,
      "narik": 5748,
      "##kasar": 5749,
      "kontr": 5750,
      "atap": 5751,
      "cabsat": 5752,
      "gannuat": 5753,
      "pen": 5754,
      "##each": 5755,
      "##ande": 5756,
      "agkar": 5757,
      "agduduma": 5758,
      "##ulto": 5759,
      "##laag": 5760,
      "kaatiddog": 5761,
      "asno": 5762,
      "##ulit": 5763,
      "Abra": 5764,
      "gap": 5765,
      "tang": 5766,
      "tema": 5767,
      "##monto": 5768,
      "##nes": 5769,
      "panagdaliasat": 5770,
      "palawag": 5771,
      "kinapudnona": 5772,
      "naipablaak": 5773,
      "sitat": 5774,
      "Mix": 5775,
      "Fr": 5776,
      "Laz": 5777,
      "Sem": 5778,
      "maw": 5779,
      "##yer": 5780,
      "##nad": 5781,
      "##usuan": 5782,
      "kalgaw": 5783,
      "##ristian": 5784,
      "bagitayo": 5785,
      "##bere": 5786,
      "Ngabere": 5787,
      "##umpis": 5788,
      "didiosen": 5789,
      "Bi": 5790,
      "Tob": 5791,
      "tali": 5792,
      "nagsurat": 5793,
      "##atayab": 5794,
      "nabas": 5795,
      "Naka": 5796,
      "##innaawatan": 5797,
      "Bagyo": 5798,
      "Makit": 5799,
      "PR": 5800,
      "Re": 5801,
      "##ke": 5802,
      "##deg": 5803,
      "##ungd": 5804,
      "##ree": 5805,
      "malipatan": 5806,
      "Nakar": 5807,
      "Taj": 5808,
      "agadal": 5809,
      "Umay": 5810,
      "American": 5811,
      "##pecial": 5812,
      "At": 5813,
      "har": 5814,
      "ngatan": 5815,
      "##alakad": 5816,
      "ipal": 5817,
      "nagbalinen": 5818,
      "naikkan": 5819,
      "mangmangged": 5820,
      "Dangme": 5821,
      "agaw": 5822,
      "bisin": 5823,
      "madi": 5824,
      "##uong": 5825,
      "##ayaban": 5826,
      "##kog": 5827,
      "amam": 5828,
      "inyeg": 5829,
      "Faris": 5830,
      "Itay": 5831,
      "mina": 5832,
      "oc": 5833,
      "##bantay": 5834,
      "##olina": 5835,
      "nababbaba": 5836,
      "Chi": 5837,
      "pammaltog": 5838,
      "##itik": 5839,
      "natayen": 5840,
      "##udiananna": 5841,
      "kalakian": 5842,
      "##ungngo": 5843,
      "##unannag": 5844,
      "Mex": 5845,
      "Ven": 5846,
      "kaan": 5847,
      "leon": 5848,
      "##agikua": 5849,
      "appo": 5850,
      "##bayad": 5851,
      "kawes": 5852,
      "sili": 5853,
      "video": 5854,
      "##ler": 5855,
      "##26": 5856,
      "##arso": 5857,
      "paglintegan": 5858,
      "##ukon": 5859,
      "isyo": 5860,
      "##gatanna": 5861,
      "espiri": 5862,
      "dinakamat": 5863,
      "madlaw": 5864,
      "dagup": 5865,
      "mangidaulo": 5866,
      "Bethel": 5867,
      "Abi": 5868,
      "Kunana": 5869,
      "Pak": 5870,
      "ero": 5871,
      "##leta": 5872,
      "##ses": 5873,
      "##uadan": 5874,
      "##vacan": 5875,
      "##fa": 5876,
      "##awit": 5877,
      "##isem": 5878,
      "kaskas": 5879,
      "##arigatan": 5880,
      "Impal": 5881,
      "Isth": 5882,
      "maibatay": 5883,
      "solusion": 5884,
      "kinamanag": 5885,
      "caputotan": 5886,
      "Fariseo": 5887,
      "Isthmus": 5888,
      "##naw": 5889,
      "##teres": 5890,
      "pirac": 5891,
      "Dis": 5892,
      "##omba": 5893,
      "nair": 5894,
      "kayattayo": 5895,
      "##alakniban": 5896,
      "pasa": 5897,
      "##Dagiti": 5898,
      "##akup": 5899,
      "##lib": 5900,
      "nagawid": 5901,
      "panagti": 5902,
      "panagasawa": 5903,
      "apok": 5904,
      "arban": 5905,
      "matam": 5906,
      "agmaymaysa": 5907,
      "pannaca": 5908,
      "innalana": 5909,
      "##uktalan": 5910,
      "pagtaenganda": 5911,
      "moderno": 5912,
      "bok": 5913,
      "##lor": 5914,
      "##ject": 5915,
      "##ases": 5916,
      "agc": 5917,
      "##unno": 5918,
      "kinad": 5919,
      "kabangib": 5920,
      "##pakat": 5921,
      "##allasiw": 5922,
      "Luis": 5923,
      "timmakder": 5924,
      "Suprema": 5925,
      "Gar": 5926,
      "##CO": 5927,
      "##national": 5928,
      "agusar": 5929,
      "awit": 5930,
      "##ranta": 5931,
      "abilidad": 5932,
      "inyawat": 5933,
      "60": 5934,
      "Kada": 5935,
      "Sag": 5936,
      "aram": 5937,
      "jacob": 5938,
      "oto": 5939,
      "makina": 5940,
      "pagnaed": 5941,
      "dumanon": 5942,
      "Kayatko": 5943,
      "kopia": 5944,
      "##MO": 5945,
      "##tive": 5946,
      "nagres": 5947,
      "mangir": 5948,
      "disiplina": 5949,
      "##ungo": 5950,
      "sidada": 5951,
      "ibagak": 5952,
      "nalaklaka": 5953,
      "interesado": 5954,
      "lugl": 5955,
      "muging": 5956,
      "Mon": 5957,
      "Nueva": 5958,
      "Ruth": 5959,
      "ping": 5960,
      "##alon": 5961,
      "##inado": 5962,
      "##ikar": 5963,
      "##nayas": 5964,
      "asin": 5965,
      "parabur": 5966,
      "##ilangen": 5967,
      "kanen": 5968,
      "pakaseknan": 5969,
      "rinibu": 5970,
      "##rato": 5971,
      "##vel": 5972,
      "##FA": 5973,
      "##ukawen": 5974,
      "##atis": 5975,
      "nalabaga": 5976,
      "PANAG": 5977,
      "tagtagainep": 5978,
      "tawtawen": 5979,
      "Leon": 5980,
      "Sadi": 5981,
      "##ance": 5982,
      "##aregta": 5983,
      "dagitay": 5984,
      "saksi": 5985,
      "aginggat": 5986,
      "nangala": 5987,
      "atiddog": 5988,
      "bun": 5989,
      "##pis": 5990,
      "##tauan": 5991,
      "aglaklako": 5992,
      "##emto": 5993,
      "maibag": 5994,
      "mangaw": 5995,
      "manamnama": 5996,
      "##atibo": 5997,
      "Diosyo": 5998,
      "##onar": 5999,
      "##ical": 6000,
      "ammotayo": 6001,
      "Narvacan": 6002,
      "perpekto": 6003,
      "Ammom": 6004,
      "##robaran": 6005,
      "##sigem": 6006,
      "##laok": 6007,
      "maala": 6008,
      "gameng": 6009,
      "Mer": 6010,
      "Sapay": 6011,
      "##dap": 6012,
      "pannaki": 6013,
      "##danag": 6014,
      "isursuro": 6015,
      "##eck": 6016,
      "##talaw": 6017,
      "195": 6018,
      "ibagana": 6019,
      "IN": 6020,
      "me": 6021,
      "##EL": 6022,
      "##anen": 6023,
      "##annog": 6024,
      "##orma": 6025,
      "##abautisar": 6026,
      "balligi": 6027,
      "natiliw": 6028,
      "mayannurot": 6029,
      "##work": 6030,
      "##asag": 6031,
      "##abon": 6032,
      "##abaan": 6033,
      "##torial": 6034,
      "nagm": 6035,
      "mangdadael": 6036,
      "insungbat": 6037,
      "Cap": 6038,
      "Gil": 6039,
      "tri": 6040,
      "##my": 6041,
      "##abana": 6042,
      "##igur": 6043,
      "##angaw": 6044,
      "##bato": 6045,
      "Joseph": 6046,
      "Cordillera": 6047,
      "Tetun": 6048,
      "##bet": 6049,
      "##ond": 6050,
      "##adl": 6051,
      "##sau": 6052,
      "kasar": 6053,
      "##nakulo": 6054,
      "##ingel": 6055,
      "panagtrabaho": 6056,
      "mangay": 6057,
      "kabalio": 6058,
      "##regget": 6059,
      "rinugian": 6060,
      "sektor": 6061,
      "tekno": 6062,
      "landok": 6063,
      "Jeho": 6064,
      "Lin": 6065,
      "gura": 6066,
      "liw": 6067,
      "##ves": 6068,
      "kaudian": 6069,
      "karkar": 6070,
      "##awidwid": 6071,
      "##utis": 6072,
      "langlangit": 6073,
      "Zande": 6074,
      "##uatan": 6075,
      "##ED": 6076,
      "##aydayaw": 6077,
      "##atap": 6078,
      "agi": 6079,
      "##angat": 6080,
      "kalkal": 6081,
      "##angaywan": 6082,
      "##katlo": 6083,
      "namati": 6084,
      "trabahona": 6085,
      "alaen": 6086,
      "##AWANAN": 6087,
      "sisas": 6088,
      "Ber": 6089,
      "World": 6090,
      "bigbig": 6091,
      "dila": 6092,
      "leksion": 6093,
      "##aasi": 6094,
      "##sakit": 6095,
      "daytan": 6096,
      "##atiw": 6097,
      "naar": 6098,
      "##angapulo": 6099,
      "panangy": 6100,
      "masakit": 6101,
      "napanunot": 6102,
      "##ilbilin": 6103,
      "Prin": 6104,
      "##kir": 6105,
      "##aiwan": 6106,
      "nagbaliw": 6107,
      "natang": 6108,
      "sangatauan": 6109,
      "##siriban": 6110,
      "PAGWAN": 6111,
      "PAGWANAWANAN": 6112,
      "Pinoy": 6113,
      "Sida": 6114,
      "##pel": 6115,
      "##hem": 6116,
      "##tial": 6117,
      "##udin": 6118,
      "umanay": 6119,
      "pimmusay": 6120,
      "##uthor": 6121,
      "selebrasion": 6122,
      "Mik": 6123,
      "agal": 6124,
      "aaron": 6125,
      "bil": 6126,
      "kagimongan": 6127,
      "pung": 6128,
      "sinal": 6129,
      "##PO": 6130,
      "nagsardeng": 6131,
      "nakik": 6132,
      "nakadanon": 6133,
      "maammo": 6134,
      "##bogado": 6135,
      "biagmo": 6136,
      "panaglabsing": 6137,
      "Joab": 6138,
      "Simmungbat": 6139,
      "nakatugaw": 6140,
      "espesial": 6141,
      "Tajiki": 6142,
      "Pad": 6143,
      "##EG": 6144,
      "panagyaman": 6145,
      "Amana": 6146,
      "salip": 6147,
      "timec": 6148,
      "##ONG": 6149,
      "krim": 6150,
      "Efeso": 6151,
      "Amerikano": 6152,
      "mapuoran": 6153,
      "kapatgan": 6154,
      "Res": 6155,
      "##datag": 6156,
      "##alap": 6157,
      "pannakar": 6158,
      "##lesia": 6159,
      "mapanda": 6160,
      "##gined": 6161,
      "Kangrunaan": 6162,
      "bingay": 6163,
      "patarus": 6164,
      "##apata": 6165,
      "##abo": 6166,
      "##able": 6167,
      "ninamnama": 6168,
      "##ido": 6169,
      "tax": 6170,
      "pagl": 6171,
      "##ucho": 6172,
      "mabal": 6173,
      "##rugian": 6174,
      "dinadael": 6175,
      "makaaramid": 6176,
      "##abalaw": 6177,
      "dandanin": 6178,
      "Colomb": 6179,
      "##iwanwan": 6180,
      "pasurotna": 6181,
      "panagimbestiga": 6182,
      "Iy": 6183,
      "pagr": 6184,
      "##tec": 6185,
      "##eroon": 6186,
      "nadlaw": 6187,
      "##ambang": 6188,
      "managbasol": 6189,
      "panaglabas": 6190,
      "panangilasin": 6191,
      "Rodrigo": 6192,
      "##icipal": 6193,
      "Vill": 6194,
      "mis": 6195,
      "##kkat": 6196,
      "##siona": 6197,
      "##acucho": 6198,
      "##oten": 6199,
      "##pastor": 6200,
      "prot": 6201,
      "kalugar": 6202,
      "natalna": 6203,
      "##balbaliw": 6204,
      "##chi": 6205,
      "Romany": 6206,
      "Ayacucho": 6207,
      "Sabado": 6208,
      "Rizal": 6209,
      "48": 6210,
      "Asi": 6211,
      "Bayan": 6212,
      "Por": 6213,
      "turong": 6214,
      "##kag": 6215,
      "##daan": 6216,
      "##upak": 6217,
      "matulongan": 6218,
      "ektar": 6219,
      "##plano": 6220,
      "epektona": 6221,
      "eskuela": 6222,
      "Isaac": 6223,
      "komunikasion": 6224,
      "mur": 6225,
      "##angko": 6226,
      "agdal": 6227,
      "naiduma": 6228,
      "anti": 6229,
      "kiniddaw": 6230,
      "nakasagana": 6231,
      "agtaud": 6232,
      "Cameroon": 6233,
      "inak": 6234,
      "ladingit": 6235,
      "##bug": 6236,
      "##asian": 6237,
      "napa": 6238,
      "kaawan": 6239,
      "Romano": 6240,
      "kawayan": 6241,
      "agrikultura": 6242,
      "Bagi": 6243,
      "Din": 6244,
      "Gubat": 6245,
      "mabas": 6246,
      "mays": 6247,
      "raman": 6248,
      "tult": 6249,
      "##ges": 6250,
      "##ui": 6251,
      "##yerno": 6252,
      "##baliwan": 6253,
      "##akami": 6254,
      "##angda": 6255,
      "makad": 6256,
      "trono": 6257,
      "patpati": 6258,
      "tuktok": 6259,
      "alikamen": 6260,
      "tabernakulo": 6261,
      "Agarup": 6262,
      "eb": 6263,
      "pos": 6264,
      "##ayadan": 6265,
      "##ekobre": 6266,
      "##inggined": 6267,
      "##igp": 6268,
      "makib": 6269,
      "##utado": 6270,
      "##apanunot": 6271,
      "kinasirib": 6272,
      "maiparit": 6273,
      "naglugan": 6274,
      "##retary": 6275,
      "pannangan": 6276,
      "agballigi": 6277,
      "##paliiw": 6278,
      "##ei": 6279,
      "naibaga": 6280,
      "saka": 6281,
      "napalalo": 6282,
      "kualip": 6283,
      "##munity": 6284,
      "magmagna": 6285,
      "Mil": 6286,
      "ho": 6287,
      "kangatuan": 6288,
      "##kup": 6289,
      "##abu": 6290,
      "##ubb": 6291,
      "panangg": 6292,
      "nangb": 6293,
      "Adun": 6294,
      "##ANO": 6295,
      "narikna": 6296,
      "kataltal": 6297,
      "posision": 6298,
      "Dik": 6299,
      "Usigentayo": 6300,
      "##abtrabaho": 6301,
      "##ungal": 6302,
      "##uskol": 6303,
      "##idem": 6304,
      "##ipato": 6305,
      "addaak": 6306,
      "naim": 6307,
      "##patan": 6308,
      "naganmo": 6309,
      "##tinnulong": 6310,
      "Canaan": 6311,
      "##arsaruno": 6312,
      "Awar": 6313,
      "Feli": 6314,
      "NAG": 6315,
      "Ver": 6316,
      "yo": 6317,
      "##sangit": 6318,
      "##yak": 6319,
      "##AO": 6320,
      "##asia": 6321,
      "##anganna": 6322,
      "napatpateg": 6323,
      "##sikulo": 6324,
      "pisos": 6325,
      "Mus": 6326,
      "atension": 6327,
      "##sen": 6328,
      "##inom": 6329,
      "##amal": 6330,
      "nagtugaw": 6331,
      "naidumduma": 6332,
      "##ola": 6333,
      "aramidek": 6334,
      "2020": 6335,
      "limapulo": 6336,
      "Gob": 6337,
      "sas": 6338,
      "##ingpet": 6339,
      "##ingsing": 6340,
      "panangusar": 6341,
      "internet": 6342,
      "##iyao": 6343,
      "office": 6344,
      "Cambo": 6345,
      "Jonas": 6346,
      "Ho": 6347,
      "Lunda": 6348,
      "Nalak": 6349,
      "kategoria": 6350,
      "##adaga": 6351,
      "##ilangan": 6352,
      "manangaywan": 6353,
      "panangl": 6354,
      "Kasanotayo": 6355,
      "##empor": 6356,
      "##ugatan": 6357,
      "mangisuro": 6358,
      "kabakiran": 6359,
      "Eliseo": 6360,
      "Nangrugi": 6361,
      "RA": 6362,
      "##sona": 6363,
      "##akpakita": 6364,
      "##taaw": 6365,
      "##ester": 6366,
      "nagkam": 6367,
      "##irino": 6368,
      "kabaybayan": 6369,
      "adigi": 6370,
      "Maam": 6371,
      "##rasia": 6372,
      "kanayonan": 6373,
      "mapagtalkan": 6374,
      "Kikamba": 6375,
      "III": 6376,
      "Mun": 6377,
      "asuk": 6378,
      "kalidad": 6379,
      "##apar": 6380,
      "##trada": 6381,
      "##ations": 6382,
      "magunggona": 6383,
      "namnamaen": 6384,
      "nasional": 6385,
      "masursurotayo": 6386,
      "President": 6387,
      "70": 6388,
      "fac": 6389,
      "mod": 6390,
      "##31": 6391,
      "##NA": 6392,
      "##ingked": 6393,
      "##rot": 6394,
      "umadadu": 6395,
      "##try": 6396,
      "##karina": 6397,
      "##umbangir": 6398,
      "##alluyon": 6399,
      "##quia": 6400,
      "panagsagaba": 6401,
      "##lawlawagna": 6402,
      "buybuyot": 6403,
      "misionero": 6404,
      "elementar": 6405,
      "##lano": 6406,
      "##EH": 6407,
      "##adad": 6408,
      "##umbunannag": 6409,
      "##resentar": 6410,
      "Quich": 6411,
      "##apsapul": 6412,
      "dana": 6413,
      "pes": 6414,
      "##buso": 6415,
      "##boy": 6416,
      "ununana": 6417,
      "dimmakkel": 6418,
      "innala": 6419,
      "##emorial": 6420,
      "official": 6421,
      "kinamanang": 6422,
      "Laoag": 6423,
      "Chief": 6424,
      "Quichua": 6425,
      "##alang": 6426,
      "##inamin": 6427,
      "sigarilio": 6428,
      "nabara": 6429,
      "Chiyao": 6430,
      "maikapat": 6431,
      "##sukir": 6432,
      "##ight": 6433,
      "sidong": 6434,
      "musika": 6435,
      "Pi": 6436,
      "bado": 6437,
      "cri": 6438,
      "epektibo": 6439,
      "olo": 6440,
      "rago": 6441,
      "sobra": 6442,
      "##EA": 6443,
      "##tim": 6444,
      "##uradu": 6445,
      "##osas": 6446,
      "##angak": 6447,
      "isuro": 6448,
      "nabat": 6449,
      "impakaammo": 6450,
      "nangipaay": 6451,
      "otoridad": 6452,
      "Cin": 6453,
      "##gas": 6454,
      "##umay": 6455,
      "##reet": 6456,
      "##uyong": 6457,
      "##deklara": 6458,
      "iyeg": 6459,
      "turod": 6460,
      "sirk": 6461,
      "basa": 6462,
      "gen": 6463,
      "lan": 6464,
      "##rama": 6465,
      "##sursurat": 6466,
      "diosmo": 6467,
      "##unkunana": 6468,
      "gayyemna": 6469,
      "makisarita": 6470,
      "naimpusuan": 6471,
      "Gloria": 6472,
      "for": 6473,
      "##uenna": 6474,
      "##abai": 6475,
      "nagpateg": 6476,
      "##ilio": 6477,
      "nalimed": 6478,
      "ayatna": 6479,
      "Victor": 6480,
      "kinaranggas": 6481,
      "Mic": 6482,
      "Manag": 6483,
      "Rin": 6484,
      "cons": 6485,
      "##aksi": 6486,
      "##awad": 6487,
      "##kot": 6488,
      "Inik": 6489,
      "sakripisio": 6490,
      "simmurot": 6491,
      "nagin": 6492,
      "riknak": 6493,
      "##angarang": 6494,
      "##agut": 6495,
      "uminum": 6496,
      "Agk": 6497,
      "Saantayo": 6498,
      "aramidna": 6499,
      "Nakal": 6500,
      "Kenkuana": 6501,
      "##ADAL": 6502,
      "singasing": 6503,
      "indauluan": 6504,
      "panagtakaw": 6505,
      "Jun": 6506,
      "Po": 6507,
      "kot": 6508,
      "##gada": 6509,
      "##nor": 6510,
      "##ordina": 6511,
      "payunir": 6512,
      "naun": 6513,
      "##ngel": 6514,
      "agtur": 6515,
      "Inlawlawag": 6516,
      "agpak": 6517,
      "##uaran": 6518,
      "sumangpet": 6519,
      "##paregta": 6520,
      "##dudo": 6521,
      "##estro": 6522,
      "nanumo": 6523,
      "sekret": 6524,
      "direkta": 6525,
      "impluensia": 6526,
      "editor": 6527,
      "rangtay": 6528,
      "teknolohia": 6529,
      "Li": 6530,
      "Nagi": 6531,
      "Ub": 6532,
      "##uang": 6533,
      "##IM": 6534,
      "##EK": 6535,
      "ipan": 6536,
      "##ursurot": 6537,
      "resolusion": 6538,
      "##aniwas": 6539,
      "iggem": 6540,
      "##sukimat": 6541,
      "nangibaga": 6542,
      "pabor": 6543,
      "panagraira": 6544,
      "##IOS": 6545,
      "##uspusan": 6546,
      "kataltalonan": 6547,
      "Posi": 6548,
      "Sabas": 6549,
      "##39": 6550,
      "##tob": 6551,
      "pagreb": 6552,
      "mapal": 6553,
      "Agt": 6554,
      "##kaso": 6555,
      "ordin": 6556,
      "2009": 6557,
      "makitada": 6558,
      "Do": 6559,
      "dil": 6560,
      "kami": 6561,
      "##cas": 6562,
      "##angal": 6563,
      "diding": 6564,
      "city": 6565,
      "sic": 6566,
      "mangiy": 6567,
      "##laud": 6568,
      "##posision": 6569,
      "##balayan": 6570,
      "##katawa": 6571,
      "##aliwliwa": 6572,
      "pinagbalin": 6573,
      "ballasiwtaaw": 6574,
      "Bel": 6575,
      "sia": 6576,
      "##sayan": 6577,
      "##fac": 6578,
      "agkam": 6579,
      "naawagan": 6580,
      "insayangkat": 6581,
      "2008": 6582,
      "naituding": 6583,
      "Libro": 6584,
      "website": 6585,
      "Lor": 6586,
      "aid": 6587,
      "he": 6588,
      "net": 6589,
      "sags": 6590,
      "##agat": 6591,
      "##onna": 6592,
      "agdagup": 6593,
      "insur": 6594,
      "##andak": 6595,
      "alag": 6596,
      "matak": 6597,
      "annakmo": 6598,
      "Dandan": 6599,
      "Ammona": 6600,
      "nagtaudan": 6601,
      "barukongna": 6602,
      "responsi": 6603,
      "system": 6604,
      "##trina": 6605,
      "author": 6606,
      "eh": 6607,
      "magus": 6608,
      "panagsubli": 6609,
      "taudan": 6610,
      "##rop": 6611,
      "naipat": 6612,
      "##aputok": 6613,
      "esk": 6614,
      "##tory": 6615,
      "Quirino": 6616,
      "Medina": 6617,
      "Andres": 6618,
      "email": 6619,
      "kitkita": 6620,
      "##ette": 6621,
      "##isu": 6622,
      "##ikado": 6623,
      "##abahuan": 6624,
      "##atiba": 6625,
      "Agsipud": 6626,
      "##pakumbaba": 6627,
      "##duadua": 6628,
      "##elles": 6629,
      "panangaramid": 6630,
      "maitulong": 6631,
      "agibumbunannag": 6632,
      "Impakaammo": 6633,
      "Jan": 6634,
      "PD": 6635,
      "dalluyon": 6636,
      "je": 6637,
      "lip": 6638,
      "##rat": 6639,
      "##hena": 6640,
      "##dadal": 6641,
      "##idut": 6642,
      "Naip": 6643,
      "Absalom": 6644,
      "nagpa": 6645,
      "mangited": 6646,
      "takiag": 6647,
      "Brother": 6648,
      "Chavit": 6649,
      "##rag": 6650,
      "##adakkel": 6651,
      "##uganan": 6652,
      "agpadpada": 6653,
      "Aglalo": 6654,
      "Mags": 6655,
      "moral": 6656,
      "rim": 6657,
      "##amto": 6658,
      "##abp": 6659,
      "##irukan": 6660,
      "isasang": 6661,
      "##00000": 6662,
      "Chuv": 6663,
      "##kamin": 6664,
      "##kamaysa": 6665,
      "Panawen": 6666,
      "public": 6667,
      "kapanunot": 6668,
      "##disso": 6669,
      "##inamianan": 6670,
      "responsabilidad": 6671,
      "Chuvash": 6672,
      "mer": 6673,
      "##uag": 6674,
      "##Ken": 6675,
      "##ayayo": 6676,
      "agyaman": 6677,
      "kaduada": 6678,
      "nagn": 6679,
      "##ack": 6680,
      "panangtr": 6681,
      "##entasion": 6682,
      "kama": 6683,
      "agbalinda": 6684,
      "##duadu": 6685,
      "agmul": 6686,
      "naisayangkat": 6687,
      "Kaaduan": 6688,
      "armado": 6689,
      "##truksion": 6690,
      "39": 6691,
      "Greg": 6692,
      "debo": 6693,
      "gasat": 6694,
      "ret": 6695,
      "##38": 6696,
      "##etan": 6697,
      "##rity": 6698,
      "##ubbot": 6699,
      "pagna": 6700,
      "siensia": 6701,
      "immununa": 6702,
      "Napal": 6703,
      "Ayat": 6704,
      "kori": 6705,
      "##errero": 6706,
      "maararamid": 6707,
      "46": 6708,
      "hepe": 6709,
      "##gang": 6710,
      "##36": 6711,
      "##form": 6712,
      "##tisi": 6713,
      "##idong": 6714,
      "##ipintas": 6715,
      "agbaliw": 6716,
      "##alaad": 6717,
      "##erbina": 6718,
      "Program": 6719,
      "##rakurak": 6720,
      "ker": 6721,
      "##aksak": 6722,
      "##taw": 6723,
      "maisubli": 6724,
      "##low": 6725,
      "makadanon": 6726,
      "maaramat": 6727,
      "##reklamo": 6728,
      "instr": 6729,
      "Napintas": 6730,
      "pammatina": 6731,
      "##artamento": 6732,
      "campilan": 6733,
      "health": 6734,
      "##dat": 6735,
      "##onge": 6736,
      "##utas": 6737,
      "nakabasol": 6738,
      "##ukir": 6739,
      "bareng": 6740,
      "##ezon": 6741,
      "pusoda": 6742,
      "inkabil": 6743,
      "Braz": 6744,
      "profeta": 6745,
      "##cis": 6746,
      "##dama": 6747,
      "##etna": 6748,
      "saankayo": 6749,
      "pannakaisurat": 6750,
      "maladaga": 6751,
      "pasetna": 6752,
      "##yanja": 6753,
      "pagser": 6754,
      "panagbiagda": 6755,
      "demok": 6756,
      "Ramos": 6757,
      "Laglagipem": 6758,
      "Cinyanja": 6759,
      "Bu": 6760,
      "Memorial": 6761,
      "tumaud": 6762,
      "##ming": 6763,
      "##ring": 6764,
      "##fat": 6765,
      "##tilo": 6766,
      "##inta": 6767,
      "##abuya": 6768,
      "##riri": 6769,
      "##edngan": 6770,
      "##utubo": 6771,
      "sakana": 6772,
      "saps": 6773,
      "pakabuklan": 6774,
      "Kisonge": 6775,
      "DIOS": 6776,
      "bannuar": 6777,
      "rina": 6778,
      "tub": 6779,
      "##arsarita": 6780,
      "##riw": 6781,
      "##unat": 6782,
      "##ile": 6783,
      "##rod": 6784,
      "ammon": 6785,
      "nailanad": 6786,
      "umas": 6787,
      "Agpayso": 6788,
      "agpili": 6789,
      "tattaona": 6790,
      "pannakaib": 6791,
      "##pakawan": 6792,
      "regalo": 6793,
      "Pagadalan": 6794,
      "##ITA": 6795,
      "anacna": 6796,
      "cabusor": 6797,
      "##elebrar": 6798,
      "44": 6799,
      "##aguma": 6800,
      "##asarita": 6801,
      "##aker": 6802,
      "##awanna": 6803,
      "##emma": 6804,
      "kadag": 6805,
      "panagsao": 6806,
      "##ukob": 6807,
      "##aysada": 6808,
      "ngum": 6809,
      "lumugar": 6810,
      "Guerrero": 6811,
      "##kolar": 6812,
      "detalye": 6813,
      "are": 6814,
      "kunkunana": 6815,
      "##arawidwid": 6816,
      "balang": 6817,
      "pasken": 6818,
      "##amidad": 6819,
      "aramidda": 6820,
      "ubbog": 6821,
      "sangs": 6822,
      "agararamat": 6823,
      "##dumngeg": 6824,
      "baca": 6825,
      "Brazilian": 6826,
      "Tang": 6827,
      "fish": 6828,
      "ginggined": 6829,
      "nadi": 6830,
      "##rom": 6831,
      "##Ket": 6832,
      "##nat": 6833,
      "##egasion": 6834,
      "naipan": 6835,
      "masal": 6836,
      "##arambak": 6837,
      "inar": 6838,
      "mabalinda": 6839,
      "ilida": 6840,
      "##uloyna": 6841,
      "panunotko": 6842,
      "intono": 6843,
      "##tical": 6844,
      "ginasut": 6845,
      "BIB": 6846,
      "SAL": 6847,
      "kub": 6848,
      "laban": 6849,
      "##anus": 6850,
      "##asikas": 6851,
      "##dac": 6852,
      "##agipan": 6853,
      "nagpas": 6854,
      "maipakita": 6855,
      "paraiso": 6856,
      "##eroboam": 6857,
      "trabahoda": 6858,
      "inkari": 6859,
      "Galil": 6860,
      "Editorial": 6861,
      "##elikula": 6862,
      "Daya": 6863,
      "Har": 6864,
      "Ser": 6865,
      "butos": 6866,
      "kurang": 6867,
      "##gid": 6868,
      "##wad": 6869,
      "##zar": 6870,
      "##eno": 6871,
      "##lima": 6872,
      "##imon": 6873,
      "ini": 6874,
      "kalamidad": 6875,
      "##palubos": 6876,
      "basbasol": 6877,
      "##nanakaw": 6878,
      "motibo": 6879,
      "pammatida": 6880,
      "saritaan": 6881,
      "Moab": 6882,
      "Dagita": 6883,
      "##ultural": 6884,
      "tayak": 6885,
      "liklikan": 6886,
      "Pimm": 6887,
      "Vir": 6888,
      "big": 6889,
      "emo": 6890,
      "ukom": 6891,
      "##ontrol": 6892,
      "mangtar": 6893,
      "naap": 6894,
      "maususar": 6895,
      "Nakita": 6896,
      "##anny": 6897,
      "ruot": 6898,
      "produksion": 6899,
      "sadinoman": 6900,
      "Aniaman": 6901,
      "abogado": 6902,
      "##dok": 6903,
      "kabukb": 6904,
      "assaw": 6905,
      "talento": 6906,
      "salomon": 6907,
      "Quezon": 6908,
      "santu": 6909,
      "pannursuro": 6910,
      "BANN": 6911,
      "Kak": 6912,
      "Tab": 6913,
      "gan": 6914,
      "##RA": 6915,
      "##alina": 6916,
      "##angkat": 6917,
      "##amang": 6918,
      "##unong": 6919,
      "##load": 6920,
      "makannawan": 6921,
      "##aliaw": 6922,
      "agtungpal": 6923,
      "idada": 6924,
      "Abel": 6925,
      "sagrado": 6926,
      "##niber": 6927,
      "kinabil": 6928,
      "Francis": 6929,
      "kontrober": 6930,
      "kriminal": 6931,
      "Cambodian": 6932,
      "Cons": 6933,
      "JEH": 6934,
      "irik": 6935,
      "lis": 6936,
      "##emon": 6937,
      "naasi": 6938,
      "panangiy": 6939,
      "aminen": 6940,
      "kasapulantayo": 6941,
      "2007": 6942,
      "Kabayatan": 6943,
      "pagtagi": 6944,
      "Jav": 6945,
      "Nada": 6946,
      "elem": 6947,
      "usigentayo": 6948,
      "##rab": 6949,
      "##nuan": 6950,
      "##hite": 6951,
      "##estra": 6952,
      "##eserrek": 6953,
      "nagpar": 6954,
      "##ugg": 6955,
      "agpan": 6956,
      "##turayan": 6957,
      "##agasan": 6958,
      "organ": 6959,
      "Saludsod": 6960,
      "##abalinamin": 6961,
      "ramit": 6962,
      "apagbiit": 6963,
      "Sinait": 6964,
      "benepisio": 6965,
      "panangidaulo": 6966,
      "Tom": 6967,
      "##gtignay": 6968,
      "##37": 6969,
      "##isyo": 6970,
      "##ektar": 6971,
      "makabael": 6972,
      "kabi": 6973,
      "sanguan": 6974,
      "##ucas": 6975,
      "##rekord": 6976,
      "Maur": 6977,
      "kakabsattayo": 6978,
      "makitak": 6979,
      "maawawagan": 6980,
      "##ISION": 6981,
      "nabautisar": 6982,
      "munisi": 6983,
      "JEHOV": 6984,
      "Ib": 6985,
      "fo": 6986,
      "##saan": 6987,
      "##mes": 6988,
      "##inion": 6989,
      "panagkararag": 6990,
      "##atin": 6991,
      "##kuti": 6992,
      "##okus": 6993,
      "komp": 6994,
      "isus": 6995,
      "ipakitana": 6996,
      "sinurot": 6997,
      "mapanunot": 6998,
      "##ponde": 6999,
      "konsehal": 7000,
      "kaadduan": 7001,
      "##endisionan": 7002,
      "Lak": 7003,
      "gur": 7004,
      "##los": 7005,
      "panagd": 7006,
      "inl": 7007,
      "##edyer": 7008,
      "prope": 7009,
      "inap": 7010,
      "nala": 7011,
      "Nagt": 7012,
      "posibilidad": 7013,
      "nasursurok": 7014,
      "Fon": 7015,
      "##kari": 7016,
      "pagtr": 7017,
      "dadaelen": 7018,
      "henerasion": 7019,
      "Sadiay": 7020,
      "elementaria": 7021,
      "JEHOVA": 7022,
      "Festival": 7023,
      "##sanna": 7024,
      "##ties": 7025,
      "##oralidad": 7026,
      "mannanakaw": 7027,
      "napap": 7028,
      "agsags": 7029,
      "annakyo": 7030,
      "timma": 7031,
      "bulsek": 7032,
      "##cayto": 7033,
      "Sangapulo": 7034,
      "District": 7035,
      "pasahero": 7036,
      "liwliwa": 7037,
      "bro": 7038,
      "##amaysa": 7039,
      "##emio": 7040,
      "##abati": 7041,
      "nasar": 7042,
      "isardeng": 7043,
      "pamp": 7044,
      "maikas": 7045,
      "naganko": 7046,
      "##annigid": 7047,
      "Medicare": 7048,
      "bersikulo": 7049,
      "nagballigi": 7050,
      "Damag": 7051,
      "Lazaro": 7052,
      "Mamb": 7053,
      "Opi": 7054,
      "Rimm": 7055,
      "bubon": 7056,
      "##kiddaw": 7057,
      "##NO": 7058,
      "##ayda": 7059,
      "##entista": 7060,
      "##arot": 7061,
      "nakuna": 7062,
      "maapektaran": 7063,
      "masurot": 7064,
      "##arami": 7065,
      "pangip": 7066,
      "Maika": 7067,
      "Maipalagip": 7068,
      "nakaawat": 7069,
      "Baal": 7070,
      "bukbukel": 7071,
      "Muslim": 7072,
      "dri": 7073,
      "fic": 7074,
      "kut": 7075,
      "kasiko": 7076,
      "Agb": 7077,
      "kalap": 7078,
      "Mark": 7079,
      "sinan": 7080,
      "inaramidmo": 7081,
      "kabaelanda": 7082,
      "gagayyemna": 7083,
      "Literatura": 7084,
      "Sto": 7085,
      "dangadang": 7086,
      "rag": 7087,
      "takder": 7088,
      "##sok": 7089,
      "##ral": 7090,
      "##ayas": 7091,
      "##agiragsak": 7092,
      "##adok": 7093,
      "##ulaw": 7094,
      "panagpas": 7095,
      "kapada": 7096,
      "pusok": 7097,
      "bukodko": 7098,
      "##sigudan": 7099,
      "##unisip": 7100,
      "pagpatingga": 7101,
      "agbalbaliw": 7102,
      "panagminas": 7103,
      "suroten": 7104,
      "tradision": 7105,
      "##kribir": 7106,
      "##uarantine": 7107,
      "Dig": 7108,
      "Sey": 7109,
      "ana": 7110,
      "unget": 7111,
      "##uenda": 7112,
      "##tol": 7113,
      "nagsi": 7114,
      "##ily": 7115,
      "naapektaran": 7116,
      "Administr": 7117,
      "##tugal": 7118,
      "agsakit": 7119,
      "sangg": 7120,
      "sangaili": 7121,
      "sangaribu": 7122,
      "dadaulo": 7123,
      "##lingling": 7124,
      "Gag": 7125,
      "Sara": 7126,
      "Wat": 7127,
      "kangato": 7128,
      "virus": 7129,
      "##lom": 7130,
      "##emna": 7131,
      "##usen": 7132,
      "lac": 7133,
      "##ubin": 7134,
      "##ungu": 7135,
      "##iwayat": 7136,
      "kaadayo": 7137,
      "naikkat": 7138,
      "batbato": 7139,
      "Act": 7140,
      "##angpangruna": 7141,
      "Nana": 7142,
      "minan": 7143,
      "waig": 7144,
      "##anom": 7145,
      "agdan": 7146,
      "manayon": 7147,
      "sumang": 7148,
      "Manuel": 7149,
      "Napasamak": 7150,
      "##liklik": 7151,
      "prutas": 7152,
      "seri": 7153,
      "Amerika": 7154,
      "agtrabtrabaho": 7155,
      "maiparbeng": 7156,
      "Portugal": 7157,
      "##emporario": 7158,
      "Dar": 7159,
      "eli": 7160,
      "##hy": 7161,
      "##artek": 7162,
      "##abaro": 7163,
      "inruar": 7164,
      "##uben": 7165,
      "nangida": 7166,
      "agtugaw": 7167,
      "app": 7168,
      "ordina": 7169,
      "personalidad": 7170,
      "gaput": 7171,
      "Sidama": 7172,
      "Dimm": 7173,
      "Ne": 7174,
      "Zac": 7175,
      "pelikula": 7176,
      "##uom": 7177,
      "##rel": 7178,
      "##OP": 7179,
      "##abut": 7180,
      "##ession": 7181,
      "kinaadda": 7182,
      "nangir": 7183,
      "ipakpak": 7184,
      "Estoria": 7185,
      "dumdumngeg": 7186,
      "prak": 7187,
      "Tagudin": 7188,
      "asidegen": 7189,
      "bimmaba": 7190,
      "##widan": 7191,
      "Toto": 7192,
      "napakumbaba": 7193,
      "Seych": 7194,
      "Ec": 7195,
      "Makita": 7196,
      "cam": 7197,
      "##kos": 7198,
      "##para": 7199,
      "##Lungu": 7200,
      "##ania": 7201,
      "##adana": 7202,
      "##ikedked": 7203,
      "##unor": 7204,
      "isurat": 7205,
      "##piuter": 7206,
      "pakal": 7207,
      "aywan": 7208,
      "lallakay": 7209,
      "aktibo": 7210,
      "palso": 7211,
      "##weLungu": 7212,
      "Apaman": 7213,
      "uniberso": 7214,
      "ordinansa": 7215,
      "MambweLungu": 7216,
      "Seychelles": 7217,
      "Er": 7218,
      "Pur": 7219,
      "maan": 7220,
      "sasa": 7221,
      "##Ilo": 7222,
      "Nagb": 7223,
      "siguro": 7224,
      "##sakto": 7225,
      "##adawanna": 7226,
      "Edgar": 7227,
      "pannao": 7228,
      "##uskrito": 7229,
      "Colombian": 7230,
      "kinamanangngaasi": 7231,
      "Hes": 7232,
      "##onen": 7233,
      "##aming": 7234,
      "##urity": 7235,
      "##edna": 7236,
      "kadar": 7237,
      "nangeg": 7238,
      "makapnek": 7239,
      "##tograpia": 7240,
      "rumuar": 7241,
      "kritiko": 7242,
      "mangituray": 7243,
      "##dumaan": 7244,
      "Regional": 7245,
      "terorista": 7246,
      "Mexican": 7247,
      "eroplano": 7248,
      "Ana": 7249,
      "Wayu": 7250,
      "binal": 7251,
      "faraon": 7252,
      "jos": 7253,
      "##IR": 7254,
      "##zation": 7255,
      "##daang": 7256,
      "##uridad": 7257,
      "##eses": 7258,
      "nagpat": 7259,
      "naireport": 7260,
      "kalat": 7261,
      "ipakit": 7262,
      "##utosan": 7263,
      "##ammom": 7264,
      "##itin": 7265,
      "##indaya": 7266,
      "historia": 7267,
      "##taraken": 7268,
      "##umpiska": 7269,
      "Sy": 7270,
      "leng": 7271,
      "sara": 7272,
      "##cat": 7273,
      "##ase": 7274,
      "##apet": 7275,
      "agdayaw": 7276,
      "##dio": 7277,
      "##adadal": 7278,
      "##ekan": 7279,
      "##unaiki": 7280,
      "manuskrito": 7281,
      "##ungana": 7282,
      "naala": 7283,
      "##sob": 7284,
      "pasilidad": 7285,
      "agsardeng": 7286,
      "pammatitayo": 7287,
      "panagbuteng": 7288,
      "makitkita": 7289,
      "States": 7290,
      "##uybuya": 7291,
      "pannakaisalakan": 7292,
      "Secretary": 7293,
      "nabatbati": 7294,
      "BIBL": 7295,
      "Cho": 7296,
      "P2": 7297,
      "York": 7298,
      "##gunam": 7299,
      "##tision": 7300,
      "##umduma": 7301,
      "insidente": 7302,
      "pannakatay": 7303,
      "Agpada": 7304,
      "pakar": 7305,
      "simbolo": 7306,
      "##paar": 7307,
      "asawak": 7308,
      "##ukbok": 7309,
      "##estigador": 7310,
      "##anamong": 7311,
      "telep": 7312,
      "##utaktak": 7313,
      "koriente": 7314,
      "Wayuunaiki": 7315,
      "UN": 7316,
      "Wik": 7317,
      "cum": 7318,
      "gad": 7319,
      "normal": 7320,
      "##con": 7321,
      "managi": 7322,
      "naaramat": 7323,
      "kabal": 7324,
      "##tulit": 7325,
      "mabalinna": 7326,
      "##ents": 7327,
      "##lass": 7328,
      "Estrada": 7329,
      "ibagbagana": 7330,
      "annacna": 7331,
      "nalabes": 7332,
      "ipapatayna": 7333,
      "Reh": 7334,
      "bis": 7335,
      "taba": 7336,
      "##kanayon": 7337,
      "##udayen": 7338,
      "##anias": 7339,
      "maikapito": 7340,
      "##bath": 7341,
      "##iwriw": 7342,
      "ngimm": 7343,
      "card": 7344,
      "##ports": 7345,
      "BIBLIA": 7346,
      "Hiri": 7347,
      "Kaano": 7348,
      "##ayayam": 7349,
      "##tac": 7350,
      "##rao": 7351,
      "##irst": 7352,
      "maipa": 7353,
      "##uyug": 7354,
      "##maneho": 7355,
      "##entensi": 7356,
      "ikagumaan": 7357,
      "##tinel": 7358,
      "panangipateg": 7359,
      "suspetsa": 7360,
      "gobyerno": 7361,
      "marikrik": 7362,
      "ususaren": 7363,
      "ektaria": 7364,
      "##nel": 7365,
      "##uram": 7366,
      "##angaili": 7367,
      "maag": 7368,
      "nangina": 7369,
      "##suratan": 7370,
      "pakawan": 7371,
      "aramidenyo": 7372,
      "kaili": 7373,
      "##sismo": 7374,
      "Sentinel": 7375,
      "dandaniw": 7376,
      "kurso": 7377,
      "nakarkaro": 7378,
      "##artment": 7379,
      "Antonio": 7380,
      "minaneho": 7381,
      "Abagatan": 7382,
      "Cuz": 7383,
      "Krio": 7384,
      "Rand": 7385,
      "farm": 7386,
      "kun": 7387,
      "kangrunaanna": 7388,
      "##elec": 7389,
      "diac": 7390,
      "##acco": 7391,
      "Maikatlo": 7392,
      "makapas": 7393,
      "nainsiriban": 7394,
      "Cuzco": 7395,
      "Hen": 7396,
      "LGU": 7397,
      "asu": 7398,
      "##alsa": 7399,
      "##ilonia": 7400,
      "arar": 7401,
      "##tual": 7402,
      "##kandidato": 7403,
      "##tikular": 7404,
      "makalawas": 7405,
      "pagananay": 7406,
      "nobela": 7407,
      "pinapatay": 7408,
      "pakaibilangan": 7409,
      "Mixe": 7410,
      "Tatang": 7411,
      "gambang": 7412,
      "##cian": 7413,
      "##YO": 7414,
      "pana": 7415,
      "##awil": 7416,
      "##usta": 7417,
      "nagturay": 7418,
      "pagbas": 7419,
      "pamuspusan": 7420,
      "##ecuti": 7421,
      "impalubos": 7422,
      "##ANT": 7423,
      "##AND": 7424,
      "immakar": 7425,
      "nakaadadu": 7426,
      "basolna": 7427,
      "suplay": 7428,
      "gastos": 7429,
      "duadua": 7430,
      "putotna": 7431,
      "Bum": 7432,
      "High": 7433,
      "Walli": 7434,
      "sho": 7435,
      "ton": 7436,
      "##tribu": 7437,
      "##dul": 7438,
      "##het": 7439,
      "##hustisia": 7440,
      "##apsut": 7441,
      "##abes": 7442,
      "##ulpit": 7443,
      "##udas": 7444,
      "##omenda": 7445,
      "pagari": 7446,
      "pannakag": 7447,
      "maangay": 7448,
      "matmat": 7449,
      "matulad": 7450,
      "Isuna": 7451,
      "kadagidi": 7452,
      "pakaigapuan": 7453,
      "minilion": 7454,
      "ramen": 7455,
      "##logo": 7456,
      "##asikaso": 7457,
      "Wallisian": 7458,
      "Dag": 7459,
      "East": 7460,
      "Kimb": 7461,
      "Teo": 7462,
      "Tran": 7463,
      "Wel": 7464,
      "kim": 7465,
      "##tat": 7466,
      "##pin": 7467,
      "##dagiti": 7468,
      "##igtot": 7469,
      "##utda": 7470,
      "panagkitana": 7471,
      "cadacami": 7472,
      "sagp": 7473,
      "pagtaudan": 7474,
      "team": 7475,
      "denggen": 7476,
      "Sadino": 7477,
      "Kimbundu": 7478,
      "For": 7479,
      "Siti": 7480,
      "gub": 7481,
      "##magna": 7482,
      "##raim": 7483,
      "##ingal": 7484,
      "##dipen": 7485,
      "naimas": 7486,
      "##irma": 7487,
      "##tanto": 7488,
      "babilonia": 7489,
      "Nagl": 7490,
      "##tions": 7491,
      "##annanto": 7492,
      "pusotayo": 7493,
      "bangkag": 7494,
      "PANANG": 7495,
      "Center": 7496,
      "##kayto": 7497,
      "anianto": 7498,
      "imahe": 7499,
      "officials": 7500,
      "Totonac": 7501,
      "Uppat": 7502,
      "rug": 7503,
      "##igayyem": 7504,
      "produc": 7505,
      "matar": 7506,
      "##turongan": 7507,
      "##dakamat": 7508,
      "tungt": 7509,
      "##dez": 7510,
      "highway": 7511,
      "##quiao": 7512,
      "Danny": 7513,
      "Sipud": 7514,
      "lapped": 7515,
      "agususar": 7516,
      "insuro": 7517,
      "imak": 7518,
      "kinatal": 7519,
      "Ilokana": 7520,
      "##panya": 7521,
      "##sipiko": 7522,
      "##umba": 7523,
      "agbalintayo": 7524,
      "panagkita": 7525,
      "##indua": 7526,
      "Nyan": 7527,
      "Rev": 7528,
      "Sil": 7529,
      "tra": 7530,
      "##shop": 7531,
      "##odo": 7532,
      "pangp": 7533,
      "karina": 7534,
      "##kantis": 7535,
      "##urkurang": 7536,
      "panagtut": 7537,
      "suraten": 7538,
      "kaykayo": 7539,
      "inbestigasion": 7540,
      "pagserkan": 7541,
      "Nyaneka": 7542,
      "Bur": 7543,
      "Gro": 7544,
      "Hero": 7545,
      "Kum": 7546,
      "Tes": 7547,
      "kalinteg": 7548,
      "##sy": 7549,
      "##ananna": 7550,
      "##alay": 7551,
      "##ettak": 7552,
      "kasukat": 7553,
      "innayon": 7554,
      "mangsal": 7555,
      "##resis": 7556,
      "panangb": 7557,
      "Anna": 7558,
      "sumarsaruno": 7559,
      "##ally": 7560,
      "Nasantuan": 7561,
      "magatang": 7562,
      "carnero": 7563,
      "pannubok": 7564,
      "Bash": 7565,
      "Kong": 7566,
      "Run": 7567,
      "okasion": 7568,
      "##sula": 7569,
      "##akripisio": 7570,
      "##abada": 7571,
      "##ured": 7572,
      "naipak": 7573,
      "##tee": 7574,
      "umisu": 7575,
      "##entario": 7576,
      "##erba": 7577,
      "##AKA": 7578,
      "eksena": 7579,
      "tagilako": 7580,
      "nakipag": 7581,
      "##adakes": 7582,
      "Caucas": 7583,
      "Posible": 7584,
      "Caucasus": 7585,
      "Aga": 7586,
      "Ebanghelio": 7587,
      "Rarot": 7588,
      "ilawlawag": 7589,
      "trah": 7590,
      "##33": 7591,
      "##asino": 7592,
      "##aders": 7593,
      "amada": 7594,
      "Dida": 7595,
      "kinapakumbaba": 7596,
      "nasakit": 7597,
      "masungad": 7598,
      "##uyat": 7599,
      "nagbuteng": 7600,
      "Army": 7601,
      "##ulitulit": 7602,
      "##sipe": 7603,
      "namnam": 7604,
      "##perio": 7605,
      "##ALIN": 7606,
      "naikeddeng": 7607,
      "Paraiso": 7608,
      "rekord": 7609,
      "kabagian": 7610,
      "Pacquiao": 7611,
      "Judas": 7612,
      "konsiensi": 7613,
      "sangsangkamaysa": 7614,
      "##tisipar": 7615,
      "Rarotongan": 7616,
      "Flor": 7617,
      "Naminsan": 7618,
      "miting": 7619,
      "yantangay": 7620,
      "##king": 7621,
      "agbirok": 7622,
      "addaanda": 7623,
      "nairanta": 7624,
      "##bisita": 7625,
      "Agyaman": 7626,
      "Martin": 7627,
      "kamali": 7628,
      "dumakkel": 7629,
      "##ature": 7630,
      "opinion": 7631,
      "Madam": 7632,
      "gatas": 7633,
      "Galilea": 7634,
      "timmaud": 7635,
      "igam": 7636,
      "##nu": 7637,
      "##ney": 7638,
      "##Health": 7639,
      "##abasa": 7640,
      "mangd": 7641,
      "nasarak": 7642,
      "##garaw": 7643,
      "sumango": 7644,
      "pakdaar": 7645,
      "Martial": 7646,
      "##uck": 7647,
      "##sakup": 7648,
      "Press": 7649,
      "inikkan": 7650,
      "sursurat": 7651,
      "makabulan": 7652,
      "##usbos": 7653,
      "Republic": 7654,
      "41": 7655,
      "Bay": 7656,
      "Del": 7657,
      "Pamilia": 7658,
      "special": 7659,
      "##dana": 7660,
      "##40": 7661,
      "##aster": 7662,
      "##ikap": 7663,
      "mangk": 7664,
      "##annac": 7665,
      "napeggad": 7666,
      "isaludsod": 7667,
      "agpad": 7668,
      "inaramat": 7669,
      "Ammon": 7670,
      "mabirukan": 7671,
      "##renta": 7672,
      "akinkukua": 7673,
      "bersion": 7674,
      "Marie": 7675,
      "ungto": 7676,
      "bilbilin": 7677,
      "##CC": 7678,
      "##ulang": 7679,
      "paglingling": 7680,
      "##atanor": 7681,
      "panganan": 7682,
      "##turog": 7683,
      "##namnam": 7684,
      "tumatayab": 7685,
      "Nasaysayaat": 7686,
      "uleg": 7687,
      "Immuna": 7688,
      "tukad": 7689,
      "Region": 7690,
      "International": 7691,
      "ANIA": 7692,
      "AM": 7693,
      "Taiwan": 7694,
      "Usigem": 7695,
      "anam": 7696,
      "##rana": 7697,
      "##nec": 7698,
      "tian": 7699,
      "nagar": 7700,
      "##utd": 7701,
      "##ukmeg": 7702,
      "masursur": 7703,
      "sida": 7704,
      "##tayto": 7705,
      "impagarup": 7706,
      "##tukoy": 7707,
      "aspeto": 7708,
      "idauluan": 7709,
      "##nosente": 7710,
      "kurapsion": 7711,
      "##adayawan": 7712,
      "annongen": 7713,
      "##ristianuan": 7714,
      "Isursuro": 7715,
      "Kama": 7716,
      "rugit": 7717,
      "##rd": 7718,
      "##tibker": 7719,
      "tits": 7720,
      "##upor": 7721,
      "##kunak": 7722,
      "awanton": 7723,
      "arari": 7724,
      "ilim": 7725,
      "kandida": 7726,
      "anges": 7727,
      "nakaaramid": 7728,
      "local": 7729,
      "##mission": 7730,
      "Baket": 7731,
      "kunkunada": 7732,
      "Alex": 7733,
      "elemento": 7734,
      "Sitio": 7735,
      "Ara": 7736,
      "Num": 7737,
      "ikar": 7738,
      "##32": 7739,
      "##huana": 7740,
      "##uras": 7741,
      "##eman": 7742,
      "nangan": 7743,
      "##asionna": 7744,
      "##patungpal": 7745,
      "Amatayo": 7746,
      "partikular": 7747,
      "##asamakan": 7748,
      "##abaknang": 7749,
      "panagbiagna": 7750,
      "##list": 7751,
      "uliteg": 7752,
      "teritorio": 7753,
      "katulongan": 7754,
      "cacabsat": 7755,
      "Dikay": 7756,
      "Bashkir": 7757,
      "Ter": 7758,
      "madanon": 7759,
      "##tudo": 7760,
      "##alaysay": 7761,
      "##ako": 7762,
      "##apigsa": 7763,
      "##lisi": 7764,
      "kasdiay": 7765,
      "naki": 7766,
      "##uknoy": 7767,
      "##uanda": 7768,
      "Saanko": 7769,
      "Anto": 7770,
      "kapsula": 7771,
      "Covid": 7772,
      "##ingato": 7773,
      "nuang": 7774,
      "makarikna": 7775,
      "seguridad": 7776,
      "kualipikado": 7777,
      "Magsingal": 7778,
      "Don": 7779,
      "IP": 7780,
      "Te": 7781,
      "isa": 7782,
      "seb": 7783,
      "##sman": 7784,
      "##aidda": 7785,
      "agres": 7786,
      "##sitan": 7787,
      "##ektado": 7788,
      "iseserrek": 7789,
      "agbayad": 7790,
      "pinak": 7791,
      "Kinunada": 7792,
      "##alubosan": 7793,
      "mangbukel": 7794,
      "##UNG": 7795,
      "KIN": 7796,
      "Lim": 7797,
      "War": 7798,
      "cre": 7799,
      "munisip": 7800,
      "online": 7801,
      "##nasional": 7802,
      "##apanna": 7803,
      "aglik": 7804,
      "##aayna": 7805,
      "basbassit": 7806,
      "kapito": 7807,
      "immadu": 7808,
      "Argen": 7809,
      "mamin": 7810,
      "##allatiw": 7811,
      "##antes": 7812,
      "araramidenda": 7813,
      "serv": 7814,
      "makaited": 7815,
      "tapok": 7816,
      "Australia": 7817,
      "instrumento": 7818,
      "ordinario": 7819,
      "yanna": 7820,
      "##AF": 7821,
      "##eria": 7822,
      "##away": 7823,
      "panagsukisok": 7824,
      "makigubat": 7825,
      "imada": 7826,
      "kinaasino": 7827,
      "##tandudo": 7828,
      "sientista": 7829,
      "##azar": 7830,
      "panangipakita": 7831,
      "kualidad": 7832,
      "kinamatalek": 7833,
      "AP": 7834,
      "bim": 7835,
      "but": 7836,
      "cuana": 7837,
      "gu": 7838,
      "jose": 7839,
      "##ww": 7840,
      "panagregget": 7841,
      "##ace": 7842,
      "alegasion": 7843,
      "##pannakkel": 7844,
      "matulong": 7845,
      "##ilinna": 7846,
      "nakapatpateg": 7847,
      "nakaam": 7848,
      "eksakto": 7849,
      "taray": 7850,
      "189": 7851,
      "##agragsakan": 7852,
      "Immay": 7853,
      "acco": 7854,
      "Deog": 7855,
      "Valen": 7856,
      "Ditay": 7857,
      "bara": 7858,
      "inosente": 7859,
      "piman": 7860,
      "##gaysa": 7861,
      "##angen": 7862,
      "##idda": 7863,
      "kasins": 7864,
      "##kod": 7865,
      "napaut": 7866,
      "Saanmo": 7867,
      "kahon": 7868,
      "pangib": 7869,
      "impa": 7870,
      "Maragsakan": 7871,
      "Maip": 7872,
      "minuto": 7873,
      "pundo": 7874,
      "dimmanon": 7875,
      "imbilinna": 7876,
      "##rehistro": 7877,
      "##resista": 7878,
      "Deograc": 7879,
      "80": 7880,
      "Ibanag": 7881,
      "PC": 7882,
      "Peo": 7883,
      "cad": 7884,
      "gimm": 7885,
      "##lawen": 7886,
      "##leb": 7887,
      "##OM": 7888,
      "pandem": 7889,
      "##ilding": 7890,
      "panagbas": 7891,
      "##ikinnaawatan": 7892,
      "##hobo": 7893,
      "##ublat": 7894,
      "##iliw": 7895,
      "pangta": 7896,
      "aruat": 7897,
      "##ders": 7898,
      "kakabagi": 7899,
      "##akitaan": 7900,
      "Saona": 7901,
      "naikabil": 7902,
      "##osafat": 7903,
      "Efraim": 7904,
      "imbagak": 7905,
      "makiraman": 7906,
      "diputado": 7907,
      "center": 7908,
      "pagtagilakuan": 7909,
      "fiction": 7910,
      "sangguniang": 7911,
      "telepono": 7912,
      "Deogracias": 7913,
      "Bise": 7914,
      "Sib": 7915,
      "dom": 7916,
      "##sum": 7917,
      "##cua": 7918,
      "##OL": 7919,
      "##asayaat": 7920,
      "##apal": 7921,
      "##adaan": 7922,
      "dicanto": 7923,
      "##ibers": 7924,
      "pagnana": 7925,
      "naadal": 7926,
      "impar": 7927,
      "esp": 7928,
      "naranggas": 7929,
      "lakasa": 7930,
      "intultuloy": 7931,
      "Kamara": 7932,
      "kabangibang": 7933,
      "##igpigsa": 7934,
      "cor": 7935,
      "##iat": 7936,
      "##arna": 7937,
      "##angsangit": 7938,
      "nangiy": 7939,
      "kaub": 7940,
      "pakad": 7941,
      "babbal": 7942,
      "##endak": 7943,
      "kapammati": 7944,
      "kanon": 7945,
      "Maz": 7946,
      "Simon": 7947,
      "siklo": 7948,
      "Urhobo": 7949,
      "pabo": 7950,
      "panangisuro": 7951,
      "kailiantayo": 7952,
      "inbestigador": 7953,
      "Nabayagen": 7954,
      "##eskuela": 7955,
      "agmulmula": 7956,
      "47": 7957,
      "Bac": 7958,
      "Mig": 7959,
      "Plan": 7960,
      "##tanok": 7961,
      "##iniwan": 7962,
      "##rol": 7963,
      "mangga": 7964,
      "mangrugin": 7965,
      "pagaammo": 7966,
      "##ungon": 7967,
      "idaton": 7968,
      "##iasawa": 7969,
      "taripnong": 7970,
      "tagaB": 7971,
      "makastrek": 7972,
      "America": 7973,
      "Bassa": 7974,
      "marihuana": 7975,
      "opsion": 7976,
      "mapuuran": 7977,
      "##representar": 7978,
      "##paniol": 7979,
      "Mannakabalinamin": 7980,
      "Ric": 7981,
      "Web": 7982,
      "col": 7983,
      "##tas": 7984,
      "##pili": 7985,
      "##ange": 7986,
      "naid": 7987,
      "panggedan": 7988,
      "pagin": 7989,
      "kamatis": 7990,
      "##lasat": 7991,
      "##itikit": 7992,
      "agam": 7993,
      "alagaden": 7994,
      "Kamaudiananna": 7995,
      "Dreh": 7996,
      "Fil": 7997,
      "filiste": 7998,
      "serb": 7999,
      "sungbatan": 8000,
      "sico": 8001,
      "##enep": 8002,
      "##endor": 8003,
      "##ekta": 8004,
      "##eder": 8005,
      "amma": 8006,
      "pagdak": 8007,
      "napaay": 8008,
      "kinaragsak": 8009,
      "umadu": 8010,
      "Inted": 8011,
      "siti": 8012,
      "Saanak": 8013,
      "pagili": 8014,
      "sangakab": 8015,
      "##ioneer": 8016,
      "agadadal": 8017,
      "##osias": 8018,
      "##bigbig": 8019,
      "sarsarita": 8020,
      "ehemplo": 8021,
      "Drehu": 8022,
      "AS": 8023,
      "Kabsat": 8024,
      "Lab": 8025,
      "Pam": 8026,
      "sapay": 8027,
      "##itatayo": 8028,
      "naglibas": 8029,
      "assawa": 8030,
      "##ediul": 8031,
      "Maibilang": 8032,
      "nakapag": 8033,
      "##kaldaang": 8034,
      "urnong": 8035,
      "napasnek": 8036,
      "obra": 8037,
      "levitas": 8038,
      "Tanap": 8039,
      "imperpekto": 8040,
      "90": 8041,
      "Asa": 8042,
      "Dal": 8043,
      "NPA": 8044,
      "natan": 8045,
      "##askasaba": 8046,
      "nagtaray": 8047,
      "##ektek": 8048,
      "naamammo": 8049,
      "ipapaay": 8050,
      "daong": 8051,
      "tumakder": 8052,
      "itlog": 8053,
      "panaginana": 8054,
      "tarig": 8055,
      "##ronic": 8056,
      "##awlawa": 8057,
      "##ential": 8058,
      "boluntario": 8059,
      "responsibilidad": 8060,
      "filisteos": 8061,
      "Burg": 8062,
      "Itultuloy": 8063,
      "th": 8064,
      "##kado": 8065,
      "##UG": 8066,
      "##arda": 8067,
      "##taud": 8068,
      "##alinga": 8069,
      "ipagarup": 8070,
      "##lehem": 8071,
      "##paneknek": 8072,
      "Espaniol": 8073,
      "##ope": 8074,
      "##sisinn": 8075,
      "panunotem": 8076,
      "mangammo": 8077,
      "Samaria": 8078,
      "tulbek": 8079,
      "araramidenna": 8080,
      "Santos": 8081,
      "##mittee": 8082,
      "importante": 8083,
      "##borsio": 8084,
      "napapateg": 8085,
      "josue": 8086,
      "new": 8087,
      "##fe": 8088,
      "##liwan": 8089,
      "naggapuan": 8090,
      "##ilaan": 8091,
      "mailako": 8092,
      "##ukt": 8093,
      "maam": 8094,
      "##point": 8095,
      "nalamiis": 8096,
      "agsapul": 8097,
      "kapadas": 8098,
      "maikal": 8099,
      "1914": 8100,
      "##reto": 8101,
      "dandanum": 8102,
      "kolor": 8103,
      "pulis": 8104,
      "Kikongo": 8105,
      "naynay": 8106,
      "medio": 8107,
      "nalpasen": 8108,
      "paglinglingayan": 8109,
      "Inal": 8110,
      "Kabael": 8111,
      "Th": 8112,
      "buy": 8113,
      "sapat": 8114,
      "##utibo": 8115,
      "##uummong": 8116,
      "##ht": 8117,
      "##uros": 8118,
      "##umik": 8119,
      "##itlo": 8120,
      "manong": 8121,
      "##anaganan": 8122,
      "kaung": 8123,
      "Manarawidwid": 8124,
      "Nakap": 8125,
      "ituloy": 8126,
      "##udaag": 8127,
      "site": 8128,
      "Kayatmo": 8129,
      "lumabas": 8130,
      "immayda": 8131,
      "nakalugan": 8132,
      "BANNER": 8133,
      "Kon": 8134,
      "SIN": 8135,
      "human": 8136,
      "puro": 8137,
      "sp": 8138,
      "##cash": 8139,
      "##45": 8140,
      "##umamay": 8141,
      "nagari": 8142,
      "nagunod": 8143,
      "makid": 8144,
      "##ubal": 8145,
      "nasa": 8146,
      "##ograp": 8147,
      "##itiz": 8148,
      "ngipen": 8149,
      "Salv": 8150,
      "sardam": 8151,
      "panangal": 8152,
      "mangibagbaga": 8153,
      "konseho": 8154,
      "##ustice": 8155,
      "##limed": 8156,
      "##lacion": 8157,
      "terorismo": 8158,
      "water": 8159,
      "Impalgak": 8160,
      "##ecutive": 8161,
      "Trans": 8162,
      "trahedia": 8163,
      "Sit": 8164,
      "quarantine": 8165,
      "##ain": 8166,
      "##may": 8167,
      "##uoran": 8168,
      "##ency": 8169,
      "panagip": 8170,
      "makir": 8171,
      "kompiuter": 8172,
      "agsumbangir": 8173,
      "party": 8174,
      "natna": 8175,
      "##bales": 8176,
      "kankanayon": 8177,
      "makaawat": 8178,
      "dimngeg": 8179,
      "imbagada": 8180,
      "pangngarig": 8181,
      "maammuam": 8182,
      "Toba": 8183,
      "42": 8184,
      "Bimm": 8185,
      "ilako": 8186,
      "temporario": 8187,
      "##ution": 8188,
      "##ratiko": 8189,
      "##che": 8190,
      "##aday": 8191,
      "##aip": 8192,
      "##esar": 8193,
      "##rika": 8194,
      "##uspetsa": 8195,
      "add": 8196,
      "panagpal": 8197,
      "insa": 8198,
      "##wanwan": 8199,
      "##anod": 8200,
      "nangs": 8201,
      "Ancash": 8202,
      "pangen": 8203,
      "##dayag": 8204,
      "tinedyer": 8205,
      "kuad": 8206,
      "nangngegna": 8207,
      "mangsalaknib": 8208,
      "pilid": 8209,
      "dengue": 8210,
      "Gagangay": 8211,
      "air": 8212,
      "char": 8213,
      "gandat": 8214,
      "kem": 8215,
      "rice": 8216,
      "##uentayo": 8217,
      "##nd": 8218,
      "##wit": 8219,
      "##asig": 8220,
      "##etnag": 8221,
      "##noc": 8222,
      "##ule": 8223,
      "##udingan": 8224,
      "##unaw": 8225,
      "panagtignay": 8226,
      "mangar": 8227,
      "mangimat": 8228,
      "Agas": 8229,
      "##uyaw": 8230,
      "agsasaruno": 8231,
      "##aganada": 8232,
      "##satayo": 8233,
      "ilimi": 8234,
      "pammilin": 8235,
      "ibaon": 8236,
      "##dasig": 8237,
      "Kitaenyo": 8238,
      "##ordero": 8239,
      "agkakabsat": 8240,
      "Sangalubongan": 8241,
      "##ownload": 8242,
      "amona": 8243,
      "KADAGITI": 8244,
      "Ubbing": 8245,
      "Ibaga": 8246,
      "Willi": 8247,
      "cat": 8248,
      "##uayan": 8249,
      "##wawa": 8250,
      "agdesision": 8251,
      "nagdakkel": 8252,
      "nagtrabaho": 8253,
      "nagturpos": 8254,
      "##isan": 8255,
      "director": 8256,
      "Diostayo": 8257,
      "siempre": 8258,
      "natungpal": 8259,
      "inaramidko": 8260,
      "nadaras": 8261,
      "binangon": 8262,
      "makitatayo": 8263,
      "krisis": 8264,
      "kooper": 8265,
      "mangmang": 8266,
      "##agiddan": 8267,
      "Ibagam": 8268,
      "kotse": 8269,
      "AK": 8270,
      "Du": 8271,
      "Manga": 8272,
      "Ob": 8273,
      "hel": 8274,
      "ki": 8275,
      "##imi": 8276,
      "nakatakder": 8277,
      "naipar": 8278,
      "naipasngay": 8279,
      "naipatarus": 8280,
      "##balikas": 8281,
      "Mangip": 8282,
      "Phil": 8283,
      "##eader": 8284,
      "botos": 8285,
      "check": 8286,
      "pinaltogan": 8287,
      "Adadu": 8288,
      "innalada": 8289,
      "Internet": 8290,
      "plastic": 8291,
      "titser": 8292,
      "AR": 8293,
      "Dok": 8294,
      "Lima": 8295,
      "up": 8296,
      "##dp": 8297,
      "##Cristo": 8298,
      "##anse": 8299,
      "##akayo": 8300,
      "##awar": 8301,
      "##ukog": 8302,
      "balaymi": 8303,
      "##riba": 8304,
      "pinadas": 8305,
      "salm": 8306,
      "bayrus": 8307,
      "##ugalian": 8308,
      "##ulture": 8309,
      "Indonesia": 8310,
      "##dagadag": 8311,
      "estasion": 8312,
      "natured": 8313,
      "##astes": 8314,
      "langalang": 8315,
      "kinapintas": 8316,
      "##ategoriaDagiti": 8317,
      "kaskasdi": 8318,
      "Pol": 8319,
      "glo": 8320,
      "ikararag": 8321,
      "##ayto": 8322,
      "##ental": 8323,
      "##ingak": 8324,
      "##anglo": 8325,
      "##nakayo": 8326,
      "##ild": 8327,
      "payak": 8328,
      "napat": 8329,
      "##upok": 8330,
      "kinata": 8331,
      "maak": 8332,
      "maipakit": 8333,
      "ispal": 8334,
      "##angayanna": 8335,
      "ipakaammo": 8336,
      "nagsasaruno": 8337,
      "kongresista": 8338,
      "bangka": 8339,
      "itedna": 8340,
      "kaputot": 8341,
      "luglugar": 8342,
      "65": 8343,
      "Hua": 8344,
      "Niger": 8345,
      "SAN": 8346,
      "Trin": 8347,
      "eng": 8348,
      "paay": 8349,
      "paliiw": 8350,
      "pioneer": 8351,
      "##cder": 8352,
      "##tidad": 8353,
      "##suana": 8354,
      "mangkon": 8355,
      "makannigid": 8356,
      "daytoyen": 8357,
      "##ecca": 8358,
      "agpaut": 8359,
      "Manases": 8360,
      "##aduanna": 8361,
      "insaludsod": 8362,
      "sinar": 8363,
      "literal": 8364,
      "##ervi": 8365,
      "tatangna": 8366,
      "Setiembre": 8367,
      "MAK": 8368,
      "ngan": 8369,
      "session": 8370,
      "##rang": 8371,
      "##fon": 8372,
      "##atec": 8373,
      "##ety": 8374,
      "##iday": 8375,
      "##ukag": 8376,
      "Director": 8377,
      "##apanaw": 8378,
      "kalman": 8379,
      "naruay": 8380,
      "##resenta": 8381,
      "##ganat": 8382,
      "kanal": 8383,
      "agkuna": 8384,
      "##lyn": 8385,
      "patpat": 8386,
      "##rigrigat": 8387,
      "pannakabalinna": 8388,
      "##darum": 8389,
      "ginatang": 8390,
      "##lapus": 8391,
      "Raquel": 8392,
      "House": 8393,
      "sirkito": 8394,
      "##ADALAN": 8395,
      "perman": 8396,
      "##leg": 8397,
      "##siastes": 8398,
      "##urumen": 8399,
      "##udy": 8400,
      "panagsu": 8401,
      "##vao": 8402,
      "maap": 8403,
      "kinag": 8404,
      "sumangbay": 8405,
      "pannakaipakat": 8406,
      "imbati": 8407,
      "##aduana": 8408,
      "akus": 8409,
      "bulb": 8410,
      "bukodmo": 8411,
      "elek": 8412,
      "tuladen": 8413,
      "pinansial": 8414,
      "##ulongak": 8415,
      "determinasion": 8416,
      "##abagatan": 8417,
      "Randolf": 8418,
      "Welsh": 8419,
      "Ited": 8420,
      "Lalo": 8421,
      "rit": 8422,
      "uram": 8423,
      "##lub": 8424,
      "##lapan": 8425,
      "##edad": 8426,
      "##ayog": 8427,
      "mailasin": 8428,
      "mangayat": 8429,
      "mangpat": 8430,
      "nakam": 8431,
      "##piat": 8432,
      "##ober": 8433,
      "immawat": 8434,
      "salunat": 8435,
      "sangap": 8436,
      "mangipas": 8437,
      "##sistan": 8438,
      "panagbaliw": 8439,
      "ammada": 8440,
      "Senador": 8441,
      "ramay": 8442,
      "maisalakan": 8443,
      "mensahero": 8444,
      "mariknam": 8445,
      "##rade": 8446,
      "Kapitan": 8447,
      "##clesiastes": 8448,
      "##uyugoy": 8449,
      "Naan": 8450,
      "NAP": 8451,
      "Tongan": 8452,
      "hot": 8453,
      "lit": 8454,
      "##uac": 8455,
      "##wel": 8456,
      "##IAG": 8457,
      "##alla": 8458,
      "##amaten": 8459,
      "##lid": 8460,
      "aguray": 8461,
      "##erensia": 8462,
      "##silio": 8463,
      "##ekti": 8464,
      "inumen": 8465,
      "pagkam": 8466,
      "kinama": 8467,
      "komento": 8468,
      "##patulod": 8469,
      "nabukel": 8470,
      "Chris": 8471,
      "estilo": 8472,
      "Marta": 8473,
      "ilic": 8474,
      "##erson": 8475,
      "ikagk": 8476,
      "magat": 8477,
      "##deklar": 8478,
      "rigatna": 8479,
      "##amatmat": 8480,
      "##ulagat": 8481,
      "Dakayo": 8482,
      "tungpalen": 8483,
      "sulisog": 8484,
      "isubli": 8485,
      "William": 8486,
      "Bassit": 8487,
      "Iban": 8488,
      "Rose": 8489,
      "SK": 8490,
      "Sik": 8491,
      "##for": 8492,
      "##IC": 8493,
      "##LA": 8494,
      "##zias": 8495,
      "##angl": 8496,
      "##amianan": 8497,
      "maid": 8498,
      "##uty": 8499,
      "pagtal": 8500,
      "panangukom": 8501,
      "kompleto": 8502,
      "agpangato": 8503,
      "apl": 8504,
      "##tuen": 8505,
      "##anggay": 8506,
      "##usaran": 8507,
      "##taktakder": 8508,
      "##aysayangkat": 8509,
      "dumawat": 8510,
      "##aglagipan": 8511,
      "##lista": 8512,
      "##irip": 8513,
      "dalanna": 8514,
      "tour": 8515,
      "##rebelde": 8516,
      "impalgak": 8517,
      "santuario": 8518,
      "AB": 8519,
      "Pri": 8520,
      "fe": 8521,
      "neg": 8522,
      "##vo": 8523,
      "##aima": 8524,
      "panagpat": 8525,
      "##utel": 8526,
      "##ungtong": 8527,
      "napnuan": 8528,
      "##act": 8529,
      "kinahustisia": 8530,
      "Saanka": 8531,
      "kape": 8532,
      "kamal": 8533,
      "dinamag": 8534,
      "##tinean": 8535,
      "##rical": 8536,
      "Kitaentayo": 8537,
      "JesuCristo": 8538,
      "Basaem": 8539,
      "espirit": 8540,
      "agdaldaliasat": 8541,
      "serioso": 8542,
      "Argentinean": 8543,
      "Usar": 8544,
      "do": 8545,
      "##bol": 8546,
      "##jol": 8547,
      "##aso": 8548,
      "##arungkar": 8549,
      "panawan": 8550,
      "##uri": 8551,
      "##saag": 8552,
      "kinaulbod": 8553,
      "saem": 8554,
      "##baket": 8555,
      "abaga": 8556,
      "kabsatko": 8557,
      "tulad": 8558,
      "ramut": 8559,
      "kasapulanna": 8560,
      "##kayonto": 8561,
      "espesipiko": 8562,
      "Davao": 8563,
      "Konsehal": 8564,
      "gangannaet": 8565,
      "DV": 8566,
      "P6": 8567,
      "Ryan": 8568,
      "Sel": 8569,
      "dinan": 8570,
      "##sad": 8571,
      "##tasion": 8572,
      "##iona": 8573,
      "##dagsen": 8574,
      "##wenno": 8575,
      "##artisipar": 8576,
      "##inabagatan": 8577,
      "umasping": 8578,
      "masin": 8579,
      "agtak": 8580,
      "##ship": 8581,
      "nakapasamakan": 8582,
      "katug": 8583,
      "Mangis": 8584,
      "##gipcio": 8585,
      "saclang": 8586,
      "bimmangon": 8587,
      "bagbagiyo": 8588,
      "##ULO": 8589,
      "EDISION": 8590,
      "aramaten": 8591,
      "munisipio": 8592,
      "43": 8593,
      "Cla": 8594,
      "NE": 8595,
      "pai": 8596,
      "##kl": 8597,
      "##kil": 8598,
      "##isl": 8599,
      "##ute": 8600,
      "pagsi": 8601,
      "annurot": 8602,
      "##ulou": 8603,
      "nangil": 8604,
      "pakap": 8605,
      "Arari": 8606,
      "##aragragsak": 8607,
      "palasio": 8608,
      "community": 8609,
      "bayadan": 8610,
      "##ights": 8611,
      "ngiwatna": 8612,
      "incabil": 8613,
      "taraken": 8614,
      "IDI": 8615,
      "maikasangapulo": 8616,
      "praktikal": 8617,
      "49": 8618,
      "Laban": 8619,
      "Pen": 8620,
      "Panggep": 8621,
      "nin": 8622,
      "##tiro": 8623,
      "##ulukat": 8624,
      "##iggem": 8625,
      "diyo": 8626,
      "nasdaaw": 8627,
      "##ngina": 8628,
      "masungbatan": 8629,
      "kinunak": 8630,
      "maturog": 8631,
      "namag": 8632,
      "Nasdaaw": 8633,
      "tagaC": 8634,
      "timmulong": 8635,
      "##ongam": 8636,
      "Canada": 8637,
      "calpasan": 8638,
      "panagtulnog": 8639,
      "Betlehem": 8640,
      "Boulou": 8641,
      "Tojol": 8642,
      "Naindaklan": 8643,
      "Kadagitoy": 8644,
      "naammuanna": 8645,
      "Kabiye": 8646,
      "##amalala": 8647,
      "##duaduaan": 8648,
      "Tojolabal": 8649,
      "1000": 8650,
      "Acho": 8651,
      "Eclesiastes": 8652,
      "blo": 8653,
      "bawang": 8654,
      "##rub": 8655,
      "##alub": 8656,
      "##its": 8657,
      "##saaran": 8658,
      "##oram": 8659,
      "panagpar": 8660,
      "##igno": 8661,
      "mangpak": 8662,
      "mangnamnama": 8663,
      "##apuak": 8664,
      "masa": 8665,
      "##ebla": 8666,
      "##down": 8667,
      "agsas": 8668,
      "parte": 8669,
      "tran": 8670,
      "##onald": 8671,
      "saad": 8672,
      "agbalinka": 8673,
      "##dayawan": 8674,
      "##liwliwa": 8675,
      "pund": 8676,
      "panangidownload": 8677,
      "kaaddana": 8678,
      "Gabriela": 8679,
      "Filipos": 8680,
      "Nalaka": 8681,
      "network": 8682,
      "Zacarias": 8683,
      "Acholi": 8684,
      "55": 8685,
      "Mel": 8686,
      "PO": 8687,
      "ep": 8688,
      "food": 8689,
      "ii": 8690,
      "rab": 8691,
      "##agaran": 8692,
      "agdi": 8693,
      "aglako": 8694,
      "nakir": 8695,
      "nasugatan": 8696,
      "maapit": 8697,
      "Diosmo": 8698,
      "##irmaan": 8699,
      "kalikagum": 8700,
      "##uary": 8701,
      "dakami": 8702,
      "##sity": 8703,
      "nadanon": 8704,
      "mabuteng": 8705,
      "timp": 8706,
      "nagtungpal": 8707,
      "liday": 8708,
      "agbasol": 8709,
      "papanan": 8710,
      "Exodo": 8711,
      "situtulok": 8712,
      "agdadamo": 8713,
      "sidadaan": 8714,
      "agpanunot": 8715,
      "babbalasang": 8716,
      "Esau": 8717,
      "Kangatuan": 8718,
      "TV": 8719,
      "denna": 8720,
      "rukod": 8721,
      "text": 8722,
      "##ned": 8723,
      "##arigan": 8724,
      "##airo": 8725,
      "Ann": 8726,
      "agsus": 8727,
      "pagsapulan": 8728,
      "panagkak": 8729,
      "##ezer": 8730,
      "purp": 8731,
      "ayayaten": 8732,
      "Sip": 8733,
      "hom": 8734,
      "lad": 8735,
      "van": 8736,
      "##zer": 8737,
      "##agilian": 8738,
      "##aklay": 8739,
      "##awawan": 8740,
      "##ingbingay": 8741,
      "##imdeng": 8742,
      "##raut": 8743,
      "panangi": 8744,
      "##epsep": 8745,
      "##miris": 8746,
      "nabiag": 8747,
      "##ambak": 8748,
      "##matayo": 8749,
      "ikut": 8750,
      "##annuray": 8751,
      "nagannakda": 8752,
      "tulang": 8753,
      "##atender": 8754,
      "paulo": 8755,
      "Angkel": 8756,
      "reklamo": 8757,
      "shabu": 8758,
      "Reyes": 8759,
      "Tinawen": 8760,
      "KASANO": 8761,
      "maadaltayo": 8762,
      "Burgos": 8763,
      "Pay": 8764,
      "Publi": 8765,
      "##sya": 8766,
      "##dong": 8767,
      "##unto": 8768,
      "naganda": 8769,
      "saanmi": 8770,
      "##rotek": 8771,
      "pagy": 8772,
      "kabibiag": 8773,
      "matm": 8774,
      "##adalusan": 8775,
      "Panagi": 8776,
      "bumangon": 8777,
      "minutos": 8778,
      "##rason": 8779,
      "nainaganan": 8780,
      "kriti": 8781,
      "Joel": 8782,
      "riknam": 8783,
      "##depen": 8784,
      "panagrangay": 8785,
      "##ervantes": 8786,
      "##dardaras": 8787,
      "dikay": 8788,
      "icabil": 8789,
      "##truktura": 8790,
      "unibersidad": 8791,
      "hardin": 8792,
      "Maka": 8793,
      "basi": 8794,
      "##lation": 8795,
      "##cer": 8796,
      "##aguman": 8797,
      "##ated": 8798,
      "##apus": 8799,
      "##iktad": 8800,
      "##igos": 8801,
      "saandanto": 8802,
      "mangaywan": 8803,
      "naibalud": 8804,
      "agtaray": 8805,
      "agpannuray": 8806,
      "sumsum": 8807,
      "pakakitaan": 8808,
      "nadutokan": 8809,
      "nareli": 8810,
      "##dinand": 8811,
      "kontrol": 8812,
      "Naib": 8813,
      "napaneknekan": 8814,
      "##uyob": 8815,
      "bumusor": 8816,
      "naannayas": 8817,
      "tinulongan": 8818,
      "Russia": 8819,
      "Nangip": 8820,
      "Sabbath": 8821,
      "pangngaasim": 8822,
      "Miss": 8823,
      "Mauritian": 8824,
      "natnateng": 8825,
      "Peter": 8826,
      "sers": 8827,
      "##bey": 8828,
      "##SO": 8829,
      "##TAYO": 8830,
      "##alawag": 8831,
      "##arch": 8832,
      "aggatang": 8833,
      "##unes": 8834,
      "nagtakder": 8835,
      "mangng": 8836,
      "pagbiag": 8837,
      "naulimek": 8838,
      "kadaanan": 8839,
      "India": 8840,
      "Char": 8841,
      "##ture": 8842,
      "pammalubos": 8843,
      "agkabsat": 8844,
      "##rugit": 8845,
      "palimed": 8846,
      "##isiaran": 8847,
      "nagpai": 8848,
      "2005": 8849,
      "agtaeng": 8850,
      "pornog": 8851,
      "##ayabanna": 8852,
      "Ferdinand": 8853,
      "##ulinek": 8854,
      "mannakigubat": 8855,
      "buokna": 8856,
      "pagnaedan": 8857,
      "Neh": 8858,
      "magas": 8859,
      "wan": 8860,
      "##SUR": 8861,
      "aganay": 8862,
      "##die": 8863,
      "##urangan": 8864,
      "kadu": 8865,
      "panagmula": 8866,
      "addaka": 8867,
      "##ukib": 8868,
      "naing": 8869,
      "panangiwanwan": 8870,
      "taltalon": 8871,
      "naraniag": 8872,
      "##ernor": 8873,
      "ortograpia": 8874,
      "agkurang": 8875,
      "panagbasa": 8876,
      "##raining": 8877,
      "##onomio": 8878,
      "batog": 8879,
      "maipasango": 8880,
      "##posible": 8881,
      "##uncil": 8882,
      "##apagal": 8883,
      "nabautisaran": 8884,
      "Bran": 8885,
      "bangon": 8886,
      "nur": 8887,
      "saba": 8888,
      "##amsam": 8889,
      "##uruar": 8890,
      "pagdaydayaw": 8891,
      "pagayatanna": 8892,
      "##ramraman": 8893,
      "kinaag": 8894,
      "impakitana": 8895,
      "##tuad": 8896,
      "Impas": 8897,
      "Espania": 8898,
      "ibagada": 8899,
      "##egosio": 8900,
      "##tismo": 8901,
      "maaramidan": 8902,
      "Macapagal": 8903,
      "Nagsayaat": 8904,
      "padada": 8905,
      "##ribukan": 8906,
      "pampanunoten": 8907,
      "##eddaang": 8908,
      "mugingna": 8909,
      "Kailo": 8910,
      "nagresponde": 8911,
      "sapsapul": 8912,
      "kapitolio": 8913,
      "Babai": 8914,
      "##tali": 8915,
      "##osor": 8916,
      "inum": 8917,
      "manam": 8918,
      "mangpataud": 8919,
      "##aoayan": 8920,
      "Nagsubli": 8921,
      "##endario": 8922,
      "##reso": 8923,
      "salimetmet": 8924,
      "comp": 8925,
      "pakainaig": 8926,
      "pudot": 8927,
      "Kaaduanna": 8928,
      "dipay": 8929,
      "ikkaten": 8930,
      "Puebla": 8931,
      "kakastoy": 8932,
      "lenguahe": 8933,
      "Miguel": 8934,
      "Kalinga": 8935,
      "lob": 8936,
      "ts": 8937,
      "##TC": 8938,
      "##adk": 8939,
      "##tori": 8940,
      "##ikes": 8941,
      "dies": 8942,
      "##utla": 8943,
      "nakurapay": 8944,
      "agbayag": 8945,
      "##galut": 8946,
      "##lea": 8947,
      "political": 8948,
      "palubos": 8949,
      "iket": 8950,
      "simmalog": 8951,
      "Corona": 8952,
      "darana": 8953,
      "##isterio": 8954,
      "mangyeg": 8955,
      "mainayon": 8956,
      "gatangen": 8957,
      "nadiosan": 8958,
      "inisial": 8959,
      "Alem": 8960,
      "Gina": 8961,
      "Lh": 8962,
      "Rab": 8963,
      "hurado": 8964,
      "##tud": 8965,
      "##ning": 8966,
      "##nanayon": 8967,
      "##yna": 8968,
      "##WS": 8969,
      "##anese": 8970,
      "##agdagus": 8971,
      "nagkararag": 8972,
      "##ibin": 8973,
      "napudot": 8974,
      "##acia": 8975,
      "nangpar": 8976,
      "pammakawan": 8977,
      "##allukoy": 8978,
      "tumultulong": 8979,
      "simmang": 8980,
      "dumak": 8981,
      "##eddengan": 8982,
      "##abalud": 8983,
      "karkarna": 8984,
      "sagpaminsan": 8985,
      "aglikmut": 8986,
      "Mazatec": 8987,
      "Huautla": 8988,
      "##ektiur": 8989,
      "Hong": 8990,
      "Magasin": 8991,
      "Taga": 8992,
      "familia": 8993,
      "gab": 8994,
      "iya": 8995,
      "jw": 8996,
      "lic": 8997,
      "mid": 8998,
      "out": 8999,
      "teo": 9000,
      "##vil": 9001,
      "##ced": 9002,
      "##wara": 9003,
      "##UAN": 9004,
      "##amon": 9005,
      "##eke": 9006,
      "##igian": 9007,
      "##upir": 9008,
      "##reen": 9009,
      "masik": 9010,
      "##unodan": 9011,
      "##tantan": 9012,
      "kinu": 9013,
      "##lawag": 9014,
      "arac": 9015,
      "##uyos": 9016,
      "Amangan": 9017,
      "annakko": 9018,
      "##takaw": 9019,
      "##ataripnong": 9020,
      "bumaba": 9021,
      "bumurong": 9022,
      "darat": 9023,
      "Nabigbig": 9024,
      "Karen": 9025,
      "nakemna": 9026,
      "##lack": 9027,
      "pinarsua": 9028,
      "##inakem": 9029,
      "titulo": 9030,
      "birhen": 9031,
      "imahen": 9032,
[...]
