[PAD]
[UNK]
[CLS]
[SEP]
[MASK]
!
"
#
'
(
)
,
-
.
0
1
2
3
4
5
6
7
8
9
:
?
A
B
C
D
E
F
G
H
I
J
K
L
M
N
O
P
Q
R
S
T
U
V
W
X
Y
Z
a
b
c
d
e
f
g
h
i
j
k
l
m
n
o
p
q
r
s
t
u
v
w
x
y
z
ì
ú
‘
’
“
”
…
##a
##l
##s
##t
##o
##g
##k
##m
##u
##i
##r
##n
##p
##d
##y
##b
##3
##e
##v
##c
##w
##h
##f
##j
##K
##S
##5
##1
##0
##6
##A
##N
##I
##O
##P
##G
##L
##T
##H
##q
##Y
##2
##4
##8
##V
##M
##D
##z
##B
##R
##9
##E
##7
##x
##F
##C
##W
##U
##J
##X
##Z
##Q
##ú
##ì
##an
##ti
##ag
ti
##ay
##en
iti
##na
##as
##da
##ga
##agi
##al
##ak
##ar
##in
##at
##agiti
##ang
nga
##on
##ad
##et
##ap
##am
ken
##ab
##to
dagiti
##ta
ni
##ai
##li
ag
pan
##er
##si
##di
##aw
ket
##no
##ur
##em
##ul
##es
kad
##um
##un
##ada
##aan
##ri
##toy
##us
##ayo
##eng
##el
##ud
kadagiti
##it
nag
##ina
##os
day
##ana
##is
##id
##sa
kas
##or
##ek
##nak
##eg
ad
##ing
##om
##ong
##una
##il
panag
mai
idi
##im
no
##ik
in
ta
##ip
man
##aysa
##su
##ig
##ed
##mo
saan
la
met
##ro
##ko
mang
di
##lo
pay
##tayo
##ho
##gem
##ib
##ia
##anna
am
mak
##ut
maysa
nak
##ub
pag
##ili
im
adda
##aba
##wan
daytoy
##ram
##uk
##alin
##ano
nai
##ung
##ati
laeng
##enno
nap
##up
an
wenno
##ac
##ian
Di
##ot
##va
##ku
pannak
##ayat
##apno
##ita
##eho
##asi
##ol
##aga
##re
na
##apu
##ehova
tapno
##ug
dayta
##uan
##dad
##ua
##ara
##ra
##yo
##ali
##anga
##apan
##ka
kina
##bi
panang
nas
##anda
##te
##pas
Ti
isu
kada
##la
##ulo
ma
nang
Dios
um
amin
##ng
##ok
##ona
##ep
mas
Jehova
##uma
Ngem
##awen
ngem
##ramid
##daw
##sion
##dan
##asion
##ic
##atta
Kas
##ir
kom
awan
##uno
maip
bal
is
##ani
Iti
##tan
No
##apul
##bag
##atay
dagi
##ma
gapu
##abalin
al
##asa
map
##gar
##ipud
##alak
##sur
##ari
##aya
pam
##pat
##eb
pro
agt
idiay
##adi
##po
##aram
##imm
##so
##ayan
Ad
In
si
Ag
##add
##nay
kin
##ray
##pi
Jes
##kel
##ec
Saan
##anag
##ter
kal
pas
agb
##angay
agp
An
##atan
##kuana
##sid
##lak
manipud
ap
##ags
##iag
##00
##ado
##abaen
##mi
##ulong
kab
kenkuana
##uar
Jesus
##enna
tatta
##law
ka
para
koma
sum
##oli
ip
pak
ina
##adduma
##ami
tattao
pang
##lia
dadduma
##gal
##tay
nab
babaen
Ch
Ilo
##anay
##le
ar
##tr
Bib
pagi
##bay
ay
##uy
##ton
##bo
##udno
nal
##gat
##ino
##ese
da
##tar
Biblia
imp
##ris
tao
##aay
kasta
dak
dagitoy
##tal
bab
##ao
##tu
##anto
Nag
##int
##enda
as
##lan
ditoy
##pan
##sia
mat
adu
daga
##pal
##lian
Idi
sab
##do
aldaw
tal
kar
##amak
##aro
##adagiti
aramid
##kan
##aramid
Am
Ket
##eh
##ah
mabalin
##AN
##tur
sak
ags
tawen
nagb
uray
es
Im
Is
##edi
biag
##agan
par
##kuada
##unana
##ted
kadakuada
Dagiti
##ero
bas
Adda
##uko
##unot
kayat
unay
ida
dua
nat
##og
ari
##ente
##io
Mar
Ania
Kin
##tor
maipapan
##sit
##bal
ania
##arita
##cos
##ob
##ayaw
ub
##der
##ayaat
Day
kap
##sat
##agas
##aman
##ilip
balay
##rib
##kayo
imm
tr
##nac
##abas
Ar
maik
ili
pannakai
##rud
sang
##kar
cadagiti
##anan
kadi
##awa
ita
20
ngarud
Sig
##man
##pasan
##dak
##ent
nagan
##age
aging
##udad
##ers
Man
pagilian
##he
##ubong
##angan
##uto
##ugar
##onal
##uc
##amm
##alaki
lal
##par
##uli
manen
##agsak
kani
##pay
##angr
##pak
mal
sabali
##deng
##udi
pamm
##san
nad
imb
##ammo
nar
##kat
lalaki
pin
##din
##urat
kak
##sh
tung
##ca
sadi
##rael
##ort
##angu
re
##uloy
Ilocos
anak
##eo
##sip
##ala
paset
Isu
##upay
bagi
kam
##arangay
##awat
##kam
##ursur
cas
jehova
mar
##erno
ammo
##oman
poli
##anayon
##co
##anguage
annak
##awan
pina
agingga
##umb
19
##diay
##bat
##ilang
##ten
##angg
##res
##ni
##sar
kaniak
##ch
##adu
##ult
kadagi
##gaw
##asamak
##rin
Language
go
Sign
##amb
##mat
##kas
sal
##erb
lugar
##de
masapul
kon
##agip
##integ
ketdi
##ish
##min
sin
##erbi
Nak
##igan
dan
prob
##abaho
sadiay
##gan
sanga
##av
##sidente
##uray
##usar
##ento
mab
Mai
sa
##entayo
##pet
##rek
or
##apulan
lallak
Nai
##gap
##dal
tunggal
addaan
##awag
siudad
##bierno
##las
kinuna
kan
201
##mbag
ak
##sio
Es
agbalin
##sub
##op
kenka
latta
nam
##pudno
##abi
panawen
##iw
Mal
gobierno
##yan
##od
##lem
banag
lallaki
##atang
##tak
##kami
##inas
Ta
kinunana
kasla
##tion
##adda
##ilin
Kal
##emb
##adal
pamili
##uana
##ion
##iti
##asao
ib
##apatay
##raman
inter
##adan
Pag
lubong
##ine
kuna
##abil
##sian
##arag
##nan
Kinuna
##sial
sig
mo
##urot
##bing
##TI
##nga
kalpasan
agk
##absat
Daytoy
##piri
##rug
##biag
umili
##surat
kasano
##bas
##ays
##ukod
mam
##angruna
inaramid
##ce
Na
##unga
##ken
##bak
##oy
nanga
un
##angit
##pek
Apo
##agm
dina
##ria
##pen
##akita
##nam
mapan
adi
##nal
##ateg
mangip
tallo
##teng
babai
isuna
##all
##aka
##ias
##nek
Kasano
pags
maib
##eli
pal
adad
Sur
##subli
##tuan
##ngeg
Kris
dakkel
##rik
##danto
##ungbat
##ultuloy
ik
Ab
##empo
Awan
##AG
##ura
##apa
pus
##ika
aw
Sak
##ato
tim
##agna
kai
bul
##arak
##ity
##ew
##ito
##awid
pannaka
tum
apay
ang
##usor
Chin
##per
##akit
Ni
##qu
##aliw
Nas
kadatayo
##ungpal
Mas
nasayaat
simm
Al
##ist
##day
Apay
dum
##adua
##isi
##ann
agda
##atak
ng
##atayo
Gapu
##ida
Chinese
##udso
tiempo
nags
##ya
panags
##ial
##pon
ins
Israel
pudno
TI
com
umuna
##alan
##inan
##ran
bayat
Nap
Yah
##balin
agn
Yahw
Yahweh
cada
##ula
##agus
San
##teg
idin
##udsod
opi
sim
ayat
##engan
napan
##uen
ab
##dayaw
Ma
metten
##ayy
##antay
Nupay
natay
dakes
##ubli
ubbing
##amano
##sis
##ismo
##son
makap
Pan
bay
##onto
kasapulan
##AS
##agmamano
res
##ursuro
danum
##ilipinas
dam
mann
probin
Maysa
pagar
lib
nada
saanda
aga
##angon
##ikna
##lawlaw
##men
##urok
##aran
de
Mabalin
trabaho
##sang
Um
Sw
##inn
pakai
baro
##abaw
##ata
##edia
it
##ayyem
agar
Dav
sakbay
##uyo
##dael
##alo
##reg
bukod
bar
##tin
##enyo
##ore
##osi
##EN
nagp
New
sib
nakap
bin
bak
##atulong
##th
David
kadagitoy
Adu
lim
##and
panunot
##ation
dios
##abael
napal
##atar
##ayag
##sipud
##wen
kita
Qu
nakai
gr
##gapu
##war
naimbag
linteg
nagbalin
Ken
##angrunaan
##oc
ibag
manga
##lig
##sina
dagita
##uel
nakas
kakabsat
##ubo
##aniw
ani
##tik
##ukel
##baga
pad
##apuna
pammati
##abii
##ayam
sumagmamano
##ech
##pasanna
maka
##ril
##nama
sarita
##udan
##iko
lak
kadakayo
##sab
ITI
naka
##residente
##emp
panagk
##kano
##du
panagp
kano
##liw
kenni
##AY
##araon
Mak
##alinteg
dat
##pulo
Barangay
##ubat
polis
##ela
Sim
##kkel
##ario
il
Uray
##nos
panagb
kinapudno
Mo
##ikti
##tiano
##pateg
laengen
Juan
Sal
##esti
pu
panagi
##ubos
##AL
napasamak
adipen
agsipud
##angk
isuda
ri
Saksi
Jos
##inaed
##intas
##tibo
ubing
##orm
Roman
##alem
bum
##uda
bi
pamilia
agl
##papan
kangrunaan
agtut
##ugan
agdama
may
##itan
babb
##ged
##ppat
##iktima
dis
uneg
##iac
##eddeng
maipaay
kuar
##ista
basol
##tot
##ue
aniaman
rabii
##ila
ek
##tra
cadac
##dud
City
mag
##ileg
##ensia
sag
12
bulan
isut
aramiden
##ba
##lic
##yon
min
probinsia
sao
kenc
##ras
##uteng
nasao
##rian
Kristiano
can
Pro
##pa
##abak
tulong
##ayor
itoy
dim
naan
nagannak
##ammuan
Kuna
##duk
inton
kasasa
nain
barangay
##big
Jer
##ban
##tog
annac
##kamat
##uada
##aban
##urado
##umbeng
##ulos
Si
pannakap
##ema
##ayen
##adawan
kat
Nor
sar
babbai
bassit
##ilipino
biktima
##hi
tar
News
##ungg
libro
dada
##uro
##ff
##arigat
##alip
##igsa
##asat
##ey
kencuana
gag
##eksion
##dek
##ell
##ikas
##antayo
##sik
ngata
##egun
##ver
##uba
##upo
##gnay
##ablo
##inoman
##aruno
##piritu
##uti
200
kabael
##ises
Ilokano
sango
##uat
##az
##sing
kaad
##urong
Sa
##sak
bag
##undaw
##panunot
makit
##lov
10
ngamin
##gak
11
tina
Manda
##ayatan
Slov
##we
##alek
uppat
opisial
##alog
##IT
##lik
kasasaad
##pit
israel
Nal
##umad
##ongan
##tional
##ador
taga
mismo
##ren
panangip
intero
naip
##sig
##sua
##pe
##inal
Mandarin
agraman
##sal
##se
##erbian
el
Kasta
##naig
pap
##ayang
iny
##umaduma
##don
##iso
pangg
##mon
tin
agas
##gram
bamb
##ukaw
##baliw
ben
asaw
sakit
maaw
##embre
##amin
##ayon
##uman
##ly
##osto
nati
grupo
18
##ibiag
Tr
15
##ber
##ekto
##IN
pagarigan
##rugi
Mat
Sam
##mp
##ev
##ez
kanayon
Dut
##asan
##inna
itan
sup
##undaway
car
##apati
daton
pat
sus
##risto
##sao
kong
kabsat
##eknek
##ment
panggep
##usalem
ig
##uga
##est
##udo
##sideg
##kal
Kalpasan
##engg
sit
Pas
##ayna
kum
##ego
posi
mi
idinto
kayo
##ugu
puso
##ante
##nong
##AR
makita
##dor
nadumaduma
agnanayon
##nog
mannurat
##rio
##urk
##ango
agarup
Lu
##aray
langit
mapas
en
napalabas
##mag
##tian
Kayat
rumbeng
lat
pananga
##nang
pakas
mannal
Poli
iy
##ama
##erna
mannalon
Cor
anac
##ilo
kameng
pr
##imong
##ena
rep
Serbian
Sin
##tok
mapasamak
sol
tul
Pilipinas
##nero
##era
nagl
kastoy
naaramid
##nag
##rok
pagta
Presidente
nasken
##ason
adadda
##agana
Masapul
bambanag
##uanan
saanna
naik
din
##aet
##nana
Dan
Ita
Kalpasanna
Tag
mad
##lako
##agr
daniw
##arian
Panag
##asang
dagus
##ukat
umay
Dayta
Ay
daydi
##ant
lattan
##igbig
##ric
dida
pulos
wagas
Dagi
##aon
##agl
##wa
dalan
##ayk
asideg
##dig
##uneg
##fi
##erman
nan
Heb
agtutubo
Gapuna
kenca
kaso
##ind
##iter
##itana
##bagana
##ianan
aya
##ice
mangis
diak
nagk
oras
Kina
nagt
Mang
Cy
##gip
problem
##aten
##duduma
##daydayaw
Pablo
pl
program
##dakkel
Gre
Kir
##ON
saanen
##sada
##mar
##maysa
mangp
agtultuloy
14
##AK
gundaway
taraon
daydiay
##ongo
kaaduan
##abal
##ultur
##akder
lima
##regasion
##kararag
##tek
panagbiag
##ikut
Kadagiti
##agay
##usan
nangr
##uya
sabsab
sawen
mangib
rum
##tang
##iddaw
##alaksid
##naed
ban
manag
baybay
##ensa
publi
##unod
ru
##das
##ble
##nanto
casta
nagi
##agum
kaipapan
ku
##kon
##AD
##app
##akkel
##uahe
espiritu
sil
dagidiay
teng
napateg
##aditional
##pekto
Ped
##ty
##aritaan
##otho
rason
##esotho
nangip
##uni
Ben
ur
Chit
Cyril
panagl
naananay
adadu
nupay
agta
coma
Cyrillic
Traditional
kongregasion
rabaw
Rus
##daaw
13
##hel
##000
##uyog
##tiko
kri
##AT
damag
Vigan
nangruna
Wen
##lis
rin
Az
bilang
##beng
Pang
##rig
nac
##esto
lum
##sision
##pli
##her
##usa
Jose
Jo
kuarta
##les
##tis
sasao
nalab
agtal
Pagarian
nasurok
##den
##ve
##ago
sabsabali
##bar
adal
##osa
##dision
##addaan
law
##mas
##har
##ret
Eng
##wat
Ina
bagina
##suk
##port
##ribu
bang
mait
##ebr
##mek
amm
##adalan
##ica
araramid
asawa
mangit
##lio
umiso
sac
itay
##aramat
Japan
kayatna
Ap
Map
ima
las
maaramid
##utot
imbaga
##istr
##dang
##ahili
##ding
17
Af
Sep
ink
dar
matay
tay
##wag
Nar
Turk
makatulong
Swahili
timm
##onga
Sing
As
##alubos
bu
##ating
##ker
Moises
mada
##uyot
Kab
Can
aglawlaw
mili
saludsod
##ef
##erm
##urang
lina
##nib
masak
caniac
reli
German
Nab
nasion
Imb
16
##ungtot
sangapulo
naw
##ilidad
##ideg
talaga
##unk
Hebre
Pedro
pito
lam
sel
cadacuada
Tapno
gimong
##yaman
##ons
##tro
sek
##ayangkat
##tic
lik
klas
por
pre
tur
##abla
Segun
##linteg
lin
san
gas
rup
addan
##onia
Nang
Port
mainaig
ada
pers
Sen
##rain
##pirituan
produk
##pital
Kita
nakaro
##agsen
##espirituan
dara
##apay
##get
##igh
##ligi
##fied
Ef
Ital
##alidad
namnama
##angato
##atanas
maibusor
ama
##lish
##dado
##gipto
##arang
makas
immay
##bayan
Jerusalem
Kore
##ulta
su
##ansan
##ill
sina
La
Kasla
mapag
Satanas
##duma
residente
apo
nakita
##ading
dita
Mac
inal
rikna
lengg
reb
inted
pinag
Ari
##ungar
##ket
problema
##aij
##19
##apat
pagp
naespirituan
##anggep
##erbaij
##ugi
##ASA
Azerbaij
Bul
##talinaed
agm
programa
ram
pagsasao
Par
##aammo
awanan
##arakan
gubat
Singson
##etro
Armen
Portugu
##sawa
sen
inn
sir
maikadua
sip
##tos
Tagalog
nadakamat
##ole
##ru
##ts
##non
##baan
##eknan
Portuguese
##nayon
##asideg
##org
balikas
baket
Azerbaijani
prin
##kua
##done
21
##ting
Rom
mais
awanen
suspek
bali
##ais
##illi
##pada
##vid
##ele
##omon
Ammo
Armenian
sungbat
Simpli
ul
Simplified
##uso
English
##ex
##otan
pann
Indone
##ardeng
##itak
##tika
##pania
Arab
pun
##hion
naggapu
nalak
lugan
##huan
pasamak
##hai
mensa
##imb
Anak
##suro
naib
##onan
##amp
pimm
sad
liter
##iy
##ostol
ulo
##tignay
##assit
rel
Dagitoy
Mayor
Uk
##dida
eks
Ge
bantay
asawana
Italian
pannakab
##nget
##anon
##eta
Malay
Tal
int
##tikulo
agr
##rigat
Quech
Quechua
Cre
##ked
kalsada
Iloko
Nga
Vi
##lay
##aysay
Sab
##inget
ipapatay
dandan
sinurat
##turong
Un
lengguahe
agbiag
ser
##iri
##agsakan
##usion
ing
co
dok
kor
##ugaw
##vin
##ote
Japanese
bilin
##cho
##urnos
ruangan
##apulo
##eks
##udio
ala
nakal
##panish
Ph
##ulod
Per
##agar
Russian
oper
sub
Gen
Or
Spanish
agserbi
kadagita
##emplo
##gam
bato
Gu
##20
##isin
##idd
ko
Ig
ited
agangay
Eli
dati
artikulo
##naka
padi
Kar
immuna
apostol
Co
##dic
##uth
usar
##rah
Creole
##angna
sias
Georg
##ron
at
mapapati
dadakkel
##aing
##rak
##mb
##into
##log
##asing
##yar
nagta
##pio
sik
##ular
Nam
##gay
##amento
innem
##gali
##dia
##unggona
cal
##pasamak
##dum
Bayat
##atura
##siklo
rimm
##turay
parikut
##inga
pannac
##ayaatan
Polish
Bag
kapan
##ling
##ibu
##ministr
anakna
##dis
##ukb
##raeli
Imm
kabaelan
##aglagip
kadakami
##taran
##egta
##ilia
toy
##val
##ikip
##wanda
nangato
lid
##tudi
##lawlawag
sibibiag
##antuan
nagduduma
makip
bunga
du
rik
##gana
mamati
##ea
##adto
relihion
##ddo
##pakita
##zil
##alintegan
klase
##IL
##dam
nangib
##ebu
##ikipedia
##ord
agsubli
ca
##agt
##ablaak
Korean
##araman
##rench
##ister
Pin
gayam
Go
##imat
French
##pos
kons
narigat
panagbal
##akat
##ate
eleksion
Filipinas
##uak
Maria
Israeli
inaramidna
kag
##aliiw
gob
##adaw
##ets
##api
disso
kaipapanan
dag
Cebu
Tawid
Finn
##kita
##insan
##talek
Sol
##por
kapu
24
Luc
##atian
##ruar
##adalus
soldado
##bang
Hunga
##yekto
Pilipino
panagt
##alakan
Finnish
##asaw
##ead
##parang
rigat
##imal
##ernador
kol
surat
##esta
##eral
Hungarian
pati
##AM
##onom
##rito
##ugot
##ulu
payen
##okal
Ama
pannakas
putot
##dag
bimm
##dakes
Indonesian
Wenno
reh
pir
Kinunana
Mateo
31
siak
##ridad
##toria
gayyem
##ne
asino
mangaramid
##ultura
tengnga
pagb
##unda
nail
##ubongan
##alged
##atarus
Amer
##aywan
##ess
proyekto
matalek
Manipud
##can
##ulnog
Slovak
##unkuna
Cz
##ual
Pina
cuna
##ugit
##aanna
##pl
Dutch
inaldaw
##adas
25
Arabic
Czech
##angpet
Romanian
agtalinaed
##eon
##cial
##bagatan
asinoman
##rap
22
adtoy
pagtaengan
kabayatan
agg
Greek
makai
pa
pud
##gad
##kol
anghel
Umuna
##ddog
Thai
##akar
uli
##annaet
Cristo
##asaen
puli
##aysayaat
ci
##gatan
Cro
mac
##car
##bker
panid
Norw
agassawa
##digra
Filipino
##lam
##anaw
##ormasion
produkto
Dina
agaramid
Chitonga
relasion
wen
panagadal
tayo
Kik
nalinteg
##roga
Cab
sumaruno
##lang
##ganis
opisina
Danish
agbal
Juda
est
Lit
##nap
##egian
amana
BASA
bo
##atad
karayan
##ngay
dac
##ben
Norwegian
Kur
Sum
##ayus
nais
BASAEN
##unotan
ladawan
Chic
##asinan
Ukrain
animal
Ukrainian
tan
bigat
pagt
kontra
##tral
##trabaho
Israelita
##etnam
Nati
##AP
##ANG
##enian
Saul
30
apuy
##edish
Swedish
##dda
makag
Slovenian
Croatian
maudi
Baro
##eso
##tudiante
##basa
##lubongan
##ork
Manila
Eston
##waras
Turkish
##taray
Vietnam
Hili
##erte
##usti
##gaynon
Hiligaynon
##totan
altar
Cebuano
Bra
ayan
##IS
igid
##annawag
panglak
Pangasinan
imatang
Ka
##asiw
##ID
##ry
##ump
Babaen
Alban
maaddaan
Nags
dimm
##st
Lithuan
Ok
Estonian
23
dep
sap
Lithuanian
##oran
maammuan
kabusor
Albanian
ruar
##agaz
Kinapudno
##arit
##abur
##atingga
##inum
Norte
Tim
motor
impormasion
Georgian
##aias
lab
imbilin
ipat
pagadalan
##anagan
maika
##akan
Com
kaw
##alaknib
##balay
##likan
##agasy
##lab
Malagasy
kaday
Kristo
Judio
##ella
##acob
##didato
##bangon
##alis
##land
id
##cay
gagayyem
##agazine
Marcos
sing
mangida
##legal
malaksid
##abb
##rec
sumrek
agturong
##ow
##kaw
per
Dakkel
Diak
bangk
init
##hewa
tak
Chichewa
ex
napas
droga
Solomon
kur
adayo
##ilan
nadalus
napintas
kaadu
maymaysa
gapuna
makal
panangp
##usi
nasantuan
##iit
##lim
mayor
##uratan
posible
nabayag
Kat
##AW
mensahe
epekto
So
##14
Amhar
panglakayen
Amharic
##gin
##ensi
##itay
balasang
##mula
##12
templo
Ur
reg
##arsua
##trek
lider
Bal
maawatan
##iddut
##ary
prib
prinsi
##ilis
##abako
ibaga
##asaba
nalawag
mapaspasamak
Bas
##AGI
##bek
administr
##gen
##ukua
##ungb
napigsa
david
kababalin
Para
dem
##unos
##me
##uay
agtawen
Bulga
Magazine
patay
##ros
##dom
annakda
ac
presio
nego
pab
Vietnamese
sika
##embro
##adanon
##istema
##raham
gangg
masansan
##yarwanda
Medi
NG
##aans
panangis
Kinyarwanda
##rus
##rikaans
turay
##ER
pakasaritaan
Cat
##sut
pannakabalin
Afrikaans
pada
inda
nangrugi
nagbaet
Sho
nagsubli
angin
##aut
lakay
##ugao
##tub
kararag
##ans
##und
rimmuar
report
##way
lawas
Il
##akon
akin
sica
##gari
naragsak
Ang
nakar
##igagay
ciudad
##ribuk
##bod
tagi
##atlo
##basol
tumulong
makis
sanguanan
Kinapudnona
malem
##adingit
##ramanan
##entar
##aludsod
##ingan
Kirg
Bulgarian
##top
##ite
didigra
tinapay
naba
##ukong
nangngeg
##aanda
##hiz
##hala
tabako
agtr
Sinhala
gobernador
Bet
sigud
We
Maik
Duterte
Kirghiz
ch
imbagana
##abasol
Uni
##adna
sistema
##ayatanna
Ik
simbaan
##erserbi
##ragsak
pur
Sesotho
imana
nalaing
esku
imbes
panangil
##ulongan
Canton
desision
Mi
Zulu
mari
Cantonese
Egipto
bukodna
##aykaysa
##apo
##ayawaya
nait
##ple
ketdin
kadakkel
##amat
##sardeng
sigurado
lang
siac
mangan
##vincial
##agarup
##wana
##ins
##ited
marik
##sangayan
illegal
##aig
nay
##dep
##bid
##asyon
##arus
##adayaw
Car
apag
##IA
agnaed
gum
dal
##awlaw
Papi
##ust
diay
Ins
##gatang
Philip
Papiamento
##omi
##agayan
Imp
Week
##line
dimteng
bileg
off
nata
con
pon
##errek
##usto
panagr
##omo
Sepedi
ragsak
##meng
estudiante
kaadda
St
##kasion
Tson
media
##ayab
Tsonga
to
##awagan
##gawid
##arr
##matmat
##banag
##via
##hosa
mangm
Tig
##AB
maseknan
El
Mayo
Xhosa
##ise
bat
##iel
##penna
pampanunot
nagbaetan
##10
##ono
miembro
ganggannaet
Bantay
##wi
ber
nangis
Sets
pi
##yanmar
makapag
Setswana
timek
Weekly
Myanmar
Sta
##dali
siglo
Maced
##eal
##ngato
Col
##ping
kapanunotan
##len
##isit
##erv
naganna
inna
Manong
##atur
##mata
##tad
interes
dumteng
##alam
makuna
##abah
Shona
##ach
##akay
napar
##adadael
##eggad
arm
##apaap
mangs
##ilit
arak
De
baka
jer
##wid
babassit
sibub
tuk
##agaba
##atakder
Sup
tab
##bengan
##ail
##undi
nagka
karar
##iwat
##akaammo
Imbes
Philipp
agpay
Simm
panagbalbaliw
PAN
##oso
adalan
##elan
kalpasanna
damo
talon
##ayanak
##imbag
agnana
##sam
##ripi
baet
kari
ob
##bagi
plan
##asin
imbag
199
tribu
organis
##ci
mata
Mam
annakna
CIT
Ez
##emias
bac
lokal
##muar
##inged
##saw
pakairamanan
bit
koman
Sakbay
sagut
dimo
Samuel
Roma
##amammo
org
mangted
biagna
##chool
28
baba
##za
det
op
##UM
##umento
Cen
##oan
addanto
masi
##tag
agsao
sangalubongan
##mong
gagangay
##IG
kaduana
makin
Aramid
bagas
##uka
National
nakem
##lin
nawaya
Abraham
##15
maipanggep
let
##spital
nasaysayaat
CITY
##lat
publiko
##uanna
medi
##adagi
sana
agkak
Kirundi
sadino
##iki
literatura
kasapul
karnero
Igbo
Bannawag
tatang
pagimbag
natur
ammona
##aron
Ewe
ribu
##uam
##bot
##dina
Kastoy
##aganad
adipenna
##vian
##acan
nabiit
Lib
##sional
Hebrew
asi
##lit
##ulio
##apit
##uluan
maic
daya
nabileg
pagarian
Hai
Sao
agnanaed
##akad
naisurat
ah
##lon
nataengan
agpaay
##iliste
pondo
Santo
##takder
##OV
##aden
##AGITI
mapu
ayayat
##ast
linaon
Pres
Amin
Bin
Enero
##ingay
Pudno
pili
##sangsangayan
Dom
##peta
NGA
Cam
Lesotho
##utos
##gapuan
##isita
##ustisia
Manang
##ican
##ontra
##igid
agpada
##rikna
Nort
##hia
##ususar
agbas
paltog
simrek
Hun
Kom
##ye
##rinya
##liwa
Tigrinya
pungtot
segun
##ehio
situ
pagk
nalaka
##ulag
auto
ba
bib
mangb
politika
langa
mamm
##deb
##cayo
##aano
##utan
nakab
resulta
mula
##lac
##kis
##adayo
##rial
nalabit
##aybay
nakitana
ngiwat
serbi
##adasan
maikatlo
Salmo
yan
nagbal
##utisar
balitok
00
##urnong
##anglaw
##aim
##birok
Linga
Yor
mayat
nasi
##11
amianan
##uganda
rek
##tultuloy
aramidem
##OR
ind
Lingala
ter
Jona
panangmatmat
motorsiklo
##put
Kwan
situasion
##go
##eto
akem
Cabugao
ph
##olusion
##bision
masakbayan
pudpudno
prinsipio
##ungbatan
maibilang
##abit
Ditoy
kinap
plano
bina
##bon
addang
barukong
##tong
##enmi
ospital
direk
##agasin
Ing
##ampanunot
##erd
Fi
Nah
ra
##rad
kinab
##icol
puon
Nep
kunana
addada
##ha
kinunada
##amilia
naasaw
kandidato
kimm
##asawa
##ungs
##aniel
Efik
##unt
##aganan
##apped
27
ikan
Prov
##17
presidente
Bo
##ramat
isun
aglalo
##ripisio
##imp
Brazil
talna
##abain
gasut
Haitian
26
##canto
agip
sibubukel
pum
Sr
##net
##isa
##uyb
Yoruba
##apaay
saantayo
##tugaw
##empre
dist
##dios
makat
##ugian
nagtaud
kil
mangt
ne
##13
panagayat
##andon
bagbagi
Philippine
##umbaba
naasawaan
lana
agpa
minister
##tation
##anggas
ir
##art
Malaksid
pinal
salaysay
Nasken
bukodda
##tubre
lap
Amm
bagim
Job
Lat
juda
ngato
baboy
##aldaw
lasag
Fer
##dar
##erto
doktor
Ndeb
US
##pia
##UL
bagyo
Ndebele
##nurot
##onian
##utb
##garud
##0000
papadi
##agumaan
administrasion
Os
##atpateg
sanik
Ip
##titu
Twi
##ement
pamiliana
kailian
Union
Ala
##iwan
umno
##alna
Panang
Tam
##rado
kultura
##iluba
##unidad
Adad
##abay
Imbaga
Ngarud
To
##kanto
maited
bangir
Gal
##ibus
##pasngay
masarakan
kadagidiay
Oktubre
##mut
Boli
##angkes
##daliasat
Dim
##mer
##siembre
##trol
nagkauna
sirib
akti
napag
personal
Macedonian
ED
pulo
##onda
##ulin
##ima
##ealth
Uz
##tipon
##ost
##reb
##annatayo
gina
##bin
##akaw
##unay
##tayon
Hebreo
Wikipedia
##16
##alag
##uio
##sirib
inana
naisangsangayan
bendision
Jacob
##udian
dik
##kit
##tiembre
##lina
##entro
##estiga
##ukom
Disiembre
##tutop
papan
##ecto
##kasdaaw
##ard
And
##pec
##ingo
29
##kay
##ico
alas
respon
Nad
##lasiw
##lilaw
##lot
Marso
gal
NI
Napan
##ngal
##nline
##ilian
##laon
nangp
Hunio
Lev
##ulad
Hulio
maki
##illion
Lucas
Sias
##idad
##abilonia
##baknang
nakapar
laksid
Ex
Rep
naudi
kayatmo
Ac
Candon
Lubong
##ji
##angp
pinar
Abril
cab
##igubat
masang
##abileg
tarigagay
##ellaat
Ed
##inak
panangib
##angran
##unak
##zi
##UR
##apek
##tiago
##akpak
biang
Elias
Ic
inik
agserserbi
Kabayatanna
Pun
##agid
##awi
nakat
##kasapulan
##erdote
li
##dian
kunada
nu
##ulan
tol
agib
##laka
Pal
##adadu
Jesu
militar
ali
##met
##awatan
balakad
lawag
dakdakkel
##lemmeng
krimen
##18
pinan
Paskua
Adan
naal
Bar
tit
##erial
mangik
padto
Kor
dek
##dil
kinadakes
serbisio
##ururay
##elo
##anao
bus
##ES
panna
##awanan
emp
suel
##enti
moises
Catalan
##gi
##anyo
##akas
##likar
parti
Talaga
Guar
pis
##ilb
mannak
##aliwan
ipakita
adalanna
##awis
##adio
ipaay
##udua
Nobi
tawid
##tao
##anam
naited
##erbio
term
##elaan
panagbalin
pannakat
pros
biddut
##UN
##igurado
Babilonia
Kap
Reg
##gy
##zon
##ens
##unaan
ditay
##sarita
##dada
##uatl
agtrabaho
Ba
pres
##ennak
agpat
##ospital
##ebrero
Nahuatl
Mag
##oni
didios
gam
##yu
##bir
Santiago
supor
##bog
##elandic
Icelandic
##sek
##IO
mangy
2018
Br
his
saanto
dadael
Tatar
##akawan
##indi
##ukan
agturay
rehion
Ga
##zo
##ennanto
##aris
##sil
##report
##sog
kayatda
Siak
siasinoman
Val
pasdek
##esis
##cy
manang
police
nangabak
##toc
##isok
##bidad
Agosto
Fran
sursur
##ash
agpas
##iklikan
lalo
Baguio
kaputotan
makagapu
aggapu
parsua
balayda
nalatak
politiko
duapulo
bir
limm
##indeg
selpon
mul
Pebrero
kay
maawat
pac
Nobiembre
##urak
Santa
amammo
Iny
organisasion
Kanayon
abagatan
num
##aymaysa
##ilion
daras
##mal
kakadu
mangipakita
##abawi
##ete
maiy
rummuar
pagimbagan
Daniel
mausar
mapar
##antoan
##talon
usaren
Kaz
mil
##ebkas
adipenmo
##eknekan
Tel
agindeg
saanmo
##istro
Kayatna
nalpas
cadacayo
nabayagen
King
Tz
sakup
sid
##rep
##ulimek
siled
tap
##kab
##uron
kitaen
ic
##luen
##atayan
kayatko
milion
Aqu
##aud
##lar
kadaw
##opa
Sanga
bulong
##rac
##nment
##apuy
tulag
innal
did
sh
##ose
##tero
ayup
##daklan
porsi
##inep
##suaan
panangid
##pasdek
##uyu
Nagbalin
buyot
us
##vi
##aknang
panagg
makik
nakip
sumaganad
paka
##namnama
mangipaay
pannakaammo
Sina
##tp
##apada
naayat
aktibidad
West
##iahe
Bolivia
mati
pet
##des
##aps
Isaias
Dak
kiddaw
##dadael
nagr
mangil
pagg
##patarus
##bong
##akto
##ebo
##aayayo
##maneknek
Pannak
dip
karaman
walo
##itian
puesto
sam
##sem
kadua
##alagip
pasurot
agpayso
masanguanan
Saanen
Dam
lup
st
##ean
##ja
##uding
Kan
Nat
##IP
##awda
pagbal
karbengan
Gov
Mari
##onde
tungpal
buis
pop
##atiddog
kamp
Kikuyu
##olo
makar
##upan
##akh
padas
sangoanan
Police
Namarsua
Pid
##tongo
##apas
##ununa
##ngan
##ungpalan
porsiento
##abat
##use
agsapa
pannakais
sugat
Malayalam
##win
##arm
Bis
Dua
kinabaknang
Kasuratan
mapukaw
nadagsen
Maikadua
##ulasion
##ongres
##dawat
ridaw
Corinto
jo
##ee
##ustr
ilina
198
Guarani
teks
##ner
##tip
##apon
ibagbaga
Oromo
maikontra
##anantongo
rupa
Sranantongo
Kazakh
Linteg
PAG
Silo
##angar
Ram
##usp
pimmanaw
##kom
adun
##edda
##bension
banbanag
Latvian
##meg
##utor
##setian
Ossetian
Hall
Ibag
##30
##ze
##ect
matana
##ukoy
DAGITI
Ro
insurat
Ezek
##absing
##adak
kasayaatan
##ikal
Anian
Nalawag
##air
laud
material
Apoc
##ilisteo
Cib
##ence
##unan
##usay
##emba
panak
Inter
##umbuka
Chitumbuka
pirak
##garilio
Dr
##oral
##ingga
ballasiw
##dalus
##ocial
##agp
amangan
##agasut
Cibemba
##annak
##unggal
arapaap
maitutop
Luo
sacerdote
bur
##kanna
##lohia
makab
Vic
##agda
##sup
kinalinteg
Bicol
Cagayan
puman
##jian
##sursuro
nangaramid
persona
##ld
##ear
panagm
China
##bassit
Naala
Me
##daar
##anok
##undu
Malt
Uzbek
##zema
eksper
Fijian
Punj
Maltese
naurnos
naglabas
Ah
Con
Nzema
suli
##oria
##cal
##ator
##amay
kaadd
Punjabi
##yonto
kaarr
trabah
##dukasion
Ak
##ladawan
##ungan
masirib
Nepali
##err
##asiar
##angitan
agtuturay
ekonom
gin
lamis
Proverbio
kadawyan
##tna
##uad
##ulok
aramidenna
Telugu
tudo
##edked
napudno
##resi
##que
mannursuro
Panunot
negosio
surot
##hero
##DA
pagayatan
pangulo
Basaen
II
abay
##ki
##imed
kinas
##imbab
AG
ipalubos
marikna
##lementar
urnos
kadakkelan
Min
magasin
kabar
pannakaip
##akitana
##apektaran
tag
##ulap
isyu
nanang
ahensia
##EM
##igrigat
##balud
Genesis
sem
makunkuna
napno
kukua
##daton
kabagi
impakita
siasino
##bilidad
makan
isla
castoy
pakab
narugit
tinawen
dinto
Kitaen
autoridad
##imbabwe
Jr
Zimbabwe
##lag
##edo
propeta
##hen
##dalan
##itayo
##sigentayo
Sec
lagip
pagbalin
kinak
balayna
eskuelaan
Edi
Filisteo
##ven
##olbar
Kasapulan
aramidentayo
##iting
##gado
indi
aginggana
Katoli
Em
lug
##rip
##elde
Agp
##agrap
##ION
##ulbod
karne
##nuay
Ags
##ngaasi
##tam
panagserbi
40
drug
##TA
##urog
korte
purok
##anes
##tura
nadadael
##adpada
##sac
nangisit
Hindi
##anak
##adag
##sias
##aragawag
sada
##IB
Nalabit
madadael
Aquino
Pidgin
IS
kalintegan
##lap
maar
Eva
Ri
##21
##tawen
Joh
##25
naammuan
##rim
##royo
napili
Pac
##ersa
mangngeg
napapatay
sangk
##hern
teksto
Off
##eri
pribado
##ingna
Adtoy
Ink
##siante
##tikal
papel
##aria
inc
maitunos
##uet
nateng
imbaon
Naimbag
Nain
##vernment
##ikasion
kompania
kabsatna
edad
ipas
##oro
##uktal
##dex
##peto
dumngeg
##ormal
po
##asim
##amiris
##ayaway
kapit
nakaparsuaan
bukel
ht
bagik
2017
Central
##cle
##ates
##ababa
##emo
##ingg
##arias
pammaneknek
##tap
##baro
##TO
##ongna
##ANN
United
giti
##angbay
agsurat
mangpar
##hop
offic
distrito
Silozi
##aragsak
##urg
malagip
##amba
pannakaawat
jerusalem
##IGAN
Kingdom
Kanna
##mara
tignay
##iber
napanglaw
##angatang
##cia
nagsao
##rob
pagay
##raem
Inton
Siasino
hen
ro
mairaman
##opia
makaammo
nabati
##jamin
##aksion
##arsar
##inam
kinam
##uraao
Curaao
Rey
high
agbuteng
publikasion
Persian
50
##22
##istaan
aso
buk
radio
##mit
##aykayat
Biag
##neg
anian
main
Siempre
Aymara
amang
##ukkaw
##iran
Bat
Kika
Mada
Metro
cap
tek
Timot
Kikaonde
Pre
##mano
##nas
ammok
##lasinan
sirmata
##asping
##otna
##ataud
ulidan
senador
Read
##tiddog
##alaw
nagbay
##ordan
egipto
##alda
ipatpateg
Domingo
em
##pu
##arig
##angag
##lasin
##elio
terito
##yog
apit
Karayan
http
Sav
mun
##supor
agbasa
sigun
pagalag
##ategoria
kuarto
termino
dika
inb
imah
maipar
espe
basta
Bri
so
agin
##idos
##obra
Ngamin
Tin
##end
panagtalek
##amiis
kanito
Bro
guar
##US
##asaruno
##laklako
Kurdi
Eur
Luganda
##amnama
##acto
komunidad
VIGAN
##ellano
##labes
mug
##agk
naawat
unayen
deng
kalak
##ism
araramiden
lamisaan
Kurdish
##wayat
##tain
nagbas
kapadasan
maminsan
bangkay
gar
suk
Kai
lev
more
##apdan
napukaw
##angatuan
panangs
Sango
hustisia
pumanaw
##taan
sirok
ababa
kaipapananna
##emi
##ulotan
##truk
anakmo
Unidos
Tamil
Mab
##til
panagdaydayaw
2016
emple
Mapan
##tngato
maikkan
Estad
Jud
KEN
isip
##aknap
##aira
Ca
pig
##24
##angngeg
##manji
Kurmanji
South
Tsh
kinar
Noe
##indanao
puraw
Rod
##tel
##anget
kadin
Impak
##silo
nakit
nakis
apaman
Maya
land
wayawaya
##karo
##unir
Agingga
tanem
Gri
nagg
dayaw
##ungng
##okan
##warnak
##antayan
pinili
##oper
##aminsan
Ingles
##noy
##umen
mangl
nakad
nasantoan
##patakder
Idiay
natibker
##23
maliklikan
##UMIL
le
##aplikar
##amen
##ipatan
natalged
pagsayaatan
##unggoy
Timoteo
kellaat
##tab
##neng
##aii
kappia
##sidad
kinaawan
##rayber
Ra
##aiso
##uluen
maipas
nababa
##tuat
ibagam
rebbeng
Isa
sy
##eda
##IK
##aren
agay
##inasion
nabigbig
##omb
##unam
pusona
##cano
inusar
##ipnget
dakayo
##hon
mangid
agpal
Estados
##onio
inawat
197
nagsayaat
Griego
Tok
##ora
Law
Laglagip
del
##han
##ende
##libas
panangit
Savellano
GUMIL
station
tel
wikipedia
##ional
agkararag
##ipat
simmungbat
Josue
national
##erra
##reh
Espiritu
##alipsis
Septiembre
33
social
Nagp
##payso
kanta
##ungad
Cal
pil
te
##againep
panangt
isuamin
paraangan
COV
##rapia
kadayta
Kadi
nari
##uon
##ansa
kalding
gunggona
##etmet
##itna
##ungkar
panangik
Saanda
Hospital
mayan
agdaydayaw
Nasayaat
dandani
##lamo
Apocalipsis
Waray
##kalintegan
##kuyog
Jeremias
ministerio
Tar
##did
##ulog
##utbuteng
Dum
##ces
##tib
nauneg
maikkat
##siplina
##mun
maris
2019
regular
##agaw
##ometro
makaayayo
naangay
nasapa
pagilasinan
##ehal
##utokan
##rigo
Gun
##fic
##jo
komun
##surot
Innayon
bibig
Online
##uor
panagungar
masursuro
title
Haw
drayber
edukasion
##duc
panagtak
buok
Sabali
tolda
ipapan
partido
Patarus
##eter
naiy
balud
balbalay
provincial
Amianan
httpsilo
COVID
Congo
##tes
##anmi
Nakas
turista
operasion
estado
##ngalap
Da
Mad
##tri
##50
##sual
maal
##annurot
Samoan
Luzon
numero
pagbaludan
##Waray
agd
##otzil
##angad
alaldaw
biagda
##eroris
Sigurado
kampania
inaramidda
lasud
Tzotzil
##iro
##utar
agsasao
##tante
nakaskasdaaw
WarayWaray
100
Karaman
tagt
##aniag
agpar
Ipakita
saanka
kinaman
kararua
php
John
School
bug
##adem
metro
##uktan
nadangkes
##annuar
probinsial
ammom
##cam
##asap
##damag
mangg
inauna
##alaing
Kitaem
top
Arroyo
2012
2014
##UD
##ayad
##enta
nagpak
imam
##angadang
194
panunotna
##dagup
##windex
buteng
##engnga
nangted
impor
ibilang
awaten
maawagan
gumatang
Faraon
Kam
Sh
daan
listaan
##Kristo
##udil
pammadayaw
Makap
mammadto
Kongo
##nulong
magunod
Tah
Tata
bunggoy
saanak
##wanawanan
benep
populasion
laglagip
##daras
##ters
2013
##basar
sanikua
Nan
Tan
ugali
##konto
##altog
##uten
##alio
nacion
agbasbasa
Kannada
Aaron
annong
kakabsatna
Ha
##awlawag
JesuKristo
##ood
##aduan
maigapu
pannakal
##palagip
pagtaeng
pul
kinapateg
##jar
manok
pagan
reaksion
operation
bot
kilo
##pedia
##dem
##sim
##asio
magna
teroris
##WAN
##esna
##inar
konsi
Asino
##asar
##etget
maikari
Gab
mangngalap
ngay
Kons
pisi
##tina
##ames
##eppas
kombension
awanto
Agbalin
##umo
##adamag
##ipnong
pakaammo
kagudua
nailangitan
kilometro
tarak
##wis
##ubon
##bio
dagidi
mamag
orgwindex
ekonomia
Dagus
kaano
##uter
sentro
##wn
##ubok
##agpat
##ait
##ummong
##lakuan
##petsa
Pagwanawanan
##andat
Mapapati
##ks
sangagasut
pamiliada
nangatngato
pader
suporta
Dika
sur
santo
##usb
armas
ngaruden
kunam
intedna
kapitulo
##ayu
##ales
##ide
##ukodan
baketna
pagalagadan
Idin
Tu
agawid
katulong
##28
##ngeddeng
gung
##tana
##altal
##awang
##itas
panguluen
##tension
puersa
##ueva
Siudad
Korte
En
cadagi
##bilang
##ilitan
##ungasing
##abassit
##elleng
##uyogen
nagbayag
35
utang
##cio
##agim
naglaon
dica
##utang
nasinged
naminsan
Provincial
makipag
indust
sueldo
lo
##was
Maipapan
Aldaw
empleado
dengg
pri
##aita
##illo
##aca
pannakadadael
nabal
Masansan
pannakabagi
COVID19
##cto
##enn
##aid
##angrugi
##ING
kadaytoy
nagbasol
Sarita
Tunggal
utek
##ukay
##raysi
dackel
Asia
##nangruna
isub
Urdu
pannakad
nangit
bala
Agl
##AYO
Tahitian
##raysikel
taw
##uem
##bis
##IAL
##agro
##itkita
agtulnog
Nagk
uniber
Fernan
tangatang
##uot
agsi
balo
padana
nagtultuloy
##siklopedia
pateg
##togan
agkasapulan
Island
##care
marigatan
Hawaii
rec
mangrugi
##ukatan
##ection
taber
Northern
Mr
##ene
Mann
malapdan
trabahador
Presid
34
camp
musi
##dit
anakko
Katoliko
##rica
napak
##tep
panunoten
likudan
sapasap
Timm
##ich
2015
simmangpet
##saludsod
ensiklopedia
Panunotem
ilo
kua
##ser
##talkan
panam
mano
panangasaba
tawenen
mangibaga
kunak
MA
dawat
##kanda
##pati
##otec
##pataud
##inoy
aksidente
itultuloy
##rict
##endision
##koy
##ukp
kinatao
agparang
asawam
makatawen
Dep
ditan
seg
##maan
##akter
Green
##conto
tienda
##esa
##iman
Daydiay
##estig
##pot
##ds
##uran
nakak
naimp
Malawi
nagserbi
mannaniw
##ther
Tina
se
##lama
##PA
##ulon
##imaan
##imetmet
nob
##tista
punto
##ge
##ger
##udot
##panaw
Sigun
situt
##AWAN
indibid
##daulo
panagdayaw
##annawan
pagteng
pannakik
Turkmen
Daga
Pat
##tado
##anges
##ull
##riing
nagparang
##eka
kapat
Brgy
Ki
rugi
##apito
agis
taaw
##ucod
Malagip
simple
##aisuna
armada
pisikal
sapul
maipat
##tured
pammapatay
Napateg
Moore
des
##hol
Venda
traysikel
##dagus
##ome
pasalip
##aganetget
natak
##abbaba
ususar
Wol
##abagi
##eba
parapo
pinatay
Iluko
It
##asab
nagna
nagtalinaed
awat
##sukisok
##banghe
proseso
Pisin
buya
layus
dayag
##illa
ipar
karakter
##ambantayan
rupana
##illit
##elebr
pagannurot
##unget
napanda
ammoda
ulep
pribil
Le
buyb
##agbaga
##ert
panagaramid
##posi
nabaknang
tradi
##ext
##titusion
kaarrub
##enso
panagpampanunot
nakitada
##elebision
bol
##yama
##akem
##abet
##abuso
panangida
umawat
pangngeddeng
aramidenda
##ukot
abut
mangabak
makitam
inkeddeng
Baybay
mon
##ungaw
##orld
Int
##lanad
##kanta
tawenna
196
naindaklan
Gujar
##ORIAL
galad
Hausa
Liter
Pati
cac
##say
##pir
saanko
##elik
##ubosan
makitana
##rector
Kwanyama
Gujarati
Rumbeng
Zap
kuan
ya
##ustral
saandan
##annad
nalawa
Supr
Lao
NA
Sika
sis
##boam
dakulap
mabasa
agbalinto
##fr
##nakami
panagsurat
nakakita
nasursur
Zapotec
May
kuk
nayon
##tir
nakitak
##atiko
##irus
pastor
agbibiag
impaay
##turpos
Luval
Luvale
sipud
##enio
nakag
##oldid
biagko
kampo
tulongan
Wolaita
Mot
##amili
agtignay
##ulagan
##danon
sikigan
Lakay
Pil
bukb
telebision
##MA
##osan
##ubing
pangnga
##ammati
Insungbat
Republi
32
NO
Narigat
beddeng
agururay
##sita
amak
komer
prof
Saanna
ipa
##uyon
impluen
Addaan
Marat
ikkat
agdada
tengng
EDIT
capu
##bor
##aybayan
##oma
maadda
##ick
pagiwarnak
bagida
carar
mangisursuro
kakaduana
Ezekiel
indibidual
EDITORIAL
##unton
naaddaan
##ultana
2010
##yanak
positibo
AD
##pad
anakda
riribuk
natural
##aget
##ideo
##edan
##antangay
##own
Bislama
##pani
##utna
impas
pinap
likud
##ustrasion
Mindanao
kudil
##rum
##asit
nagturong
naipal
sabong
biagtayo
negosiante
petsa
Basa
million
wat
pagiliantayo
Bengali
Africa
isunto
Mis
Ot
cayo
pasi
moder
ibagbag
selebr
porma
bituen
##amo
##sir
##epe
##ruz
inggana
##ungsot
Marathi
autor
##bur
##bit
##sukat
nainkalintegan
ulona
##dumduma
##rambak
##obre
benneg
nanipud
kampilan
##resiar
uni
##rih
##ungpar
Diablo
Maudi
pannakapapatay
Benjamin
##tapatta
##mul
##eer
##tit
impal
##untario
Levita
Agar
Cris
Sir
##kul
##kri
##uyod
mision
Hapon
tawa
ung
##pes
dicay
sumurot
##karga
Makatulong
##baon
linia
kid
##ft
agrik
##inaw
##tinnag
limit
kitaem
panagin
##pleto
##estigasion
Mong
##ET
##anac
panagusar
napulotan
##andar
matungpal
trans
##kasaba
Jonatan
Batak
##kukua
##35
##erasion
Ester
##tine
naibatay
Adadda
Itoy
Lo
##lad
impat
siam
##ogan
Tallo
dekada
Office
Glo
dusa
web
##sep
##gatibo
##ikagum
pannakis
nainget
Mannak
patien
Sumagmamano
Jeh
sec
##uv
malpas
kolehio
krus
##tila
##saad
makig
kontro
Paset
urbon
Tawen
buyogen
plas
##lara
##sor
nagbiag
##ipen
##ennatayo
Aruba
##desision
##appia
determ
##aldawan
ID
billit
##ngar
##abot
##awas
##sango
Tuval
45
cen
##tiing
##galo
##unas
##olan
37
Iso
Pags
fi
sc
##kap
paniri
##uklan
##icip
imper
##ultulong
ikkan
away
Simbaan
ilustrasion
Sad
amo
mabalinmo
bakuna
Austral
gatad
##ade
##itam
nangnangruna
umasideg
agtar
##dengngeg
awag
lakayna
responsab
##rihinal
Kadagi
gakat
mangi
mangasaba
nangibaon
lapayag
gro
##sana
##ues
##nakkel
naamm
nasarakan
mangidadaulo
gang
##salom
madama
KAD
Mano
Pa
##uas
##rup
##waragawag
saanyo
Isuda
##kamen
##gedan
pagannurotan
Mongoli
AN
Dang
ebid
husto
##yal
##angir
nagti
nagaramid
nakatulong
##endar
panggepna
Nabayag
sipnget
Isoko
Sar
loc
##yam
##ck
##wagan
##iger
Natay
nagadu
mail
maikan
agpatingga
##ribati
agnagan
lames
seksual
dacayo
letang
milagro
tiendaan
cuc
##dy
##ines
##usk
Tuvaluan
KAS
##abel
##unc
nagnaed
ann
kinamat
nangik
Anton
##laksid
##tarak
immasideg
##dill
legal
##kana
##urapay
##enguet
kakaisuna
##angrunaanna
pakaib
##stem
Kiribati
Berna
Her
agap
gat
##aginayon
pangal
daytay
Ani
parbangon
saul
Awanen
libre
silaw
kasapulanda
histo
Ndon
##uo
##ayatna
mapa
##utok
Nasurok
kabarbaro
Ndonga
Reb
##tia
##apsion
panagturay
kaaldawan
##rugin
demonio
Europa
Gabri
pribilehio
pigsa
##bati
##alli
panagsi
panagraem
Tiv
##bolo
eksperto
Kiluba
edi
##mus
##fer
##ikano
Addan
##pektibo
Mamati
Kwangali
papatay
##mis
##uotan
##yeg
##asna
##ampan
##uban
Anti
basura
arig
##angged
awis
simmaruno
agararamid
##uniang
balitoc
##banghelio
##ior
intay
##ley
##estival
subbot
direksion
Tshiluba
##agimongan
Cruz
##paay
##angib
##one
##etela
kaunaan
karit
2011
##bingay
tallopulo
personali
Bak
kaykayat
orihinal
sursuro
kinaimbag
##umaud
agtalek
Imbag
mabigbig
bayad
Mesias
panirigan
##yn
##endanto
##orn
##acder
nausar
maadal
estoria
resultana
panagimb
##lintegan
kaaduanna
buklen
##suporta
Ipak
OF
##adona
naipas
Pinag
guardia
Otetela
Kabi
Nanga
P1
tugaw
##vers
##kuan
##olisan
ikabil
##agragsak
##ayawayaan
Pu
bos
##isio
panungpalan
isem
Insurat
##quel
Umb
piesta
##ongreso
Kis
bise
##let
##iang
pannakak
sangsang
Naammuan
barko
##liseo
topiko
botante
Cas
Se
kunkuna
nayanak
school
##uok
##atna
##ungdo
##ative
##biit
mapat
kallabes
kabambantayan
##landic
Greenlandic
P5
dig
work
##ember
Inaramid
pasiente
Mongolian
Ros
pe
##kabil
##OT
##UB
##awes
##orre
kabak
Chav
ayayam
##utob
##AYS
General
Fernando
ebidensia
Jordan
Kongreso
basaen
bisita
gatang
##usig
##ini
agti
mangal
##utak
maragsakan
Naragsak
North
bagbagida
Dimo
Filip
##uis
##29
##esku
##rit
nailian
nairaman
##olf
arte
kapitan
panagkaykaysa
kabaelanna
rebelde
Ammok
ulbod
Anakna
OFW
Dadduma
##aimbag
##libak
##urt
Ilocano
##iwar
mangala
detal
negatibo
Islands
36
Benguet
Dist
Tum
##uz
##abag
pannakip
Imbagana
Senado
dokumento
##langit
##uangay
manmano
makakita
##dadanes
mapapatay
tanap
Motu
Rob
Tet
rang
##site
mangpas
Kastila
agpapada
kapolisan
lugarda
pusom
##annuat
riknana
##ower
industria
Umbundu
Ban
datayo
magm
##asaritaan
##apak
##abuno
##araem
umdas
Swati
2000
Nanang
gunglo
ide
men
str
ug
##zal
##awna
maamm
masigurado
##dillera
war
##27
##unann
kinal
Agtultuloy
marigrigat
##likud
lupot
Ale
Dili
Vice
##apag
kakas
kunaen
entero
nagkuna
##oda
##dua
##AAN
##GU
##parit
38
##aset
panga
##ungt
##eph
government
peggad
##mmo
##34
##urod
##tansia
gapuanan
narik
##kasar
kontr
atap
cabsat
gannuat
pen
##each
##ande
agkar
agduduma
##ulto
##laag
kaatiddog
asno
##ulit
Abra
gap
tang
tema
##monto
##nes
panagdaliasat
palawag
kinapudnona
naipablaak
sitat
Mix
Fr
Laz
Sem
maw
##yer
##nad
##usuan
kalgaw
##ristian
bagitayo
##bere
Ngabere
##umpis
didiosen
Bi
Tob
tali
nagsurat
##atayab
nabas
Naka
##innaawatan
Bagyo
Makit
PR
Re
##ke
##deg
##ungd
##ree
malipatan
Nakar
Taj
agadal
Umay
American
##pecial
At
har
ngatan
##alakad
ipal
nagbalinen
naikkan
mangmangged
Dangme
agaw
bisin
madi
##uong
##ayaban
##kog
amam
inyeg
Faris
Itay
mina
oc
##bantay
##olina
nababbaba
Chi
pammaltog
##itik
natayen
##udiananna
kalakian
##ungngo
##unannag
Mex
Ven
kaan
leon
##agikua
appo
##bayad
kawes
sili
video
##ler
##26
##arso
paglintegan
##ukon
isyo
##gatanna
espiri
dinakamat
madlaw
dagup
mangidaulo
Bethel
Abi
Kunana
Pak
ero
##leta
##ses
##uadan
##vacan
##fa
##awit
##isem
kaskas
##arigatan
Impal
Isth
maibatay
solusion
kinamanag
caputotan
Fariseo
Isthmus
##naw
##teres
pirac
Dis
##omba
nair
kayattayo
##alakniban
pasa
##Dagiti
##akup
##lib
nagawid
panagti
panagasawa
apok
arban
matam
agmaymaysa
pannaca
innalana
##uktalan
pagtaenganda
moderno
bok
##lor
##ject
##ases
agc
##unno
kinad
kabangib
##pakat
##allasiw
Luis
timmakder
Suprema
Gar
##CO
##national
agusar
awit
##ranta
abilidad
inyawat
60
Kada
Sag
aram
jacob
oto
makina
pagnaed
dumanon
Kayatko
kopia
##MO
##tive
nagres
mangir
disiplina
##ungo
sidada
ibagak
nalaklaka
interesado
lugl
muging
Mon
Nueva
Ruth
ping
##alon
##inado
##ikar
##nayas
asin
parabur
##ilangen
kanen
pakaseknan
rinibu
##rato
##vel
##FA
##ukawen
##atis
nalabaga
PANAG
tagtagainep
tawtawen
Leon
Sadi
##ance
##aregta
dagitay
saksi
aginggat
nangala
atiddog
bun
##pis
##tauan
aglaklako
##emto
maibag
mangaw
manamnama
##atibo
Diosyo
##onar
##ical
ammotayo
Narvacan
perpekto
Ammom
##robaran
##sigem
##laok
maala
gameng
Mer
Sapay
##dap
pannaki
##danag
isursuro
##eck
##talaw
195
ibagana
IN
me
##EL
##anen
##annog
##orma
##abautisar
balligi
natiliw
mayannurot
##work
##asag
##abon
##abaan
##torial
nagm
mangdadael
insungbat
Cap
Gil
tri
##my
##abana
##igur
##angaw
##bato
Joseph
Cordillera
Tetun
##bet
##ond
##adl
##sau
kasar
##nakulo
##ingel
panagtrabaho
mangay
kabalio
##regget
rinugian
sektor
tekno
landok
Jeho
Lin
gura
liw
##ves
kaudian
karkar
##awidwid
##utis
langlangit
Zande
##uatan
##ED
##aydayaw
##atap
agi
##angat
kalkal
##angaywan
##katlo
namati
trabahona
alaen
##AWANAN
sisas
Ber
World
bigbig
dila
leksion
##aasi
##sakit
daytan
##atiw
naar
##angapulo
panangy
masakit
napanunot
##ilbilin
Prin
##kir
##aiwan
nagbaliw
natang
sangatauan
##siriban
PAGWAN
PAGWANAWANAN
Pinoy
Sida
##pel
##hem
##tial
##udin
umanay
pimmusay
##uthor
selebrasion
Mik
agal
aaron
bil
kagimongan
pung
sinal
##PO
nagsardeng
nakik
nakadanon
maammo
##bogado
biagmo
panaglabsing
Joab
Simmungbat
nakatugaw
espesial
Tajiki
Pad
##EG
panagyaman
Amana
salip
timec
##ONG
krim
Efeso
Amerikano
mapuoran
kapatgan
Res
##datag
##alap
pannakar
##lesia
mapanda
##gined
Kangrunaan
bingay
patarus
##apata
##abo
##able
ninamnama
##ido
tax
pagl
##ucho
mabal
##rugian
dinadael
makaaramid
##abalaw
dandanin
Colomb
##iwanwan
pasurotna
panagimbestiga
Iy
pagr
##tec
##eroon
nadlaw
##ambang
managbasol
panaglabas
panangilasin
Rodrigo
##icipal
Vill
mis
##kkat
##siona
##acucho
##oten
##pastor
prot
kalugar
natalna
##balbaliw
##chi
Romany
Ayacucho
Sabado
Rizal
48
Asi
Bayan
Por
turong
##kag
##daan
##upak
matulongan
ektar
##plano
epektona
eskuela
Isaac
komunikasion
mur
##angko
agdal
naiduma
anti
kiniddaw
nakasagana
agtaud
Cameroon
inak
ladingit
##bug
##asian
napa
kaawan
Romano
kawayan
agrikultura
Bagi
Din
Gubat
mabas
mays
raman
tult
##ges
##ui
##yerno
##baliwan
##akami
##angda
makad
trono
patpati
tuktok
alikamen
tabernakulo
Agarup
eb
pos
##ayadan
##ekobre
##inggined
##igp
makib
##utado
##apanunot
kinasirib
maiparit
naglugan
##retary
pannangan
agballigi
##paliiw
##ei
naibaga
saka
napalalo
kualip
##munity
magmagna
Mil
ho
kangatuan
##kup
##abu
##ubb
panangg
nangb
Adun
##ANO
narikna
kataltal
posision
Dik
Usigentayo
##abtrabaho
##ungal
##uskol
##idem
##ipato
addaak
naim
##patan
naganmo
##tinnulong
Canaan
##arsaruno
Awar
Feli
NAG
Ver
yo
##sangit
##yak
##AO
##asia
##anganna
napatpateg
##sikulo
pisos
Mus
atension
##sen
##inom
##amal
nagtugaw
naidumduma
##ola
aramidek
2020
limapulo
Gob
sas
##ingpet
##ingsing
panangusar
internet
##iyao
office
Cambo
Jonas
Ho
Lunda
Nalak
kategoria
##adaga
##ilangan
manangaywan
panangl
Kasanotayo
##empor
##ugatan
mangisuro
kabakiran
Eliseo
Nangrugi
RA
##sona
##akpakita
##taaw
##ester
nagkam
##irino
kabaybayan
adigi
Maam
##rasia
kanayonan
mapagtalkan
Kikamba
III
Mun
asuk
kalidad
##apar
##trada
##ations
magunggona
namnamaen
nasional
masursurotayo
President
70
fac
mod
##31
##NA
##ingked
##rot
umadadu
##try
##karina
##umbangir
##alluyon
##quia
panagsagaba
##lawlawagna
buybuyot
misionero
elementar
##lano
##EH
##adad
##umbunannag
##resentar
Quich
##apsapul
dana
pes
##buso
##boy
ununana
dimmakkel
innala
##emorial
official
kinamanang
Laoag
Chief
Quichua
##alang
##inamin
sigarilio
nabara
Chiyao
maikapat
##sukir
##ight
sidong
musika
Pi
bado
cri
epektibo
olo
rago
sobra
##EA
##tim
##uradu
##osas
##angak
isuro
nabat
impakaammo
nangipaay
otoridad
Cin
##gas
##umay
##reet
##uyong
##deklara
iyeg
turod
sirk
basa
gen
lan
##rama
##sursurat
diosmo
##unkunana
gayyemna
makisarita
naimpusuan
Gloria
for
##uenna
##abai
nagpateg
##ilio
nalimed
ayatna
Victor
kinaranggas
Mic
Manag
Rin
cons
##aksi
##awad
##kot
Inik
sakripisio
simmurot
nagin
riknak
##angarang
##agut
uminum
Agk
Saantayo
aramidna
Nakal
Kenkuana
##ADAL
singasing
indauluan
panagtakaw
Jun
Po
kot
##gada
##nor
##ordina
payunir
naun
##ngel
agtur
Inlawlawag
agpak
##uaran
sumangpet
##paregta
##dudo
##estro
nanumo
sekret
direkta
impluensia
editor
rangtay
teknolohia
Li
Nagi
Ub
##uang
##IM
##EK
ipan
##ursurot
resolusion
##aniwas
iggem
##sukimat
nangibaga
pabor
panagraira
##IOS
##uspusan
kataltalonan
Posi
Sabas
##39
##tob
pagreb
mapal
Agt
##kaso
ordin
2009
makitada
Do
dil
kami
##cas
##angal
diding
city
sic
mangiy
##laud
##posision
##balayan
##katawa
##aliwliwa
pinagbalin
ballasiwtaaw
Bel
sia
##sayan
##fac
agkam
naawagan
insayangkat
2008
naituding
Libro
website
Lor
aid
he
net
sags
##agat
##onna
agdagup
insur
##andak
alag
matak
annakmo
Dandan
Ammona
nagtaudan
barukongna
responsi
system
##trina
author
eh
magus
panagsubli
taudan
##rop
naipat
##aputok
esk
##tory
Quirino
Medina
Andres
email
kitkita
##ette
##isu
##ikado
##abahuan
##atiba
Agsipud
##pakumbaba
##duadua
##elles
panangaramid
maitulong
agibumbunannag
Impakaammo
Jan
PD
dalluyon
je
lip
##rat
##hena
##dadal
##idut
Naip
Absalom
nagpa
mangited
takiag
Brother
Chavit
##rag
##adakkel
##uganan
agpadpada
Aglalo
Mags
moral
rim
##amto
##abp
##irukan
isasang
##00000
Chuv
##kamin
##kamaysa
Panawen
public
kapanunot
##disso
##inamianan
responsabilidad
Chuvash
mer
##uag
##Ken
##ayayo
agyaman
kaduada
nagn
##ack
panangtr
##entasion
kama
agbalinda
##duadu
agmul
naisayangkat
Kaaduan
armado
##truksion
39
Greg
debo
gasat
ret
##38
##etan
##rity
##ubbot
pagna
siensia
immununa
Napal
Ayat
kori
##errero
maararamid
46
hepe
##gang
##36
##form
##tisi
##idong
##ipintas
agbaliw
##alaad
##erbina
Program
##rakurak
ker
##aksak
##taw
maisubli
##low
makadanon
maaramat
##reklamo
instr
Napintas
pammatina
##artamento
campilan
health
##dat
##onge
##utas
nakabasol
##ukir
bareng
##ezon
pusoda
inkabil
Braz
profeta
##cis
##dama
##etna
saankayo
pannakaisurat
maladaga
pasetna
##yanja
pagser
panagbiagda
demok
Ramos
Laglagipem
Cinyanja
Bu
Memorial
tumaud
##ming
##ring
##fat
##tilo
##inta
##abuya
##riri
##edngan
##utubo
sakana
saps
pakabuklan
Kisonge
DIOS
bannuar
rina
tub
##arsarita
##riw
##unat
##ile
##rod
ammon
nailanad
umas
Agpayso
agpili
tattaona
pannakaib
##pakawan
regalo
Pagadalan
##ITA
anacna
cabusor
##elebrar
44
##aguma
##asarita
##aker
##awanna
##emma
kadag
panagsao
##ukob
##aysada
ngum
lumugar
Guerrero
##kolar
detalye
are
kunkunana
##arawidwid
balang
pasken
##amidad
aramidda
ubbog
sangs
agararamat
##dumngeg
baca
Brazilian
Tang
fish
ginggined
nadi
##rom
##Ket
##nat
##egasion
naipan
masal
##arambak
inar
mabalinda
ilida
##uloyna
panunotko
intono
##tical
ginasut
BIB
SAL
kub
laban
##anus
##asikas
##dac
##agipan
nagpas
maipakita
paraiso
##eroboam
trabahoda
inkari
Galil
Editorial
##elikula
Daya
Har
Ser
butos
kurang
##gid
##wad
##zar
##eno
##lima
##imon
ini
kalamidad
##palubos
basbasol
##nanakaw
motibo
pammatida
saritaan
Moab
Dagita
##ultural
tayak
liklikan
Pimm
Vir
big
emo
ukom
##ontrol
mangtar
naap
maususar
Nakita
##anny
ruot
produksion
sadinoman
Aniaman
abogado
##dok
kabukb
assaw
talento
salomon
Quezon
santu
pannursuro
BANN
Kak
Tab
gan
##RA
##alina
##angkat
##amang
##unong
##load
makannawan
##aliaw
agtungpal
idada
Abel
sagrado
##niber
kinabil
Francis
kontrober
kriminal
Cambodian
Cons
JEH
irik
lis
##emon
naasi
panangiy
aminen
kasapulantayo
2007
Kabayatan
pagtagi
Jav
Nada
elem
usigentayo
##rab
##nuan
##hite
##estra
##eserrek
nagpar
##ugg
agpan
##turayan
##agasan
organ
Saludsod
##abalinamin
ramit
apagbiit
Sinait
benepisio
panangidaulo
Tom
##gtignay
##37
##isyo
##ektar
makabael
kabi
sanguan
##ucas
##rekord
Maur
kakabsattayo
makitak
maawawagan
##ISION
nabautisar
munisi
JEHOV
Ib
fo
##saan
##mes
##inion
panagkararag
##atin
##kuti
##okus
komp
isus
ipakitana
sinurot
mapanunot
##ponde
konsehal
kaadduan
##endisionan
Lak
gur
##los
panagd
inl
##edyer
prope
inap
nala
Nagt
posibilidad
nasursurok
Fon
##kari
pagtr
dadaelen
henerasion
Sadiay
elementaria
JEHOVA
Festival
##sanna
##ties
##oralidad
mannanakaw
napap
agsags
annakyo
timma
bulsek
##cayto
Sangapulo
District
pasahero
liwliwa
bro
##amaysa
##emio
##abati
nasar
isardeng
pamp
maikas
naganko
##annigid
Medicare
bersikulo
nagballigi
Damag
Lazaro
Mamb
Opi
Rimm
bubon
##kiddaw
##NO
##ayda
##entista
##arot
nakuna
maapektaran
masurot
##arami
pangip
Maika
Maipalagip
nakaawat
Baal
bukbukel
Muslim
dri
fic
kut
kasiko
Agb
kalap
Mark
sinan
inaramidmo
kabaelanda
gagayyemna
Literatura
Sto
dangadang
rag
takder
##sok
##ral
##ayas
##agiragsak
##adok
##ulaw
panagpas
kapada
pusok
bukodko
##sigudan
##unisip
pagpatingga
agbalbaliw
panagminas
suroten
tradision
##kribir
##uarantine
Dig
Sey
ana
unget
##uenda
##tol
nagsi
##ily
naapektaran
Administr
##tugal
agsakit
sangg
sangaili
sangaribu
dadaulo
##lingling
Gag
Sara
Wat
kangato
virus
##lom
##emna
##usen
lac
##ubin
##ungu
##iwayat
kaadayo
naikkat
batbato
Act
##angpangruna
Nana
minan
waig
##anom
agdan
manayon
sumang
Manuel
Napasamak
##liklik
prutas
seri
Amerika
agtrabtrabaho
maiparbeng
Portugal
##emporario
Dar
eli
##hy
##artek
##abaro
inruar
##uben
nangida
agtugaw
app
ordina
personalidad
gaput
Sidama
Dimm
Ne
Zac
pelikula
##uom
##rel
##OP
##abut
##ession
kinaadda
nangir
ipakpak
Estoria
dumdumngeg
prak
Tagudin
asidegen
bimmaba
##widan
Toto
napakumbaba
Seych
Ec
Makita
cam
##kos
##para
##Lungu
##ania
##adana
##ikedked
##unor
isurat
##piuter
pakal
aywan
lallakay
aktibo
palso
##weLungu
Apaman
uniberso
ordinansa
MambweLungu
Seychelles
Er
Pur
maan
sasa
##Ilo
Nagb
siguro
##sakto
##adawanna
Edgar
pannao
##uskrito
Colombian
kinamanangngaasi
Hes
##onen
##aming
##urity
##edna
kadar
nangeg
makapnek
##tograpia
rumuar
kritiko
mangituray
##dumaan
Regional
terorista
Mexican
eroplano
Ana
Wayu
binal
faraon
jos
##IR
##zation
##daang
##uridad
##eses
nagpat
naireport
kalat
ipakit
##utosan
##ammom
##itin
##indaya
historia
##taraken
##umpiska
Sy
leng
sara
##cat
##ase
##apet
agdayaw
##dio
##adadal
##ekan
##unaiki
manuskrito
##ungana
naala
##sob
pasilidad
agsardeng
pammatitayo
panagbuteng
makitkita
States
##uybuya
pannakaisalakan
Secretary
nabatbati
BIBL
Cho
P2
York
##gunam
##tision
##umduma
insidente
pannakatay
Agpada
pakar
simbolo
##paar
asawak
##ukbok
##estigador
##anamong
telep
##utaktak
koriente
Wayuunaiki
UN
Wik
cum
gad
normal
##con
managi
naaramat
kabal
##tulit
mabalinna
##ents
##lass
Estrada
ibagbagana
annacna
nalabes
ipapatayna
Reh
bis
taba
##kanayon
##udayen
##anias
maikapito
##bath
##iwriw
ngimm
card
##ports
BIBLIA
Hiri
Kaano
##ayayam
##tac
##rao
##irst
maipa
##uyug
##maneho
##entensi
ikagumaan
##tinel
panangipateg
suspetsa
gobyerno
marikrik
ususaren
ektaria
##nel
##uram
##angaili
maag
nangina
##suratan
pakawan
aramidenyo
kaili
##sismo
Sentinel
dandaniw
kurso
nakarkaro
##artment
Antonio
minaneho
Abagatan
Cuz
Krio
Rand
farm
kun
kangrunaanna
##elec
diac
##acco
Maikatlo
makapas
nainsiriban
Cuzco
Hen
LGU
asu
##alsa
##ilonia
arar
##tual
##kandidato
##tikular
makalawas
pagananay
nobela
pinapatay
pakaibilangan
Mixe
Tatang
gambang
##cian
##YO
pana
##awil
##usta
nagturay
pagbas
pamuspusan
##ecuti
impalubos
##ANT
##AND
immakar
nakaadadu
basolna
suplay
gastos
duadua
putotna
Bum
High
Walli
sho
ton
##tribu
##dul
##het
##hustisia
##apsut
##abes
##ulpit
##udas
##omenda
pagari
pannakag
maangay
matmat
matulad
Isuna
kadagidi
pakaigapuan
minilion
ramen
##logo
##asikaso
Wallisian
Dag
East
Kimb
Teo
Tran
Wel
kim
##tat
##pin
##dagiti
##igtot
##utda
panagkitana
cadacami
sagp
pagtaudan
team
denggen
Sadino
Kimbundu
For
Siti
gub
##magna
##raim
##ingal
##dipen
naimas
##irma
##tanto
babilonia
Nagl
##tions
##annanto
pusotayo
bangkag
PANANG
Center
##kayto
anianto
imahe
officials
Totonac
Uppat
rug
##igayyem
produc
matar
##turongan
##dakamat
tungt
##dez
highway
##quiao
Danny
Sipud
lapped
agususar
insuro
imak
kinatal
Ilokana
##panya
##sipiko
##umba
agbalintayo
panagkita
##indua
Nyan
Rev
Sil
tra
##shop
##odo
pangp
karina
##kantis
##urkurang
panagtut
suraten
kaykayo
inbestigasion
pagserkan
Nyaneka
Bur
Gro
Hero
Kum
Tes
kalinteg
##sy
##ananna
##alay
##ettak
kasukat
innayon
mangsal
##resis
panangb
Anna
sumarsaruno
##ally
Nasantuan
magatang
carnero
pannubok
Bash
Kong
Run
okasion
##sula
##akripisio
##abada
##ured
naipak
##tee
umisu
##entario
##erba
##AKA
eksena
tagilako
nakipag
##adakes
Caucas
Posible
Caucasus
Aga
Ebanghelio
Rarot
ilawlawag
trah
##33
##asino
##aders
amada
Dida
kinapakumbaba
nasakit
masungad
##uyat
nagbuteng
Army
##ulitulit
##sipe
namnam
##perio
##ALIN
naikeddeng
Paraiso
rekord
kabagian
Pacquiao
Judas
konsiensi
sangsangkamaysa
##tisipar
Rarotongan
Flor
Naminsan
miting
yantangay
##king
agbirok
addaanda
nairanta
##bisita
Agyaman
Martin
kamali
dumakkel
##ature
opinion
Madam
gatas
Galilea
timmaud
igam
##nu
##ney
##Health
##abasa
mangd
nasarak
##garaw
sumango
pakdaar
Martial
##uck
##sakup
Press
inikkan
sursurat
makabulan
##usbos
Republic
41
Bay
Del
Pamilia
special
##dana
##40
##aster
##ikap
mangk
##annac
napeggad
isaludsod
agpad
inaramat
Ammon
mabirukan
##renta
akinkukua
bersion
Marie
ungto
bilbilin
##CC
##ulang
paglingling
##atanor
panganan
##turog
##namnam
tumatayab
Nasaysayaat
uleg
Immuna
tukad
Region
International
ANIA
AM
Taiwan
Usigem
anam
##rana
##nec
tian
nagar
##utd
##ukmeg
masursur
sida
##tayto
impagarup
##tukoy
aspeto
idauluan
##nosente
kurapsion
##adayawan
annongen
##ristianuan
Isursuro
Kama
rugit
##rd
##tibker
tits
##upor
##kunak
awanton
arari
ilim
kandida
anges
nakaaramid
local
##mission
Baket
kunkunada
Alex
elemento
Sitio
Ara
Num
ikar
##32
##huana
##uras
##eman
nangan
##asionna
##patungpal
Amatayo
partikular
##asamakan
##abaknang
panagbiagna
##list
uliteg
teritorio
katulongan
cacabsat
Dikay
Bashkir
Ter
madanon
##tudo
##alaysay
##ako
##apigsa
##lisi
kasdiay
naki
##uknoy
##uanda
Saanko
Anto
kapsula
Covid
##ingato
nuang
makarikna
seguridad
kualipikado
Magsingal
Don
IP
Te
isa
seb
##sman
##aidda
agres
##sitan
##ektado
iseserrek
agbayad
pinak
Kinunada
##alubosan
mangbukel
##UNG
KIN
Lim
War
cre
munisip
online
##nasional
##apanna
aglik
##aayna
basbassit
kapito
immadu
Argen
mamin
##allatiw
##antes
araramidenda
serv
makaited
tapok
Australia
instrumento
ordinario
yanna
##AF
##eria
##away
panagsukisok
makigubat
imada
kinaasino
##tandudo
sientista
##azar
panangipakita
kualidad
kinamatalek
AP
bim
but
cuana
gu
jose
##ww
panagregget
##ace
alegasion
##pannakkel
matulong
##ilinna
nakapatpateg
nakaam
eksakto
taray
189
##agragsakan
Immay
acco
Deog
Valen
Ditay
bara
inosente
piman
##gaysa
##angen
##idda
kasins
##kod
napaut
Saanmo
kahon
pangib
impa
Maragsakan
Maip
minuto
pundo
dimmanon
imbilinna
##rehistro
##resista
Deograc
80
Ibanag
PC
Peo
cad
gimm
##lawen
##leb
##OM
pandem
##ilding
panagbas
##ikinnaawatan
##hobo
##ublat
##iliw
pangta
aruat
##ders
kakabagi
##akitaan
Saona
naikabil
##osafat
Efraim
imbagak
makiraman
diputado
center
pagtagilakuan
fiction
sangguniang
telepono
Deogracias
Bise
Sib
dom
##sum
##cua
##OL
##asayaat
##apal
##adaan
dicanto
##ibers
pagnana
naadal
impar
esp
naranggas
lakasa
intultuloy
Kamara
kabangibang
##igpigsa
cor
##iat
##arna
##angsangit
nangiy
kaub
pakad
babbal
##endak
kapammati
kanon
Maz
Simon
siklo
Urhobo
pabo
panangisuro
kailiantayo
inbestigador
Nabayagen
##eskuela
agmulmula
47
Bac
Mig
Plan
##tanok
##iniwan
##rol
mangga
mangrugin
pagaammo
##ungon
idaton
##iasawa
taripnong
tagaB
makastrek
America
Bassa
marihuana
opsion
mapuuran
##representar
##paniol
Mannakabalinamin
Ric
Web
col
##tas
##pili
##ange
naid
panggedan
pagin
kamatis
##lasat
##itikit
agam
alagaden
Kamaudiananna
Dreh
Fil
filiste
serb
sungbatan
sico
##enep
##endor
##ekta
##eder
amma
pagdak
napaay
kinaragsak
umadu
Inted
siti
Saanak
pagili
sangakab
##ioneer
agadadal
##osias
##bigbig
sarsarita
ehemplo
Drehu
AS
Kabsat
Lab
Pam
sapay
##itatayo
naglibas
assawa
##ediul
Maibilang
nakapag
##kaldaang
urnong
napasnek
obra
levitas
Tanap
imperpekto
90
Asa
Dal
NPA
natan
##askasaba
nagtaray
##ektek
naamammo
ipapaay
daong
tumakder
itlog
panaginana
tarig
##ronic
##awlawa
##ential
boluntario
responsibilidad
filisteos
Burg
Itultuloy
th
##kado
##UG
##arda
##taud
##alinga
ipagarup
##lehem
##paneknek
Espaniol
##ope
##sisinn
panunotem
mangammo
Samaria
tulbek
araramidenna
Santos
##mittee
importante
##borsio
napapateg
josue
new
##fe
##liwan
naggapuan
##ilaan
mailako
##ukt
maam
##point
nalamiis
agsapul
kapadas
maikal
1914
##reto
dandanum
kolor
pulis
Kikongo
naynay
medio
nalpasen
paglinglingayan
Inal
Kabael
Th
buy
sapat
##utibo
##uummong
##ht
##uros
##umik
##itlo
manong
##anaganan
kaung
Manarawidwid
Nakap
ituloy
##udaag
site
Kayatmo
lumabas
immayda
nakalugan
BANNER
Kon
SIN
human
puro
sp
##cash
##45
##umamay
nagari
nagunod
makid
##ubal
nasa
##ograp
##itiz
ngipen
Salv
sardam
panangal
mangibagbaga
konseho
##ustice
##limed
##lacion
terorismo
water
Impalgak
##ecutive
Trans
trahedia
Sit
quarantine
##ain
##may
##uoran
##ency
panagip
makir
kompiuter
agsumbangir
party
natna
##bales
kankanayon
makaawat
dimngeg
imbagada
pangngarig
maammuam
Toba
42
Bimm
ilako
temporario
##ution
##ratiko
##che
##aday
##aip
##esar
##rika
##uspetsa
add
panagpal
insa
##wanwan
##anod
nangs
Ancash
pangen
##dayag
tinedyer
kuad
nangngegna
mangsalaknib
pilid
dengue
Gagangay
air
char
gandat
kem
rice
##uentayo
##nd
##wit
##asig
##etnag
##noc
##ule
##udingan
##unaw
panagtignay
mangar
mangimat
Agas
##uyaw
agsasaruno
##aganada
##satayo
ilimi
pammilin
ibaon
##dasig
Kitaenyo
##ordero
agkakabsat
Sangalubongan
##ownload
amona
KADAGITI
Ubbing
Ibaga
Willi
cat
##uayan
##wawa
agdesision
nagdakkel
nagtrabaho
nagturpos
##isan
director
Diostayo
siempre
natungpal
inaramidko
nadaras
binangon
makitatayo
krisis
kooper
mangmang
##agiddan
Ibagam
kotse
AK
Du
Manga
Ob
hel
ki
##imi
nakatakder
naipar
naipasngay
naipatarus
##balikas
Mangip
Phil
##eader
botos
check
pinaltogan
Adadu
innalada
Internet
plastic
titser
AR
Dok
Lima
up
##dp
##Cristo
##anse
##akayo
##awar
##ukog
balaymi
##riba
pinadas
salm
bayrus
##ugalian
##ulture
Indonesia
##dagadag
estasion
natured
##astes
langalang
kinapintas
##ategoriaDagiti
kaskasdi
Pol
glo
ikararag
##ayto
##ental
##ingak
##anglo
##nakayo
##ild
payak
napat
##upok
kinata
maak
maipakit
ispal
##angayanna
ipakaammo
nagsasaruno
kongresista
bangka
itedna
kaputot
luglugar
65
Hua
Niger
SAN
Trin
eng
paay
paliiw
pioneer
##cder
##tidad
##suana
mangkon
makannigid
daytoyen
##ecca
agpaut
Manases
##aduanna
insaludsod
sinar
literal
##ervi
tatangna
Setiembre
MAK
ngan
session
##rang
##fon
##atec
##ety
##iday
##ukag
Director
##apanaw
kalman
naruay
##resenta
##ganat
kanal
agkuna
##lyn
patpat
##rigrigat
pannakabalinna
##darum
ginatang
##lapus
Raquel
House
sirkito
##ADALAN
perman
##leg
##siastes
##urumen
##udy
panagsu
##vao
maap
kinag
sumangbay
pannakaipakat
imbati
##aduana
akus
bulb
bukodmo
elek
tuladen
pinansial
##ulongak
determinasion
##abagatan
Randolf
Welsh
Ited
Lalo
rit
uram
##lub
##lapan
##edad
##ayog
mailasin
mangayat
mangpat
nakam
##piat
##ober
immawat
salunat
sangap
mangipas
##sistan
panagbaliw
ammada
Senador
ramay
maisalakan
mensahero
mariknam
##rade
Kapitan
##clesiastes
##uyugoy
Naan
NAP
Tongan
hot
lit
##uac
##wel
##IAG
##alla
##amaten
##lid
aguray
##erensia
##silio
##ekti
inumen
pagkam
kinama
komento
##patulod
nabukel
Chris
estilo
Marta
ilic
##erson
ikagk
magat
##deklar
rigatna
##amatmat
##ulagat
Dakayo
tungpalen
sulisog
isubli
William
Bassit
Iban
Rose
SK
Sik
##for
##IC
##LA
##zias
##angl
##amianan
maid
##uty
pagtal
panangukom
kompleto
agpangato
apl
##tuen
##anggay
##usaran
##taktakder
##aysayangkat
dumawat
##aglagipan
##lista
##irip
dalanna
tour
##rebelde
impalgak
santuario
AB
Pri
fe
neg
##vo
##aima
panagpat
##utel
##ungtong
napnuan
##act
kinahustisia
Saanka
kape
kamal
dinamag
##tinean
##rical
Kitaentayo
JesuCristo
Basaem
espirit
agdaldaliasat
serioso
Argentinean
Usar
do
##bol
##jol
##aso
##arungkar
panawan
##uri
##saag
kinaulbod
saem
##baket
abaga
kabsatko
tulad
ramut
kasapulanna
##kayonto
espesipiko
Davao
Konsehal
gangannaet
DV
P6
Ryan
Sel
dinan
##sad
##tasion
##iona
##dagsen
##wenno
##artisipar
##inabagatan
umasping
masin
agtak
##ship
nakapasamakan
katug
Mangis
##gipcio
saclang
bimmangon
bagbagiyo
##ULO
EDISION
aramaten
munisipio
43
Cla
NE
pai
##kl
##kil
##isl
##ute
pagsi
annurot
##ulou
nangil
pakap
Arari
##aragragsak
palasio
community
bayadan
##ights
ngiwatna
incabil
taraken
IDI
maikasangapulo
praktikal
49
Laban
Pen
Panggep
nin
##tiro
##ulukat
##iggem
diyo
nasdaaw
##ngina
masungbatan
kinunak
maturog
namag
Nasdaaw
tagaC
timmulong
##ongam
Canada
calpasan
panagtulnog
Betlehem
Boulou
Tojol
Naindaklan
Kadagitoy
naammuanna
Kabiye
##amalala
##duaduaan
Tojolabal
1000
Acho
Eclesiastes
blo
bawang
##rub
##alub
##its
##saaran
##oram
panagpar
##igno
mangpak
mangnamnama
##apuak
masa
##ebla
##down
agsas
parte
tran
##onald
saad
agbalinka
##dayawan
##liwliwa
pund
panangidownload
kaaddana
Gabriela
Filipos
Nalaka
network
Zacarias
Acholi
55
Mel
PO
ep
food
ii
rab
##agaran
agdi
aglako
nakir
nasugatan
maapit
Diosmo
##irmaan
kalikagum
##uary
dakami
##sity
nadanon
mabuteng
timp
nagtungpal
liday
agbasol
papanan
Exodo
situtulok
agdadamo
sidadaan
agpanunot
babbalasang
Esau
Kangatuan
TV
denna
rukod
text
##ned
##arigan
##airo
Ann
agsus
pagsapulan
panagkak
##ezer
purp
ayayaten
Sip
hom
lad
van
##zer
##agilian
##aklay
##awawan
##ingbingay
##imdeng
##raut
panangi
##epsep
##miris
nabiag
##ambak
##matayo
ikut
##annuray
nagannakda
tulang
##atender
paulo
Angkel
reklamo
shabu
Reyes
Tinawen
KASANO
maadaltayo
Burgos
Pay
Publi
##sya
##dong
##unto
naganda
saanmi
##rotek
pagy
kabibiag
matm
##adalusan
Panagi
bumangon
minutos
##rason
nainaganan
kriti
Joel
riknam
##depen
panagrangay
##ervantes
##dardaras
dikay
icabil
##truktura
unibersidad
hardin
Maka
basi
##lation
##cer
##aguman
##ated
##apus
##iktad
##igos
saandanto
mangaywan
naibalud
agtaray
agpannuray
sumsum
pakakitaan
nadutokan
nareli
##dinand
kontrol
Naib
napaneknekan
##uyob
bumusor
naannayas
tinulongan
Russia
Nangip
Sabbath
pangngaasim
Miss
Mauritian
natnateng
Peter
sers
##bey
##SO
##TAYO
##alawag
##arch
aggatang
##unes
nagtakder
mangng
pagbiag
naulimek
kadaanan
India
Char
##ture
pammalubos
agkabsat
##rugit
palimed
##isiaran
nagpai
2005
agtaeng
pornog
##ayabanna
Ferdinand
##ulinek
mannakigubat
buokna
pagnaedan
Neh
magas
wan
##SUR
aganay
##die
##urangan
kadu
panagmula
addaka
##ukib
naing
panangiwanwan
taltalon
naraniag
##ernor
ortograpia
agkurang
panagbasa
##raining
##onomio
batog
maipasango
##posible
##uncil
##apagal
nabautisaran
Bran
bangon
nur
saba
##amsam
##uruar
pagdaydayaw
pagayatanna
##ramraman
kinaag
impakitana
##tuad
Impas
Espania
ibagada
##egosio
##tismo
maaramidan
Macapagal
Nagsayaat
padada
##ribukan
pampanunoten
##eddaang
mugingna
Kailo
nagresponde
sapsapul
kapitolio
Babai
##tali
##osor
inum
manam
mangpataud
##aoayan
Nagsubli
##endario
##reso
salimetmet
comp
pakainaig
pudot
Kaaduanna
dipay
ikkaten
Puebla
kakastoy
lenguahe
Miguel
Kalinga
lob
ts
##TC
##adk
##tori
##ikes
dies
##utla
nakurapay
agbayag
##galut
##lea
political
palubos
iket
simmalog
Corona
darana
##isterio
mangyeg
mainayon
gatangen
nadiosan
inisial
Alem
Gina
Lh
Rab
hurado
##tud
##ning
##nanayon
##yna
##WS
##anese
##agdagus
nagkararag
##ibin
napudot
##acia
nangpar
pammakawan
##allukoy
tumultulong
simmang
dumak
##eddengan
##abalud
karkarna
sagpaminsan
aglikmut
Mazatec
Huautla
##ektiur
Hong
Magasin
Taga
familia
gab
iya
jw
lic
mid
out
teo
##vil
##ced
##wara
##UAN
##amon
##eke
##igian
##upir
##reen
masik
##unodan
##tantan
kinu
##lawag
arac
##uyos
Amangan
annakko
##takaw
##ataripnong
bumaba
bumurong
darat
Nabigbig
Karen
nakemna
##lack
pinarsua
##inakem
titulo
birhen
imahen
ilokano
Group
espasio
Egipcio
katay
##bos
##umeng
##udget
saannan
siu
Agu
paspas
Isab
imbilang
##anggasat
namin
pagsasaritaan
palubosan
##ENG
katulagan
2006
Dagidiay
agmula
Namnama
##roseso
##puter
Innayonna
##septar
arigna
kabukbukodan
DAY
Health
bet
ris
##nis
##parigat
##bab
##bbong
##cedo
##ham
##abl
##ustuan
naipa
pannakaw
##esearch
parpar
##karian
pinanaw
kanawan
##yank
siguradu
Mabalinmo
bukodtayo
Kunada
kasasaadda
##likasion
kasasaadna
panangawat
ammuen
turismo
##mbub
rikrikna
kerubin
lacasa
Kisi
Papa
Rum
##sel
##bel
agsub
##ure
nagteng
##unar
##iksion
napuskol
kinarigat
##bitin
panangir
Inna
agbabawi
##lakam
instruksion
binulan
##peaker
nanangna
##listo
sugal
Guine
Supt
Vicente
teritoria
konsiensia
kinadangkes
pagtrabahuan
Herodes
Vis
nom
put
##rem
##cami
kaduak
##upa
nasaknap
##laaw
##tuod
##ursuran
##resto
simmuko
ener
rinib
rinugi
Gobierno
imbaonna
maikanatad
panangtrato
kubit
Runyank
Covid19
Runyankore
Grade
Huas
Ru
Serv
Tulong
der
idan
lok
##weng
##has
##LO
##asco
##atulod
##ernes
##ingen
panagsar
idilig
inlawlawag
isur
##ebe
kaak
Marik
ubas
nadungngo
casano
Estudiante
maibaga
##likudan
naaramidan
##dasar
kagawad
Medic
Colosas
medical
Kordi
##asitang
limitado
P3
et
sed
tem
una
##malem
##asto
##apintas
agayat
panagaramat
##ikayo
##ubayan
nairekord
nangid
umabot
mapalubosan
Inlawlawagna
pakarigatan
eskolar
##dera
politikal
##akaasi
pannakapnek
Senior
prinsipe
Court
limmabas
##ebook
insuratna
Latin
Silang
ganagan
tanda
yeg
##batan
##bangan
##wer
##agara
agik
##siaan
##sipio
##ongda
##imelec
inka
paga
naam
Saanyo
##miento
##igante
danaw
mabayag
internasional
mangipapaay
nagpukaw
nagbalinda
nainsigudan
##ARA
##ruam
##cholar
316
labor
##uteronomio
##usbusor
agdadata
Berto
JES
Jeroboam
Men
Sis
blog
sex
##zed
##alal
mailibak
##ipag
##loy
##house
makak
nakatayan
##atibker
anibers
##araut
Agsubli
##palawag
##amakam
panangabuso
##digos
Pangnga
pannusa
##rakup
langana
letra
##hael
Ammuem
Gabriel
##ukonzo
pandemia
Salvador
Lhukonzo
Lot
bilion
leh
##pag
mangap
##mok
Kasanom
narungsot
##ezuel
mapaspas
riknada
Lucia
prinsipal
pilien
Cain
Pilato
group
stress
Tomas
Hesus
permanente
Be
Ilawlawag
Ja
Je
Leb
Pakas
Sid
bayan
dutd
nagip
riwriw
##mpanunot
##rut
##ples
##adani
agsursuro
kadsaaran
##elen
##inadu
##egga
panagrik
##imen
panangted
masdaaw
##adoc
nagsakit
##ampok
Eze
manglapped
bibigna
##AYSAY
sisasagana
Grego
##enepisiaran
JESUS
Caoayan
Lop
aramat
cell
kdp
##ision
##200
##UT
##alista
##usot
nasipnget
maipakat
##arif
##terna
pangolo
##ches
##rekomenda
agkab
##pektar
ayaten
respeto
Salaysay
120
katr
election
Apong
coun
Mizo
military
Venezuel
Gilead
Prinsipio
ebolusion
Cervantes
Daniw
Eric
Hi
Natur
Pob
Vil
White
kanna
klima
##kur
##apilit
##ipinna
##ibas
pangrugian
##trak
natar
##manuel
##angguyob
##itico
Naaramid
bulkan
rumangay
turog
apoc
atleta
Government
##adawyan
koleksion
Dinakamat
Kanaig
kaarruba
officer
##ukpukaw
##ference
Padre
maysaka
kadagupan
balangkantis
agsagsagaba
Lopez
Op
Su
Yantangay
ipateg
iturong
torre
##sot
##aytay
##natayo
##inno
##ath
##adlaw
aggat
##uraan
##urana
##udtudo
nagtignay
##ingasing
##utri
nakabas
##anog
napaliiw
naawis
maamammo
mapnek
agpang
tattaok
sumurok
agsal
kapaut
truck
lalat
malab
pannakaaramat
##annugot
Salcedo
pagtul
maammuantayo
Common
district
level
Javanese
aplaya
300
Dip
Kay
Uli
dy
testi
##irok
##cip
##PAG
##daawan
##elada
naisal
nasungdo
nangg
nangy
impeach
##ball
nadis
naduktalan
market
##hios
Naragsakan
kolum
mannakabalin
Governor
ADDA
##verse
Michael
maikalima
Sego
Tulag
iruar
tubo
tech
##kub
##gaman
##onosor
##awanda
##emen
nagat
##ikan
ummong
balanse
kalawa
kalendario
arina
##ayawan
##ress
pusa
##ataengan
bannog
masakupan
Imbilin
dadakkelna
##aburan
Macedonia
##silpo
anniniwan
idea
mangawat
##datlag
##entensiaan
matmaturog
Segovia
bill
prio
##serb
##0s
##adanto
##unnat
##udanto
panagtalon
##angam
kinaadu
##epto
##edikar
##ammarang
moab
kaim
##versity
Benigno
pitopulo
mariknak
Deuteronomio
bautis
panamati
PAGWANAWANANPAG
maammoan
kalapaw
Edgardo
Trinidad
PAGWANAWANANPAGADALAN
Ali
Eden
Tao
mabati
tro
##pap
##ananda
tip
nakapuy
##ungun
mapags
Islam
basbasa
kapilitan
##sipnget
nagsangit
panagserb
kitaenyo
##estina
##ALI
basolda
##sigida
premio
plasa
nangipas
pannagna
produktoda
berde
##pector
seminar
Mannursuro
ibagbagada
determinado
papatayen
Milagr
##agumaam
##hiosuan
500
Aram
Air
Mor
Pinan
Ruben
Uru
puloy
test
##rdaras
##dette
##edak
##alia
##ings
##rog
nainaig
##teca
matada
##palabas
pannakaited
naragsakan
kakadua
kondision
##ranud
pagarup
itatta
maysan
naipaay
intuloy
sinuratna
patayen
inikkat
didanto
##vention
##engngaan
pulgada
Antokoy
##ronicas
sapatos
annuroten
Uruund
Boni
Josias
bad
ev
efr
ikas
iwar
on
wri
##gmaan
##angeg
##eltal
Addanto
sii
##ennaay
kauneg
##uyang
asul
pannakaiy
panagsasao
##uyogan
ministro
##dicion
Cristobal
estab
nagbalbaliw
luganna
workers
Awards
Cesar
Lac
MANG
Sea
ped
##kak
##mm
##enzo
##adipen
##eth
panagtar
pagtaktakder
##aramida
Agtalinaed
##lakona
inawis
##quiel
isudat
dimi
2004
kumar
gayamen
PANN
Acab
Tzeltal
##vision
Emmanuel
Rebecca
mangayayat
area
Madamdama
Buc
Garif
oposision
##lukat
##pul
##SA
##atal
##ony
##adam
##adap
##ekias
sumrec
ipangag
matda
natanok
Art
sanguen
pinang
##matangan
nakastrek
tartar
panangipaay
patas
##agumaanda
##aturog
##dillaw
Konstitusion
boksing
idadateng
pakalaglagipan
pakainaiganna
Huasteca
Medicaid
Garifuna
AL
Jez
danto
flo
leb
agtinnag
##eros
##uniag
##engna
##itage
nagaget
##omp
##imedia
ami
nakakas
naabak
##okar
Impakita
natda
balaymo
Abner
makaparagsak
##denar
adalen
rebol
perio
tagikua
##teppel
menor
Felipe
merkado
##tribusion
kemikal
narelihiosuan
Gin
Kimm
Mos
MAN
Naw
Tlapan
bisi
idaydayaw
trigo
##uiti
##agisu
##ailian
aglic
##siana
##dilig
##uruak
##rid
##ustu
nagtal
panagar
##ukimat
##iansa
nasal
##ngi
masarak
iparang
mabalintayo
##siput
Nakristianuan
nakaip
relihi
##apasnek
##ucodonosor
natangken
emosion
Rimmuar
kooperatiba
Nehemias
impeachment
Tlapanec
Zam
emer
jordan
##lada
##dona
##yos
##ycle
##agayna
##udok
##ududi
##atiliw
pannakay
nasak
mainum
kaugalian
basket
agkiddaw
palpal
nadara
##thur
supp
banbantay
##atinggana
selula
matiliw
UnitedHealth
naballigi
##asitgan
pagpatinggaan
52
Bao
Wayawaya
##fan
##tilia
tinak
##inana
##tada
insubli
##oluntario
maupay
##addek
agsagaba
nagbiddut
##ulisog
pinags
bagis
pamiliak
##pensar
sarming
##ikasaba
makitk
##bert
madanagan
##napuy
panakai
nakisao
pingping
Gobernador
SALAYSAY
Wikimedia
NEWS
kritisismo
Pangngaasim
Bir
Cong
Ibilang
Limm
Sena
citiz
gi
rugian
val
##ggem
##nigid
##btur
##KA
##tific
##naigan
##abaga
##liasat
##dito
##ulam
##ital
##eds
##kob
sumungbat
impadto
##balligi
##ucristo
##ulig
##awaganda
ibib
agkal
ngudo
diosyo
kabaelantayo
##undawayan
bangko
Peru
Sakbayna
##binsid
agayayam
pagrebbengan
kabigatanna
Bilang
Chol
Fo
Gol
atep
pitak
post
salaknib
tanod
##dd
##dero
##anganda
##tokan
agdawat
##rimon
nagapu
panagsuratan
mangkita
naipasdek
##upit
##ugo
Diosko
umakar
##daniw
ipakpakita
nagbaba
trap
koneksion
nagpatingga
basoltayo
sarukod
##singasing
iglesia
sertip
##logy
##ABA
Ezekias
pagbalinen
Offic
Inkeddeng
panangituray
cadagitoy
natakuatan
Basaenyo
paborito
Ger
PAM
Ronald
SAAN
luganda
##kem
##KUB
##LE
##UK
##ume
##aanan
##riano
##ikaguman
innapuy
##itada
maingel
Agtawen
Jesucristo
sako
Addada
Manen
##saruno
##namag
##ponsor
Umiso
##ataray
pammatim
##intasan
Jerry
pannakapaay
##mpluen
umayto
aglawlawna
panagballigi
##aigid
pinanawan
##entino
Biernes
Garcia
##alonica
makadangran
Municipal
manayonan
BIAG
CD
Han
Justice
dungd
long
lot
ok
saw
##ph
##aib
##osasion
makapan
makapa
##uted
anus
##ariing
##ece
pinul
Nakaro
palungo
apayapay
makapags
tinungpal
person
relasiontayo
##ilbilang
Kabigatanna
mapattapatta
ngimmato
##umikom
kuadrado
pundasion
CS
Eug
Ili
James
NAS
Pammati
bella
billion
##uit
##vis
##ense
##apog
##uddua
mangr
anna
##asirib
Kasanon
agpapan
cash
panagsanay
itden
bisio
presid
baketko
naitulong
bacud
##impintas
eksperi
Ediboy
##adladingit
##facio
Dandani
Camp
Pamp
dad
##tsa
##nuray
##44
manug
##unged
panangited
mapm
Agdagup
apong
##intumeng
Manamnama
annakmi
##ilinlinteg
Imbab
##utbut
panangtulong
##yamyaman
bilog
naununeg
checkpoint
masikog
Bonifacio
efraim
58
Text
ding
gun
gram
lunod
pormal
sukat
##kediul
##hur
##nar
##atungpal
##aidam
agiwar
agilinlinteg
panagdakkel
Dita
pannakilangen
##ayatda
sion
sisi
Agbiag
agbuya
apona
pangr
##leazar
Bibli
##dakdakes
190
##tento
kantidad
##rugida
damdamag
nagannakna
##ARITA
ururay
nakalasat
Street
planta
Levitico
##URSUR
agpatpat
##ANNA
Reynal
##puog
tengnged
kinatalged
munisipalidad
Inaldaw
##lapusanan
UnitedHealthcare
Bina
cer
jona
oil
uk
year
##mays
##daga
##baw
##col
##ather
##abanna
agng
##siat
panagpak
inf
innak
nakedngan
naemma
mah
##tors
pannakaisubli
nadayaw
reading
##opment
dinanto
timmabuno
Korea
Laud
mapagungar
board
Katulagan
kasapulam
inikkanna
##UNA
Kaipapan
sapulen
AKKUB
pornograpia
53
Boy
Congres
Mb
Misa
Pon
Paga
Rudy
be
bomba
kusto
kopa
##auna
##nit
##ngat
##OC
##iness
##untog
##ilya
pannakib
nasursuro
maamiris
Adayo
##oliar
ipup
impablaak
mataginayon
mabilang
namay
##araken
nagtulnog
nawayawayaan
Sout
regional
linaonna
agpaspas
Anianto
maaddaantayo
eskriba
Rehion
##alubog
Isabela
jelio
##gulo
##kada
##aneknek
niog
nagdi
kasuratan
##eggang
##ilap
##igimong
impi
panangd
##ayao
kall
pasaray
##uyas
##uyongan
idatag
imbestigasion
Abram
Napar
abbong
panagkalap
madusa
Nangngeg
sipup
##aisem
nagsublida
municipal
maaddaanda
Paul
kaatiddogna
Atty
##bugtong
magunggonaan
account
Pakasaritaan
Gunggona
Honda
Sangg
cuada
class
##lado
##lukoy
##tup
##amina
panagkasapulan
umuli
##irm
balasitang
mapakawan
arg
natnag
##awatna
##aduada
sarikedked
masakbay
Germany
baliwan
##vince
relasionda
Okpe
tuktukoy
Malagipko
tradisional
##AYSA
Robert
pagyanan
prioridad
Imbabura
000
57
Kellaat
Ts
ano
gran
km
kang
kimat
lay
perm
tangguyob
uy
##iada
##nayan
##dur
##be
##hu
##agayyem
##astrek
##ake
##inut
##amays
##tom
agaywan
pangari
##awaan
##ombin
pagtalinaed
nangi
##danan
##asaas
agbunga
Mardok
immoralidad
naganus
Mait
kanser
##agnaed
##quias
panagsagana
agarar
sibilian
kakabsatko
Makuna
datdaton
panangabak
##digo
bilangda
nasuroken
alaem
gayyemmo
##algedan
##pluen
Committee
Dimteng
poste
modelo
kitkitaen
Watch
Asideg
Banag
Itan
Maymaysa
Nic
Sub
UM
agat
binas
sports
##lum
##kum
tinal
##angka
##ader
##adis
##unayo
##rigatan
nagc
##orda
maibasar
inp
makadakes
anag
naurnong
naawanan
umar
umadayo
nalam
karuahe
##ious
##uction
##ineer
##isis
computer
sakitna
madadaan
senior
Iglesia
kapuon
nailadawan
opis
makikadua
laglagipentayo
agaplikar
boses
agresulta
Kailokuan
jeliova
pangarigan
69
Bokal
GF
cl
cag
misa
sino
scholar
utot
##tayan
##gis
##tido
##etda
##urno
mailadawan
##lona
##andaka
komite
siri
Agparang
##book
##lansa
##ursurona
ibilin
mapanka
awagan
riri
##evel
tured
sinao
Laeng
ingg
##agtagi
dagada
##onomic
makarimon
Madama
##IKO
operations
Cristiano
naaresto
protesta
peste
Poblacion
Mardokeo
Arig
Joy
Lina
Ming
Pran
hues
lua
##lu
##ayya
##empen
##egan
imposible
##aliiwan
kinaim
mapaliiw
kinan
agpasiar
agpababa
inam
inawag
babbaket
##endaka
##umber
##ression
Naik
##ayskul
nadamag
saoen
naannad
##ffic
##adingitan
Commission
pungtotna
matignay
##igerger
Nangaramid
demokrasia
Guinea
56
75
Gad
Nay
bote
cunana
dagana
dele
eze
paputok
##kwe
##ninaw
##danna
##jor
##tili
##tiempo
##tiliw
##are
##ery
##diaya
##udon
nagkarga
makontrol
nakangngeg
napipintas
umanamong
Agriing
sumayaat
agsangit
2021
kaniana
pamiliam
kait
panunotmo
bumusbusor
##ONA
alahas
##akanta
Departamento
histori
umasasideg
Chokwe
bellaay
Bannuar
Cali
Hmong
Linna
den
jes
sala
tric
##our
##gaay
##alaan
inkarina
##ubbing
pannakayanak
##oll
##ugtugaw
paspasamak
sumalog
##anayen
kapamili
Arthur
kinunac
kuartana
nagannakko
kabaelam
##sakripisio
##mpuyog
managdakdakes
ramram
agrag
Dinamag
##labsing
jeremias
makinruar
ayayatenna
##birbirok
sugatna
road
Taras
Idinto
pinatayna
Republika
security
Australian
nagnagan
Francisco
Opisial
Peoples
Doktrina
Baka
Ku
bokal
biahe
cay
drama
higante
kul
rem
##rabaho
##angayan
aglaon
pangaw
##ilean
makadadael
naamiris
##onasion
##asionda
##iron
balor
##tanud
probision
##addua
##agsagana
pagidda
maikaniwas
##utop
sinago
Nakitak
pamiliami
kaikarian
abraham
Hebron
play
mangibagi
##retso
##hair
##damsak
nakabutbuteng
##bispo
Bernadette
historical
##ungtungpal
sinaludsod
deboto
kaubasan
anibersario
Tarascan
Jula
Nav
Pamb
ec
patinggana
##ie
##wadan
##timo
##agto
##anger
##angsang
##umsi
nagadal
panagadu
saanton
##ungot
Amak
natulnog
natakaw
kapar
##ineve
katuk
##estoria
maaramidto
##utotna
gasolina
apostolna
labes
papeles
dakulapna
Pilar
kasinsin
mangmangted
51
Cel
Edom
Ng
Oli
alisto
iw
panl
##udkod
saannak
pagyaman
naipakita
##upiat
pannakid
naak
##laza
##atayanna
agpungtot
kaali
naladaw
naliday
nakaib
magunodan
espiritualidad
Pinar
University
binatog
kinakurang
##siasino
Tshwa
Timmakder
desdes
Commons
Baoule
KategoriaDagiti
Natan
Nias
NFA
Padas
az
chair
pataud
shop
##semb
##hip
##Ti
tiemp
agong
panagtalinaed
mani
##roken
nakunak
##ukit
##atip
nasulinek
nangt
Inn
Indian
Chilean
nalagip
Naggapu
pannakainaig
pinat
iyaplikar
mapasamakto
##kontra
##benganda
naca
depende
Valdez
panangidumduma
##ueteng
##TOY
tekn
isasangbay
retrato
##fonso
dumakdakkel
tropa
##aramidam
Sangguniang
MAR
P7
Sgaw
Tsina
bari
hayskul
www
##nnag
##paw
##bileg
##caw
##80
##Reader
##tish
##udona
nagda
ading
mannac
saantay
##ubngar
naawatan
nasingpet
nangited
isudanto
agbantay
nabanglo
##sitgan
kontribusion
Mainaig
namaga
pakais
sibay
kitaentayo
nakasarak
datos
panagbettak
Jerico
pannakapukaw
gagem
araramidem
mangiturong
Inspector
Bautis
Valley
paggug
makigimong
petision
crime
PDEA
propesional
PressReader
news
Met
P4
Ran
bungana
udina
##linto
##padas
##hensia
##RO
##ayanna
##asda
##gac
##adon
##liday
##dik
##unit
##usop
saankami
##upuotan
##ugh
agpapaay
ipalagip
pakinakem
Nagadu
agsangsangit
Imperio
saona
##annuag
pakainaigan
##tinn
binukel
Simeon
naipadamag
kabsatmo
Party
konsepto
liderato
back
##unayunay
##apsapa
sangkabassit
komersiante
kaunggan
pagtuladan
AY
Aut
DA
Ju
Nicol
abi
sister
ten
##BN
##daka
##als
##alat
##aragan
##inda
agsursurat
##organis
##ingir
inis
inca
naibaon
##retiro
kinadalus
kadapan
Noemi
mapukpukaw
kabayag
##botos
impak
matnag
##paltog
pannakaipasdek
##isiris
cadatayo
aglap
saggaysa
naanus
bambantay
Greece
banko
##efte
linak
##padakkel
sungbatna
literary
Pinili
akemna
panguloen
Jehosafat
magustuan
Mbunda
66
Dem
Nabal
Villa
hy
iturayan
linget
nana
peke
##syon
##ging
##90
##onor
##ape
##abus
##sisio
##rias
##order
panagkam
diro
##annatup
imac
##uprak
kinasiasino
panangpar
##laat
umawag
amintiempo
nalalaing
immoral
pannakaidadanes
kaklas
##mate
##odoma
##awidna
pannakausar
reput
##riculture
##tist
Macua
makipaset
gayyemko
##undation
panangiladawan
mangmangan
Simmaruno
##imprenta
plastik
Asiria
ngumato
kontrobersia
Valencian
pagilianda
Ezequiel
Gum
Kri
Mayat
fam
##astos
pani
kasanon
##ory
##nakan
panaggatang
##imudaag
managan
makim
nakurang
##abaon
anay
##olution
kinatured
panangpas
panangaywan
##ecutor
pakis
##andro
datdatlag
panggepda
reperensia
rumrum
##ront
agpatulong
Judea
##UDNO
mamagbalin
fiesta
##estern
ritual
espirituna
nakakaskasdaaw
Eugene
sinagoga
54
Hot
hi
job
kill
mu
unos
##ny
##WF
tikag
##inayon
##likam
pantok
panagbak
##patch
agtakder
##pito
##doc
##oble
##amblea
##allaysa
mayalubog
elect
benjamin
rupak
George
apagk
makinuneg
iruruar
samuel
##atory
Patien
kalkalpas
bigla
Teody
Tesalonica
kannawidan
Peruvian
Cronicas
Mario
NAK
TM
dap
gibus
lolo
##pinsan
##bus
##MM
tig
##alim
##lili
agdep
##umina
##usyon
nagkasar
##omen
##ilp
mangusar
pagayat
##anokan
pannakam
##relian
##laing
ballaag
Agr
kalasag
sumursurot
##ayaatanna
immun
ilili
##payunir
Nailian
kanigid
Este
Maaramid
bakir
kitaenna
##util
dinutokan
##hard
Mapag
##kedan
##APAN
Balay
makinkukua
##ULONG
samsam
pannakaisayangkat
British
Dumngeg
bugg
maipatungpal
##positibo
Jehu
naammuak
PRO
Dispatch
agturpos
assawada
##itinnulong
Agasem
lobong
rinugianna
Kordily
argumento
Layus
Mangrugi
PS
her
hall
igatang
risiris
sangay
training
##leng
##oo
##allilaw
agan
##idan
inkar
mangeg
Diyo
##alitokan
Innal
arubayan
nagbaon
##ulid
mabisin
panawenna
probinsya
##ocom
panagpili
bumalay
##saksi
pusoyo
Panagk
##agumaanna
##bareng
Apag
pagbanagan
nangisayangkat
##igiddan
trapiko
Mingrelian
Agriingkayo
Aw
Beli
Bill
ayo
ebanghelio
##boli
##hed
##PS
kenwenno
panaglako
mailawlawag
insigida
##resion
kinadamsak
maestra
nangd
##oke
alterna
##socia
impangag
Ketdi
nadayag
##tener
##lemlemmeng
interbio
##ubliko
##unggay
padam
mariknana
dumtengto
##apitulo
nakisarita
komunista
##mulaan
Mannakabalin
Villar
driver
Ecu
Lebanon
Reynaldo
Kordilyera
Speaker
TOP
tat
##udaw
##red
##waw
##emonia
##ustin
##istan
##ipirip
##robar
##kuar
naulpit
nasurat
pamastrek
siit
agpap
kaar
impan
salungasing
kasanotayo
Naz
##AGS
minuyongan
pork
makasursuro
pagpilian
siraragsak
inaldawaldaw
agbalor
timekna
oblig
Galacia
Andy
##idadanes
joab
Ramon
##alawigan
laglagipem
komersial
Semana
murdong
impierno
Tatta
bre
bida
tot
##Ar
##CT
##rita
##ayok
panagabuso
mangukom
##abainan
##ukrad
naibasar
maagasan
masolbar
masuspetsa
##adisi
paskua
implem
Kiniddaw
##parabur
##ambantay
agkedked
##tengngel
##ASION
##ataudan
carayan
ipaayna
surbey
debosion
serbisyo
matmatay
sertipiko
TOPIKO
KWF
NAR
emb
porm
##ngaw
##plo
##hin
##ennaka
##sie
##siya
##awing
##urant
##uslit
##ilitar
##danagan
prog
##uyak
##ahab
pannakaipasngay
anakyo
ibati
pannakaaramid
panagsal
Umasping
barrel
Simrek
iyawat
Ayayat
apoko
Park
medisina
agipat
mangikeddeng
mulmula
##view
price
pannakipag
##ubbuat
maipaayan
sangakabbalayan
Duque
compla
amiris
67
DZ
Natak
Soli
alic
batay
ef
linna
oport
##mang
ngatuen
agannad
##usulos
nagyan
##ilayab
inic
makaliwliwa
pagas
##uker
maestro
maipan
##piaran
##laknib
nabangon
ayam
##rista
Naamm
palab
anggulo
bakras
baknang
nakaigapuan
makaala
Nalagip
##eknekanna
mangitur
sipapasnek
Carlos
##tibkol
Pagsasao
nagresulta
Captain
Administration
panangallilaw
Situt
bulbulong
teoria
temper
Cav
Kol
NC
Tac
bing
bio
doliar
gayang
kannawan
pabil
silo
tu
##sell
##ps
##cion
##time
##ayet
##gation
##aantayo
##itaran
inan
##igsaan
napags
kinasi
panangtar
##ngayna
Bible
Nagtalinaed
immadayo
Manmano
pinuon
reyna
maragpat
##tena
##nie
mabayadan
Mairaman
saom
kannigid
akinabagatan
Salip
Province
madagdagus
daniwna
Inawat
Mapasamak
Ammotayo
pabuya
Nadlaw
##tipikar
Mrs
nariknana
##chez
historiador
Daan
Hil
Karo
head
lote
over
utob
##agg
##araw
##adwad
agkandidato
##estion
##ekket
mangsup
##utugot
##utpot
##ility
naibag
naipatakder
panangsurot
maulitulit
Saanto
##lakay
apektado
pangl
ayanna
pammabasol
##maton
sinto
ikeddeng
##quir
panunottayo
disenio
datonna
##benganna
Council
##yarig
panangpapatay
karirikna
##ilbileg
Kanayonanna
##supadi
limitasion
proteksion
mangtarus
pagdaksan
serserbina
nagpaiduma
Venezuelan
##binsido
Bautista
##sociation
Nazaren
Gid
Ir
IB
Lagip
Lunes
asa
first
galaad
kis
mayaw
##mado
##vas
##ckel
##UA
makaan
##ukawan
##alic
##ices
##tant
Annak
inaudi
pammaregta
##lema
Pagammuan
agkunkuna
mapanak
trabahok
##ataeng
barangayda
##saksion
mangpili
managayat
madam
doktrina
pannacai
dagdaga
Pinadas
lakayko
Station
nagkaadu
Executive
Pannakai
puestona
kinakillo
Mapanka
##operative
nariribuk
bugbugtong
##alainganna
fire
boss
rinugianda
sekretario
iggemna
lisensi
ikagumaantayo
aruaten
Bad
Ipas
budget
ditayo
hospital
seksion
tugot
##ugat
##bolbar
##var
##wanna
##II
##angulo
##adut
##abe
nagdumaan
##ising
inkararag
mangsuporta
##utektek
##upoy
mapili
Saankayo
inadal
##ehar
mabalinyo
parmek
naregta
kankan
Estado
##inastia
dinak
pagsaritaan
##pera
simrec
kakabsatda
sagudayen
tuleng
mangisalakan
building
makasarak
punti
##unggonaan
padak
agpaabagatan
##titution
presyo
France
1987
kinakurapay
agparpar
maikanem
bigbigen
turongen
##dulinan
sebbangan
bimtak
Innala
tricycle
aglaplapusanan
Galaad
KAP
Kangrunaanna
Lum
Low
MAYSA
Neb
Sinal
dapan
hor
mamak
##obo
##kayon
##duron
##wta
##ayonto
##gato
agus
##engngel
##ingling
mangri
diacto
##locos
##ngen
istoria
Inc
Agnanayon
##siddaaw
##adorian
pakik
##tron
##ballaag
##ammet
##kasuratan
mangipar
agari
##uyok
grado
manager
lumasat
relief
Nangib
suh
seremonia
usarenda
departamento
mangtulong
napagungar
pinanunot
##irokan
nagtitipon
nariknak
Nakarekobre
manamati
##sembly
Nicolas
Hez
Kadawyan
##uer
##pret
##cel
##anta
##agepsep
##allo
##inos
##atong
##aiko
##awak
##eskribir
##udpudno
panagani
panagdengngeg
##imtuod
mangsango
napadasan
kinaagt
kinarugit
##anio
##addang
assistan
tawenko
espada
##batad
good
kunatayo
##arago
tumunggal
Masarakan
panagbabawi
aglabas
nagannakmo
bilinna
makagunggona
##anagananna
singsing
marikrikna
kinapanglaw
panagayatna
##onitor
##cycle
Ahab
maararamat
##urgura
teritori
agtarigagay
##formation
sitio
##klusion
kdpy
##verseas
oportunidad
400
Big
Haman
Molina
Nangato
PAK
Sp
pukawen
vendor
was
##ky
##ayak
##urada
##engngeg
adayu
inv
inwayat
makakit
##abac
panangk
##laong
masar
alad
##teria
agsar
kayatyo
Marg
##dakami
mabaliwan
Nais
##rikto
pannakaabuso
##quez
inspir
##andudo
Propeta
Nalatak
silulukat
agmal
kapuonan
kabusorda
Dakes
Presidential
cabsatna
kapanunotanna
kaadayona
salmista
Naananay
Ecuadorian
Buen
Kapitulo
Mes
NTA
Pito
Roy
Sungbat
UP
busor
irepresentar
mga
petro
##mos
##rayan
##dna
##47
##interes
##abala
##tahe
##diap
mailaklako
insi
intar
##iput
##suel
##edon
nakati
##oken
maipagarup
agbuybuya
artista
mararaem
saadna
interbi
maibus
##ENT
nakapsut
##likado
prom
nagkedked
mangpabileg
linawas
lenggua
rehimen
##cienso
neut
Enri
kaarrubana
Imbagak
Fred
punganay
Napalalo
sangsangu
kimpet
mangimaton
agkabannuag
mapmapan
CAND
Inak
Lan
Sek
Western
ati
cur
doc
donasion
ituray
tadem
vi
##tem
##got
##mayat
##uek
##bara
##UP
##entay
##namatayo
##abig
agkat
##siada
##urs
##ries
##isasion
panagkas
maysaak
paglakuan
addadan
##ramut
##ukkol
nasig
umumay
##tanem
##lawa
sumuko
inabak
nabasa
##turo
sakaanan
agserb
ref
##awidda
panagkikinnaawatan
panagpip
##alogo
tagaS
Kayatda
##aykay
panagbiagtayo
##tangsit
singir
##wayway
Angkuan
Emilio
##tillo
pigsana
Raf
komersio
lock
##orreo
enerhia
delegado
Gideon
Dec
Easter
P15
Tol
beter
iraman
kit
list
##uesto
##cing
##wing
##jec
##46
##enias
##adanna
agayus
##unag
nagd
nagsina
##idel
adulto
##ilpo
inayon
##igis
##ibor
nakid
##rames
napinget
umadani
mapabileg
##ebec
kaban
##aoan
Nagan
##dolo
estr
essem
mall
malik
imbatad
##kamang
akinamianan
agkuk
Maestro
tulongannatayo
pannakapar
##aza
tagaA
Sinursuran
##teks
timmacder
adadipen
##eksamen
imatangna
maawatantayo
##tubngar
panangilawlawag
State
Koma
##Ilocos
##ANTAY
##AFIL
mangngagas
DAYTOY
CANDON
Games
Mt
Patay
isi
suka
##igat
##ns
##pik
##anonto
##tokar
##engda
nagusar
nagkal
dayawen
mailaksid
inag
pagpar
naiwaras
Tito
##mael
##poli
nabutosan
##pany
baso
maikabil
pannakaikkat
kakailian
##ities
dinawat
Sanchez
barb
binag
panagpa
katengngaan
anacco
repor
reporma
nangipakita
##tics
korapsion
calding
##akatawa
##umpara
tagipat
organi
pinalubosan
tapaw
heneral
denggem
rebbengna
##aramidak
tonelada
nakaamames
gimmatang
maipakitatayo
Officer
Kag
Label
Rosa
banga
bron
black
hus
minas
red
##gro
##kaan
##uala
##ym
##ask
##gail
##inter
##amam
##diat
##eme
##umi
##unniber
##ingit
##suan
mangtignay
##anidad
##lawan
karab
immuli
mabenepisiaran
Maib
order
resta
adipenko
makitkit
##ugali
panangadal
Senate
sipapanunot
liv
malagipko
panagsigarilio
Tobacco
kamaudiananna
kinabilna
pagarianna
kalinteganda
Richard
Nigerian
Branch
pangoloen
floor
dungdungng
linnaaw
Fac
Iris
Yo
chi
lans
rib
toro
vol
##nurat
##OS
##48
##akab
##adyo
##awalo
kasas
##iputan
##hood
naidatag
naadda
##ugpon
nasuk
##agsol
kababaan
##aganana
##ballig
##basaran
Apotayo
mapaneknekan
sakbayna
panagbisin
2001
kumuyog
naglabsing
umayda
April
Aprika
rupam
makaipaay
Philippines
opisin
Board
USA
kaadduanna
kabagianna
River
aginana
panamarsua
##asabtan
kaanoman
inyawatna
##angkok
napauluan
##rotesta
matarusan
pagdaydayawan
Margret
Bor
Ko
Site
cordero
mayo
non
rate
##lep
##sin
##nt
##alik
##tai
##sic
##ulaan
##espes
nagwaras
adres
panagduadua
##imas
nakapan
nakunana
pagpal
##ramanda
Kaskas
kalaing
ayus
impanda
agsol
trum
ammoyo
Nakitana
pannakaangay
insalaysay
panunotentayo
##angoda
Afric
Association
pannakabangon
box
##implementar
agpaamianan
Nadagsen
mangikkat
agpatnag
purokda
pagtaenganna
tangdan
##pastoranna
nalaokan
kailianna
Agyamanak
Visayas
Pampanga
complaint
Luna
P10
Sober
bannawag
serserbi
tam
##udak
##ys
##buk
##alada
##among
##ulongam
##unon
##using
##udos
nagsu
nagpal
##ors
##edted
pannakir
naududi
##ugma
nasukir
agbiahe
aplikasion
impai
Nagduduma
asamblea
Amang
##ersang
pinampanunot
mabiit
Naitaray
##abirok
mangipatpateg
institusion
resort
diosda
grasia
nakain
##AYAT
babbaro
nainayon
saritana
##unggo
mangpapatay
bangbang
Narik
##AMID
motorcycle
##roshur
nataenganen
autom
##lacay
sanikuana
dadaelenna
arapaapna
Britan
##ipngetan
##hone
cucua
meat
##gasut
isasangpet
tuladentayo
aglicmut
alternatibo
Bilin
Kaykayat
Malak
Pinal
Tengnga
Ylocos
aqu
beer
gaw
ke
sul
tangk
##cep
##gaan
##abanda
##isang
panagtaray
##ign
mangpal
mangasawa
pagm
pagpaar
kinaanus
panangsal
nangpas
##onario
##ired
kaasi
imparang
ditoyen
agsaludsod
##ukol
Mare
tren
Nakatulong
aksion
##ukodna
##alladaw
itat
puonan
Probin
kabaelak
Corpor
premi
nagtubo
kueba
Russell
nawadwad
maisayangkat
itedko
saplit
ayayatentayo
poder
##arigen
dicayto
Herero
Sagudayen
##iguradona
mabasatayo
##ungalong
agtaktakder
Labels
Soberano
Alas
CH
Nabileg
Pers
bario
log
ragragsak
research
sent
##yado
##HS
##MP
##under
##adalem
##itpit
nagtalaw
##ilaban
##kok
napadas
##apuyan
panangrugi
nangl
##iring
maipuor
allo
sumuno
nalawlawa
##ehistro
agservi
ububing
tron
pannakaipas
pammateg
namindua
itd
panunotda
super
##tianismo
plete
rabawna
##agtagainep
makalasat
Kath
naparabur
asiria
Siasinoman
suportaran
Frank
mulada
mangilawlawag
nanangko
##lapia
Inkari
room
inusarna
transport
##itikitan
hova
Douala
managimbub
rinibribu
Bit
Det
Enoc
Pr
Rick
RFA
Sion
Sunda
mabain
patakder
sci
usig
##kreto
##yang
##cess
##wak
##wayawaya
##Ta
##agon
##ale
##atda
##atup
##abayo
##abulon
agyan
nagrigat
##eksa
panagasaw
mangisi
makiasawa
##uksok
naisina
naimula
##ugue
umap
##awenna
##aniang
##uarta
ararigen
babaknang
maragragsakan
kaibat
tumeng
##annong
respet
nakais
##AYAN
magagaran
Sierra
makasapul
korona
##iddle
##insula
##raduar
isuntot
urnosen
ipapanaw
Mikias
Agtutubo
pagnaan
inkabilna
Digor
asukar
innayonna
dutdot
ezequias
kaaliado
Nazareno
Ai
CP
Cri
Elementar
Gon
Rahab
Wil
abagana
broshur
pila
##idak
##puso
##dulin
##egak
##fil
tilapia
##aranda
##etteng
##lip
agri
##eran
##awawat
##urbur
##umit
##unada
##ikkis
insu
pannakigayyem
nasamay
##okratiko
mass
##dawdawat
##patang
Inusar
mabalinen
pannakaibalud
Nazar
paltiing
nagpintas
##liweng
##eftali
masakup
princip
##undaria
##umplot
##AGIP
bain
nasir
pannakisarita
Piesta
Nakalkaldaang
inaprobaran
global
lokasion
lockdown
Kaskasdi
ES
Gom
Mah
Ren
Rec
Uniber
daw
edom
kost
oli
rukib
sairo
##yet
##agen
##dau
##anganga
##apaman
aggawid
##awsaw
##emis
##egreg
maisurat
##suanna
##mol
##loh
nakumpiska
##angaran
pampan
agtagikua
##sod
##ecnec
nabak
Marsh
traders
##ananus
##minto
pannakaagas
nagsagrap
ubbingda
sibil
padaya
bumileg
unegna
gagar
##inaldo
naikari
Romeo
kawesna
rimmuarda
obis
##asinona
bacb
akemda
kimmuyog
naalas
naalumamay
sakupen
short
##enned
Heritage
mawayawayaan
nairut
tarigagayna
transaksion
kaitungpalan
opisinana
RFAAFIL
85
Edision
Jefte
aut
deg
hol
ver
##ii
##bigan
##Ag
##asina
##atendar
agmat
##elda
nagungar
##isor
kasisi
inayabanna
mangim
mangbangon
nakadak
pannakilang
##epp
maipablaak
Insaludsod
kaeses
asosasion
paregta
ubingak
kapaliiwan
##sanud
naduktal
##apaut
tumacder
nagsas
##osina
##osito
bakante
##ward
Nangted
Kararag
Ikkat
medikal
maicadua
kimmita
panaggayyem
jour
soft
nangikabil
patpatien
siclo
propesion
Opisina
patpatg
elektri
hotel
magatadan
Natural
chief
Aug
Bus
Deb
Faro
Ira
Ipar
Lea
Ndau
She
beggang
ger
madalusan
tob
##tn
##nongan
##wang
##BALIN
##aneg
##asur
##adom
##amatay
##liaw
paneknekan
##dias
nagango
##idek
##ektibo
incienso
mangpaneknek
##hority
makangngeg
impasdek
##kusit
panangkon
maab
##ebel
agtuloy
Saanmi
agpai
sumipnget
nabatad
nabilbileg
dakamaten
nagbanagan
kamelio
##iwaragawag
interpret
Pagbalin
mamindua
##perensia
##rante
binilin
##abaelan
##liwliw
supot
nagluganan
##mary
ramayna
sipapak
serye
bimmisita
aggibus
maammuanda
nangngegko
nangisuro
plantasion
selponna
didan
Mariano
agayaywan
pategna
naipaltiing
Rosario
natangsit
pannakawayawaya
Uliteg
jonatan
Rafanan
Faroese
59
Juli
Us
fund
mayanak
meda
raut
set
sukog
##iasi
##TP
##EC
##assitan
##atalged
##adun
##apter
mangsar
amac
##uki
##ukneng
pannakatiliw
##angab
##ics
Jesse
kaasitgan
pakak
nabannog
##endaran
trade
##dakiw
##alaud
polisia
##reserba
##lash
angel
##udsodan
##oreign
binigbig
Simple
##estigar
birok
saguban
mining
papigsa
maawis
150
Samson
diakon
rebolusion
agbiagto
agtalinaedtayo
aggayyem
1998
Domin
business
pacarso
situtured
##kargaan
ugsa
kalugaranna
basaem
##angallilaw
##ombinsir
Pambansa
temperatura
Ball
BANTAY
Magus
Ny
dedi
delik
param
rid
uso
##stan
##sanggasat
##kill
##uation
##redo
##agpannakkel
##asuk
##alawa
##akabak
ngarab
##adpad
##abidong
##useo
##inada
##ilong
panagdi
##ipigsa
##mot
saandak
naig
##atic
##kuela
##okayo
isal
tattaom
suminged
ipus
nabunga
naluktan
##taranda
agsapsapul
Impat
##edit
##naculo
iliw
##pakan
nars
naragragsak
pinutar
##alaam
##kameng
pinaimbag
##take
##nekan
tumutop
nagsagaba
simboli
nakaiggem
##uting
tinawta
patneng
entab
##herap
sachet
puntos
Code
Cooperative
##aannad
asikas
nagbalinak
papananna
pinarsuana
##resibo
sitatalna
tungtongan
APAY
akusado
relihioso
Southern
Belize
obispo
Hak
If
Pagi
Surat
beng
dawa
hear
hueteng
luc
number
paw
##gubat
##grasia
##raw
##yp
##akin
##limate
##siw
##sierto
##unuan
panaga
panagsa
panagrambak
maisuro
inturong
insardeng
##sue
##kop
##unganay
naparsua
##piesta
lallacay
##defonso
Maibasar
tumabuno
##atakan
makapar
##nosen
disku
tarong
Saudi
ngaminen
soldad
##ikutan
ingganat
##bangbang
suratna
gagayyemmo
napasag
Catalina
makisarsarita
Carm
maiparparit
##ismaya
importansia
priv
##aganetgetna
Intuloy
Pimmanaw
agpadaya
nasaem
sumsumrek
kumarkaro
anomal
karabukob
Corporation
Ikar
Kunak
Social
Tower
cop
karam
ranget
##uonan
##rary
##DAY
##enyonto
##ass
##aranna
##indayag
agsuk
##uleng
##igbigan
laing
##ibusan
nakada
pagsar
naimat
nangangato
nangrugian
isalakan
aplikan
inaresto
Chair
##taranna
Nagasat
parke
sangol
pinataud
##ave
##adanum
makapungtot
panagbiahe
tagainep
natignay
solar
nagluas
sabsabong
rinuker
liklik
nagtacder
nakarikna
nangisurat
Super
kararuana
mangiladawan
Ibagak
kinasanto
kinasungdo
mariknada
isipna
ebkas
##deklarar
nagtengnga
##ddug
petrole
Elementary
Badoc
Ci
Gat
Len
Nineve
Pinas
dapo
garami
kull
mik
rights
sell
##kes
##iente
##nna
##nagan
##negosio
##60
##ITI
##gawan
##inngina
##angbang
##abuy
agid
agpateg
##rific
##isado
##ikid
inrug
paggapuan
imat
##aco
nasentensiaan
protek
siaan
##pisina
kabbaro
kaayan
impanna
Nagtultuloy
##aramidan
urayen
Armag
##pakaasi
##alaus
##peksion
angot
itut
Quebec
lawang
ammayo
sekundaria
Paris
Sabagay
Ildefonso
Ikkan
mangmangngeg
paltogna
MAIP
itultuloytayo
panaginum
kontrolen
Verz
Villan
nakabase
Foundation
mannacabalin
neutral
entablado
Aur
BAG
Dap
Edukasion
Gayyem
KA
Net
Nes
Plaza
SP
Uigh
higos
sami
##mec
##uver
##virus
##fel
##tirado
##ayay
##naan
##dinamag
kadagsen
##unsio
panagsina
mangbalbaliw
diborsio
##loko
nakillo
##ilib
nailasin
napus
##olanda
##eppet
Kasapul
allaw
mapaay
agban
##tuon
matut
Imee
Imbaon
resid
##alaok
pinas
ibelleng
agkurkurang
pusoc
panagsarita
insekto
agaramat
##aranud
lamok
alaenna
##aywanan
nakaruar
Impagarup
imbagam
pannakatungpal
stat
1986
##ators
Batac
panangselebrar
##pesor
Bernard
Rebbeng
Impakaammona
masaluadan
sanguananna
isaac
charac
blood
dyip
##pluensia
beterano
restaurant
aplikante
Uighur
Buk
First
Gali
JW
Ngang
Sayya
dos
festival
kris
misterio
piksion
rangk
sabalin
soc
tre
ules
##duan
##yao
##cise
##43
##70
##gao
##garao
agina
##sibo
##untain
##udungun
##egges
manases
nakayanak
##ukis
##paspas
##lah
##sursur
##aririt
kalapati
agpeggad
aldawna
nagbak
Mary
tres
pannakaiwaras
sangona
malmal
readers
##anggi
mabis
##subok
ibab
sign
ikub
tumukoy
##perpekto
Niue
diosco
bumarangay
115
188
sitatakder
##doro
entry
Mapudungun
##ticia
agragsak
opisinada
deppaar
change
##impinsan
sursurot
mulana
sangkap
guard
tabernaculo
ideya
murder
naunday
Heneral
anamong
magastos
Ranches
Adal
Dante
Def
Leg
Mabas
Nayanak
Nalaing
PH
Panga
Sursur
Zer
bomb
form
gol
kosina
lata
nalin
pug
yawat
##raan
##IV
##BA
##asaan
##arup
##abor
##ulana
##anaet
nov
nobi
##utl
pagwadan
nailaksid
pannakatar
##ngani
pamilya
##tallikud
##aganaan
Maragragsakan
kapkap
sinungbatan
Pagarigan
agkaykaysa
Krismas
ikkis
bulsa
##sisingpet
napaltogan
ibagatayo
makaamammo
Nordis
Nalpas
mapastrek
intedda
court
##linged
kabusorna
Comman
##ungbunga
kaaddada
maicatlo
maicaniwas
Latest
papanam
press
pannakaipaay
Judge
pinilina
impatulod
Castro
Robredo
espiritismo
organiko
Ern
service
isurona
Gregorio
Linnaay
Authority
Esteban
##uguegarao
Armagedon
2nd
Las
PAD
Reho
Ref
Sus
Sodoma
bon
badona
fol
kultur
pukaw
##tatayo
##menna
##65
##NG
##49
##agungar
##alta
##awara
##usam
##itami
panagrigrigat
mair
inususar
mangsurot
maksayan
pagano
pagturongan
##ungwe
##upos
##olamo
panangdadael
Agturay
kalaban
agbib
inawagan
dakamat
matarus
partuat
trak
pammagbaga
pinanagananna
salas
salmo
lugarna
ibunga
ayattayo
resour
diostayo
Makati
2003
opisiales
kusina
##masdaaw
naibangon
usarem
##dagaan
cunam
Community
padatayo
indatag
Angolan
Ikabil
napartak
organisasyon
barukongko
pannaturog
pagayusan
pinatayda
##abetes
centers
##ornia
Inaramidna
Inikkan
marikriknana
##pintero
rugrugi
pagnanaed
Nawaya
Julian
vendors
African
Malakaniang
sagubanit
Nyungwe
Verzosa
1st
Drug
Ipat
Lam
P25
Red
Rice
SONA
Tay
bran
leg
malak
rangg
tabla
ukis
##pil
##yanda
##tite
##enni
##arim
kasona
##ekkel
##ileng
##iment
##ederal
mangas
mangiwanwan
##ubatan
##ukma
naiparang
masalakniban
kinayat
##ennac
Chu
##baybay
##gatangan
##taltalek
aramidmo
##ammon
pammagi
anakmi
marka
##rikep
insenso
nakasang
panangipas
nagtagi
timmaray
klasena
rupada
##ruit
agrar
korpor
##nakaawat
balasangna
Ikit
conference
##inggoran
captain
agpalpal
##ennis
Tumakder
Abigail
luglugan
products
##uportaran
domesti
##kurso
##kobre
eksperiensa
AYAT
inispal
mamakawan
Ngangela
BF
Grac
Isuro
Yolanda
idolo
mor
putar
##baya
##cap
##hio
##fornia
##quar
##asen
##atok
##ones
##unum
##usok
##omento
inig
inayaban
##ukl
##otda
##oteka
pannakatarus
##raft
kinat
panangbigbig
Diosda
isungbat
project
kabes
ipakat
nabartek
impadamag
karner
##turan
sakada
##obile
ububbing
ilik
salam
mabukel
##atangda
##takan
ibub
Alc
nagsal
natayan
agama
nakaar
panagpasiar
magne
canta
110
##urnosen
itedmo
usarentayo
##langen
mangidaton
##gency
akinlaud
piek
baal
##ungsungbat
lagipen
agpalpaliiw
kidkiddaw
kaaldawantayo
masiguradotayo
kontrata
Mixtec
pinggan
jeep
nasarakanda
SINURSUR
Pagaammo
ipupusay
Facebook
Unibersidad
elektrisidad
Niuean
SINURSURAN
Food
Lamba
Rog
Seg
Special
er
power
umok
wal
##otos
##kannatayo
##pagna
##com
##UC
##agdagsen
##ayunar
##gab
##angto
##lite
agil
##eration
##emgem
nagkar
nagmula
dayday
kasipngetan
##orot
panagri
nobio
##ikkat
##ipa
imim
naiyanak
nasus
nasim
nasanay
##lao
nangrugin
##okia
maipada
##talan
agsab
Marawi
##ulibangbang
##lastar
kand
aktual
Alfr
nagsaludsod
##mental
ibagayo
saranay
saritam
2002
##azo
##pean
paper
##ugading
iyebkas
solbar
darada
agmalem
mensahena
caasi
gagayyemko
makisalip
nakemko
bibli
mangtungpal
Levi
##UNOT
Kapilitan
##maldit
kakaduada
Kanta
Ibagbaga
Akin
Katolika
Nainkasuratan
##agkagumaan
Department
OFWs
June
insurona
Dimmakkel
##uktanna
kaakabana
supply
nagbabaetan
Arigna
pakisalip
rumrummuar
##kuarter
tobacco
600
Bom
CR
Cos
KET
cappia
itur
judi
los
##wac
##alabas
##init
##atag
##ades
agim
panaw
##erdi
##sidio
##uris
##adadalan
nagasat
nagyaman
##ekn
inrugi
manip
##suon
##edkuarter
metal
##ukr
##ugso
panangasab
panangpakawan
maulit
nangk
nangyeg
isk
inada
parnuay
natataengan
kapintasan
##ammoan
pinirmaan
realis
addaantayo
international
award
pannakaulo
tumaray
Alma
iladawan
panagbomba
tagaN
tagaG
##salumina
tiniliw
##ments
publish
nagis
panagladingit
seks
intedmo
##onomia
pagbut
daldalan
Staff
napardas
arakup
kimmaro
prosecutor
ipatpategda
benepis
##elebraran
##amiliada
mangpasayaat
ramanenna
Munisi
##lisimiento
kinataona
sinaruno
Prize
##ablaban
Mosaiko
Tattao
Marshall
09
Hepe
Lag
Loc
Parag
Radyo
bust
congres
dur
dec
kagiddan
language
magi
trop
##uindanao
##ific
##PAS
##RM
##ink
##abatayo
##abutob
agit
agkas
agida
aduan
##omun
intaray
naisubli
naitaray
##atika
Dioni
maayayo
umadan
##awenda
Nov
Init
kinita
agbak
apap
##uartaan
##oliat
sabidong
Siguradu
##aduak
lugaryo
##yanud
awawaganda
tump
dev
binilinna
##AYA
agluto
katur
114
kumita
kumakanta
mapasardeng
panangaramat
##uyogna
##estori
Sept
eksamen
subject
daguiti
aggigian
##ield
pampanunotenna
plantilia
Komun
Editor
##erienda
Madakamat
iloko
##ukpukkaw
money
nakagunod
ibagbagak
ramanen
tultulang
Aleman
katrabah
personnel
pamastrekan
efod
ayamuom
agmalmalem
##waywayas
Ifugao
hearing
anomalia
68
800
Hel
Lom
Sugpon
baliw
canto
eduk
ga
kup
luto
nayaw
runo
##uur
##ies
##rupo
##patay
##walang
##aladingit
##akna
##aresto
##eteo
##apor
##ambi
##awana
##itda
##saadan
panagreg
inummong
taeng
nakersang
##abaa
##uktok
napino
##acc
kinaubing
maurnong
maatap
balabala
kaayayo
inab
##tress
nalipatan
tallaong
kayatmi
##angrang
##angrug
marunggay
##dalgo
kanenda
Taaw
##pirit
Naaman
time
simmardeng
trabahotayo
napalpalabas
panagis
dadackel
119
kumpet
managb
##kons
Nabucodonosor
mapagbalin
##aiskul
uloda
##ukbos
makaibaga
agballig
ipatulod
planeta
Boaz
pinarnuay
Maguindanao
20180
Security
garaw
Literary
imperio
peace
inyegda
##patanor
##ordinator
posibilidadna
mangararamid
masinun
sedro
establisimiento
Artates
Maitunos
##evelopment
tignayan
kalaingan
medalia
Pel
Pona
Zone
edision
fer
salakniban
##au
##sus
##ratar
##nto
##IAN
##79
##UYO
##tif
##alpal
##insab
##angas
##anguan
##tosan
##lipatan
##sidan
##not
##usanna
##uspos
##ording
##nakto
##ilaw
panagturpos
inib
inkas
inwaragawag
##iporm
##igor
makiti
nailawlawag
##atignay
panangrambak
umel
##ird
##pound
agbanag
pangis
##boanga
impukkaw
##lanes
pannakait
Naipan
pagserbian
nagsasayaat
absalom
mineral
naindagaan
Siria
suport
supsupor
lawlaw
masaktan
sinak
sinakup
maispal
nalaklak
agsublida
pagbatayan
book
##aritano
indaton
Midian
pinalubos
Road
##endasion
natakuat
Castillo
sitatalged
##agumaak
emosional
nangidaulo
kalinteganna
Translation
California
Innem
implementasion
alicamen
##aragoza
Ponapean
64
95
Bil
Bayam
Development
KAL
Ms
Yan
kud
mess
story
tex
##lana
##sara
##ganna
##rada
##reng
##dras
##yek
##van
##RS
##agari
##aket
##atao
##adek
##torista
pannag
##inaay
##isyon
##igket
mangliwliwa
makon
pagduaduaan
naisangayan
##upag
##asiam
komb
##aniaga
mapagna
##sursurot
Indi
##anaganna
kalub
agpampan
##truction
nalukay
matagiragsak
Amb
agsingsing
kapid
tract
##dinn
retirado
lugarmi
kontak
akindaya
##yanninaw
agkik
##isisem
agdaliasat
panagkunniber
Makan
Moz
##iktim
bumallasiw
Samaritano
cararag
midia
nangipatulod
##ATAN
##watwat
##portable
Ariel
Partido
sensilio
naibilang
Peralta
usarenna
nangngegda
gumil
tatangko
nakababain
padasen
sukimat
panangsanay
nakitam
Mannurat
responsable
mawaw
nabasak
##libro
inararamid
kamalig
Ruangan
lehisl
economic
electric
Cavite
##inglingay
tagipatgen
samiweng
79
Bago
Dex
Gas
Oly
Som
Tuloyna
bati
beh
caw
dadda
destina
kultural
pintas
sw
tambak
uno
##sol
##rasa
##panag
##yanna
##baba
##EB
##agu
##agaan
tigtignay
##akanna
##adp
agduma
##osopia
##ingin
panagari
maisak
##imento
pagadal
##ungsod
pannakarambak
##alakanna
pasig
kaam
##tayeg
##pannuray
talugading
Impan
pinutotna
##nidad
Pagdak
mangipakpakita
Nasapa
nakasakay
aramidennanto
##verage
inyebkas
Samar
pakasarakan
bandera
##istrado
sekso
##apayagna
atmos
##candia
dimmaray
1997
bendisionan
panangibaga
maparmek
##rimaan
##inggor
dengdeng
##ideoke
sueldoda
balota
##holdap
kaarrubada
inkeddengna
##awaswas
KADI
Alej
minatay
mission
pinagbalinna
panagtutudo
ikagkagumaan
##anglanga
Claus
##traktura
Irish
##dakiwas
Villanueva
Deng
Gran
Hon
Ham
Laman
Leo
Matay
Moral
Urias
equ
flash
open
sunggo
uvas
##kong
##itor
##buong
##viron
##Pag
##tition
##ennek
##atl
##angoy
##aweng
##urch
##ulsek
##uday
naglasat
naguummong
##ingasaw
maiturong
maiwaras
maidanon
##iken
##roc
##lock
makinamianan
##ungpot
##uprup
pannakabal
##ugod
##apanda
panangsu
nasaksak
##irang
Agg
agbabb
ipangpangruna
arpa
##rison
##ehe
natal
pannakaipatungpal
narekobre
##ursurok
konklusion
Nakak
##aysayna
units
Awanto
##arakup
##atake
panagserbina
abus
makaparegta
nakapungtot
bumisita
mayarig
sarsar
sangoananna
##agrado
maituloy
Mapat
sinaona
intedko
ipatungpal
takem
Basta
luppo
Agserbi
panagserbida
Pacnis
Laglagipentayo
##abagian
awatenna
ipaayan
ipalawag
siaayat
Kakabsat
##alinaay
Constitution
kadaratan
gadget
pakawanen
Taiwanese
natantanok
botelia
##hinia
bronse
Dati
Omp
Pap
Pep
SARITA
Work
audi
bod
danag
ganan
jeroboam
lul
tawag
uong
##lal
##iyon
##dos
##by
##wal
##aylay
agsu
aglemmeng
pantalon
##osyo
panagparang
integ
##igu
##ibal
pagbi
pagdagus
##abajo
##ukoman
naipanaw
napigpigsa
##alisi
nasapsapa
ist
##patok
sumar
nabilang
nabuangay
astro
Ampat
Amammo
Immas
Isla
pannakaiparit
sinerrek
Espe
mangipaneknek
adaddan
tagaM
Luz
##ADA
lasona
Nangis
adadal
senial
literature
sublian
Israelitas
Kaadd
##kawes
1999
popular
makabasa
Contin
inawatna
##angadua
kinataotayo
scene
Umayka
takiagna
lisensia
sidaen
Itultuloyyo
pagkamangan
katuganganna
ladladawan
nalamuyot
reputasion
Kriol
agipatpatarus
Nazaret
Iraq
ibubusor
Olymp
Ompong
717
Batang
Kek
Ling
My
MAT
Reli
ara
audio
fee
hedkuarter
kuman
line
lapayagna
madan
##aad
##salaknib
##kut
##wood
##EF
##tiv
##asug
##allikud
##inete
##aian
agduadua
##ural
##ulada
##elas
##udp
##itar
naggap
nagpositibo
maimula
maisardeng
maibalud
intension
nakon
paggar
##acher
##redi
nasinaw
Diosna
##sure
##pog
pasayaat
kabassitan
talged
##turayna
agsagana
kapurok
nadekket
rev
annaktayo
##kasyon
mangipakaammo
Alur
ayatda
Maammuan
Mainayon
##regta
canaan
katanokan
naipadto
pattapatta
Pasaray
mapasayaat
##appeng
kodigo
idol
kararagtayo
dimtengda
kararuak
##eries
mangparagsak
capitan
titleK
##simpa
watch
Pinagbalin
Village
sagsag
demokratiko
travel
cacabsatna
Service
Zamboanga
scholarship
PAKAS
Gonz
Ampatuan
BC
Farm
KAN
MAP
Ner
Neg
Pe
PM
Rac
Zaragoza
dasig
doble
green
pup
rob
trib
##sta
##pona
##ded
##waya
##je
##OK
##agad
##entr
##arab
##adb
##etry
agdeng
agurnong
##siim
##urri
##eser
nagtalek
nagdaliasat
nagdalan
nagtinnag
##ingayan
panagdalus
maipasngay
##ipon
mangpa
##uther
pagti
##ungani
napait
panangim
balik
##maut
##ebes
kablaaw
nabaliwan
nabalitokan
Naglibas
##intek
maikawalo
##heel
relig
Nakat
##itimo
Naaddaan
Abu
ngip
agala
Qui
##ligence
nakasaganan
##estino
biroken
##abante
carcar
Pass
kumaro
nagkaykaysa
Inap
araramidek
milia
##aranget
pannacac
##abbongan
##ginia
kababalinna
kasapulak
kinabileg
ministeriona
##akpakadaan
buyotna
paggas
samaria
buridek
Mabasa
pilay
kidney
Nadakamat
kabiitan
##lege
Panaginana
aggatad
##utrision
reporter
Hakha
Ernesto
Bl
Eleazar
Fund
Feder
Goliat
Hor
Lalaki
Rina
Tuguegarao
bukot
esau
haiskul
mel
okup
parambak
sor
va
wayaway
##tulong
##yle
##elia
##daaran
##alas
##alib
##insa
##angina
agsa
agkan
##diapan
##adalak
##rida
nagtipon
panagwaras
panagrikna
maidilig
inang
mangbirok
nakaay
##ubil
##oth
kinaagum
maipalubos
##anito
##bagkat
kaasping
inaunaan
##amansi
##paysuanna
pinanggep
bagiyo
Mais
Pagari
puspuso
pannakaupay
##annel
nadaeg
##INS
pakasdaawan
Singap
taraonda
nacas
ammomi
Kabuver
intel
sikog
##ukbab
315
agbalinak
Nagsardeng
Aramidem
laptop
diket
##dianu
Nagbalinen
##eeting
panangikagumaan
Distrito
kalkalsada
##esteros
liklikantayo
Christ
nainginget
nurse
PANNAK
Congressman
opisyal
chairman
barito
goods
Pagdaksanna
Lamanite
Kabuverdianu
DW
Fa
IT
Pl
Pug
PAS
Plano
Tulongan
kulibangbang
sta
shar
sement
scam
usigem
##mingan
##dro
##WA
##ayayat
##agis
##alumamay
##ateh
##amek
aggar
agila
aganak
##dido
##urim
##unongan
nakib
##atiddug
##upsa
pannakigubat
##rey
##tex
umisisem
##epdep
mapadayawan
agtugtugaw
Inda
Inka
saksakit
ubbaw
##angrat
malukong
narangay
1919
1950
##ilangil
##anggir
##aduapulo
namitlo
##sianiko
unit
maibabain
##agnapagna
Albert
##tikaan
biit
tinulong
maawanan
##kalap
nagidda
Apayao
lamek
linlinteg
sensi
Arabia
nakalukat
nakalibas
##aritam
Angelo
naitabon
##aturpos
tukak
##UMA
Binay
Komentario
raem
Tamar
pannar
panagbalinna
##ensya
Mesianiko
pagbalinenna
naammuanda
publikasiontayo
kaykayatda
workshop
agkarkar
Month
Leone
pannakiuman
##ingkedan
January
naaprobaran
kapammatiantayo
kaputotanna
Public
Aguinaldo
Hidalgo
paggugubatan
trumpeta
benepisario
Bes
Gam
Hu
Jul
Numan
P8
Palan
ST
buli
fil
lektiur
sm
##lup
##gud
##uayo
##rda
##num
##dayo
##dot
##bukel
##balakad
##caya
##ford
##OD
##42
##MB
##EP
##UIO
##agsac
tianna
##aki
##adcas
##apis
##apol
##eregta
nagdardaras
##isai
##egdeg
indig
manangallilaw
##igr
naiwar
##atita
##ayatmo
##alida
kinaj
maang
maabak
##epep
##icio
##icabil
kombinsido
agpapa
agpalaud
kabil
pagibasaran
##tulid
Nagpak
Amor
Amnon
##ehas
nagbasa
biagmi
##manon
malaglagip
##angguad
Nakab
##urayna
mabag
##elita
##AGA
panagsangit
itulok
canc
##inaldaw
panangammo
##ATAYO
agtaltalinaed
ammana
namnamaenna
##ASAP
naibilin
patigmaan
pulitika
labanan
mangidatag
acab
akinruar
apagapaman
Election
ministerial
kayong
stud
mariknatayo
kabaruanan
ipatpategna
cadagidiay
Nagkaykaysa
seguro
awatenda
buneng
Lorenzo
Pimmusay
Lakasa
##gunamgunam
nakaamamak
tarigagayan
##rotektar
amirisen
KAPIT
inspirasion
interpretasion
##aranudor
nasaksakbay
Cl
Dayo
Hol
Mina
Media
Nangruna
Oper
One
Padi
Pao
Piment
bed
dunor
irig
nadal
pabasol
ran
salin
##kadagiti
##bul
##walaw
##AC
##Ur
##ague
##astal
##aksakit
##innal
##diatan
##uraw
kaduam
##umiso
##untaan
##elar
##egp
##unal
mangsu
##ibker
pagungar
pagkargaan
##atiwat
anyos
nasged
nangbangon
agtakaw
##uarte
sumina
sumardeng
sumungad
##tayag
Isaludsod
##ucad
Isut
maragsak
Nakaragragsak
Maitutop
naminadu
mama
palagip
angkel
simmina
##atakaw
makapabileg
bayadna
bakasion
kitaenda
gradu
Kenka
kakabsatmo
agladingit
katulongak
tagaE
kabsatda
iyaay
dinungpar
Panagadal
mapagpiaran
Ammoda
Ignac
##damili
relasionyo
makagteng
Nagsagrap
depression
napasaran
dimtengen
##arrub
pampanunotem
mangsolbar
1990
organisado
irarangay
tawidda
milyon
##erreng
Section
1972
marisut
ibilangda
Hapones
makigayyem
Filipinos
##olfo
ocom
rinaut
aywanan
matuladtayo
kapadasanna
CS1
tronona
tinawtawagan
mikro
Pimentel
Balaam
Kh
Nations
Oto
Power
Rem
Sic
SPO
UR
Ubing
cy
dalem
educ
hay
jeh
rabi
we
wai
yanda
##kulo
##ms
##ugal
##if
##bista
##ct
##aspas
##aksid
agkanta
agbirbirok
##unnoy
##uslon
##elasion
nagam
##osek
panagyam
maisal
mangiwayat
makasang
nakabalud
nakaturog
##uppat
##bias
panangr
##surona
Intultuloy
kinn
matac
##aganaka
immawag
imminum
maikkanda
pammabalaw
##coc
##kasang
sinulid
umilina
palma
simmangbay
panagsakripisio
aniat
sagrap
##abannog
##rena
mapasubli
mangisagana
Mangted
England
ammuem
matayto
nakitac
ingget
Persia
##gamanna
##aingel
##dumog
makaigapu
##cararag
relasionna
Maikapat
desisionna
dalanda
1995
terminal
pimmanawda
##mith
nakitami
stations
panangtungpal
Dumteng
agdagsen
buyaen
agkarkararag
##adladaw
agiinn
pungto
##otensial
Virginia
foot
Sarah
nangiruar
kabalbalayan
pagbasaan
##hetayo
Flores
Peninsula
bautismo
citizen
kinaimperpekto
panagkasangay
panagpipili
Eastern
delikado
Marshallese
Batangas
10000
BAR
ft
kuko
nanto
sob
subli
##oon
##fo
##fia
##WH
##enen
##apsu
##apuso
##aime
##silan
##disiplina
##uroc
##ulawan
nagatang
inlemmeng
makindaya
##acio
kinabal
kinasipnget
panangsakup
kadak
maup
major
##atayna
##ariribuk
Anth
ipapa
##lear
ayuda
babasaen
karton
Arc
##pakaammo
kampos
case
##subbot
Kristianismo
Nasarakan
natayag
nagpaay
puot
bumaro
aglabsing
nainbolbar
##unggon
##azon
nagkiddaw
Joey
adalentayo
lasagna
nadakamaten
##eksek
operasyon
calpasanna
Immanges
konstitusion
##uluanna
##kolekta
Nagserbi
regget
agtawenak
apagc
##sawaan
maawatam
##agpag
##venue
##iranud
tarakenna
panamag
dawatec
mental
kangatoan
##organisar
##balligian
bangbanglo
Ballesteros
itutulong
masinunuo
Continue
sagsagabaen
kamposanto
CAB
Cuban
Eb
Edo
Mismo
Nasi
Pet
Ron
Surot
Tur
abag
ginas
gunod
lino
ot
pala
tsek
world
##pasiar
##TER
##asatan
##agidaw
##inente
pannang
##usticia
##ellow
nagdisso
##orinto
##orazo
panagturayna
maig
mairuar
saankon
mangbasa
mangaskasaba
didak
nakugit
##itation
panangikasaba
umin
komportable
##ariat
Agtalek
pass
Chimb
Christian
##anaygay
ark
nataltal
kapamilia
balayyo
##ananeo
pinilit
pinuor
##dega
sindi
Naisangsangayan
##lase
##agmak
insapat
Napaliiw
barikes
##ENR
binig
binendisionan
##estia
agladladingit
##dudua
125
target
##alekto
bendito
Panags
silpo
mapagtalinaed
Ukukom
##eksyon
Georgia
pannacabalin
patienna
##AWAG
Tignay
1991
naturog
##aybayag
sanikuada
Naduktalan
icc
makaruar
adunto
trabahom
Brook
Europe
bugas
agisuro
Nangala
Insuratna
mangayaywan
Award
liplipatan
ipakitatayo
##nuayen
Labor
helmet
upland
mangkontrol
kaimudingan
pagtaktakderan
tuktukoyen
pagassawaan
##jects
Probinsia
Rehoboam
Kekchi
Singapore
sementado
Palanca
Ignacio
Chimborazo
Agal
Nio
Ninoy
Ol
SI
Smith
Tri
Tulad
deb
foreign
haan
luk
lol
potensial
suma
sand
sayang
tuok
##langitan
##matan
##uh
##ECO
##encio
##agian
##aks
##arem
##angta
##abab
agmaneho
aginaldaw
panaka
##unta
##riend
##iten
nagtar
kaser
kasangay
##ingina
##unasan
##imum
##ikami
taona
manu
##annalon
napnek
naupay
##uloan
maawan
umuneg
##terio
ass
karga
karpintero
aramidecto
natakawan
##manamong
maluktan
Naikari
dakesna
bayakabak
Maysaak
nakaidda
##sabet
datao
aglugan
##pain
mangisubli
##dakkelan
Azarias
##ablaaw
pannakabukel
operatiba
Gentil
##mbukel
##ngayangay
dacay
maicapito
EDSA
agpaspastor
##earch
##unganayan
Agpapada
ISO
sosial
katulonganna
loh
bola
likudanna
##andard
Mexico
panagtitinnulong
Canaanita
pananglagip
Inikkat
elias
kandidatur
litro
incabilna
boksingero
permit
Situtulok
Determ
sipapakumbaba
parametro
BAGUIO
agsingsingir
Mapattapatta
##ASAPUL
##Urnosen
Bigbig
Flo
His
Jac
Jaime
KAR
Kordero
LA
Lilia
Middle
Nayon
Octo
Rol
abak
boy
datar
drag
fre
les
pid
punas
wall
##ladaw
##ngem
##deo
##tikar
##inet
##adagsen
##adladawan
##eton
##abad
##toben
##aipaay
agimb
##sida
##nogan
##estr
##umog
##umanggi
##itasion
##inali
panagbay
panagsukimat
##ikulo
mangig
pagbayad
napay
##acay
##rea
panangngaasi
balbaliwan
##asaona
##garet
##sobispo
apagisu
##migat
kabuteng
pakpak
pakigubat
pakarso
##talim
Nagg
Nagr
Naglaon
##dog
##ANA
March
##ribuc
immapay
##naca
sins
Pagyaman
agkalap
Alvar
compani
##sisyon
##sismis
binen
nakasuan
lakayen
Siensia
sangoanam
##peon
##urkur
##nanaed
madaydayaw
pluma
nalablabes
mangitagay
##ruaman
maiserrek
eksam
intuding
permi
langen
bitbit
tatangmo
piliem
kilos
Napanunot
kampana
Convention
kuartona
Nakaskasdaaw
agparparang
##asarac
Patric
Leonar
pangaldaw
dinakamatna
nangbukel
kontrobersial
pagsilawan
naingpis
evac
##ustuak
transportasion
Paraguayan
agbabbabawi
okupado
##walawwa
63
AWAN
Bang
DI
Des
Fab
Home
Ipapan
Ke
OP
Paliiw
Ruto
SO
dela
dagsen
daniel
egip
iwaras
kati
lord
peo
raraem
##dr
##Ngem
##zcaya
##CP
##timek
##aludsodan
##anglang
##etayo
##apac
agre
##urayan
##unna
##eltay
##uduan
##idkiddaw
##ompara
panagdal
panagrigat
maisina
inurnong
##kuas
##olekta
##paso
nangasaba
umununa
kompanya
iskolar
gaputa
##ariona
##ecia
apartment
##olitikaan
nalawlawag
Nagsao
Nagtugaw
Amalek
##ehir
##ahu
agsarita
Daydi
Daytay
lalona
realidad
ibungana
mamaingel
dinamagna
tuman
natayda
##paayan
dimsaag
##urongna
113
##INO
Danilo
##angatoan
suot
##padamag
ekspektar
coastal
Order
konstruksion
pannakasanay
agtalinaedda
##ABS
segundo
termin
mangikabil
agtuturaytayo
Tinulongan
imported
agsigarilio
kudilna
agtigtignay
##abautisaran
kiniddawna
critic
pampubliko
System
makapasakit
##UGAO
engineer
Tsino
pannakidangadang
Gumil
obligasion
Nangibaon
assistance
##turodan
agkukutel
Bombo
Christmas
October
Rutoro
97
BAL
Gang
Hy
Miri
Nu
PARA
Rolan
ai
bai
cadi
gerra
jeho
lub
pari
papa
patanor
ramb
ranggas
sona
taming
unas
wh
##sanda
##tagna
##nic
##pungtot
##vey
##cana
##SER
##58
##41
##ender
##akal
##angona
##amanna
##abilidad
##umbi
##itakit
##orona
panagtal
inkan
manakem
pannakadalus
##oline
##okami
##irut
protina
Agsao
##teran
agpabautisar
nalagda
nalmes
Nagpa
##turod
estudi
##toral
Arno
##respeto
##kastoy
konektado
kinunam
Esc
motorista
nangal
nagsapul
bayam
nagpac
nakasango
disposision
##bantayan
##urodan
##alipat
116
representa
nagtut
##marka
naway
alaenda
kagura
estat
sapata
akinuneg
##awlawagan
Impadto
Bareng
maparagsak
##deskribir
surotentayo
##tabon
nariing
record
nagtimek
tugawna
Umaykayo
nairana
heat
Building
##giddan
namnamada
PCSO
mangimatmaton
Mangisalakan
Charles
##Arroyo
Enrile
kasisigud
mapagnaedan
companies
Miriam
61
71
72
81
Bud
Dennis
Isurat
Lon
Pampanunot
efa
ginget
lamiis
tree
##oting
##pres
##bes
##bum
##Kas
##MAT
tiket
##abugao
agungar
##urduron
##adawen
##rigation
##isap
##nakon
##unami
##imo
inu
indeklara
diabetes
##ibi
pagpas
pagtu
imayo
naikuyog
naidarum
angaw
##rez
naarian
kinalaing
##ngis
##unosan
balbal
isalip
isasar
alli
agpakpak
##tayab
nabingbingay
arb
daulo
matal
##obernador
pannakail
naganco
##dengan
##kato
pinunno
##umbre
Naiy
Pagangayanna
mamasirib
Kasanok
pagsas
pagsasarita
timbang
Masursuro
nagsapata
panagsas
napalubosan
panagkik
adipenco
aramidenmi
annacmo
Saulo
maawawat
##INA
igges
Kayattayo
pakasarita
damagen
mangitungpal
Assembly
sadanto
sadinno
Malaysia
##gamulo
mamatida
rehiyon
tengngada
Thailand
ulimek
panagadalda
bodega
dacami
Nagsasabtan
motorsiklona
phy
tarigagayda
birhinia
burnay
kinasayaat
##ulapol
##puz
Madlaw
1945
pannakikamalala
yaalsa
kukuana
cararwac
P500
##kabilan
##libakan
maammuanna
Biak
Makitam
inyegna
sililimed
maibagay
##adadayo
##factur
##abpablaak
anamongan
KINAP
Mangaramid
kanalbuong
Diputado
lebad
pannakainaigna
##ilpilit
Innalana
Dominican
Mozambi
atmospera
78
Cak
Geh
He
Lugar
NAM
NANG
PG
SING
cabil
josafat
otel
stor
tom
##layan
##mengan
##mbeng
##nn
##gara
##alatak
##akrak
##inte
##atona
##abangar
agulimek
agongna
##erko
##nop
##uspen
##ekutibo
##ilag
panagngato
panagannad
maipasdek
inr
##hoto
makitan
##ramanna
##ungr
napuoran
napolitikaan
##rew
maamak
umimbag
##apullo
mapabasol
mapunas
kinnan
##piada
kalatakan
##sider
##trac
Nagannak
nagbuya
Ish
##utokanna
##ammomi
##ulib
kaka
sinag
namaris
##basbasa
mangipalagip
##allalagip
##riknana
##perador
Napag
itsur
makaunget
panagibangon
panagibtur
tulongannak
##eyt
tagaP
agasawa
patangan
pakasuotan
adalem
dokum
subs
patienda
##canta
executive
taginayon
##amatalek
makapagtalinaed
sibubulos
pungtotko
alip
emplo
pispis
Damasco
materiales
arapaapko
Ahaz
##uadra
##erioso
##agawad
impaayna
##yalista
taliawen
sililinteg
##chiquel
ragsac
Force
isaludsodmo
address
##aytayab
kaunegan
palpalas
famf
##uyakyak
Freddie
Tolentino
agsoldado
automatiko
usigen
nagluasda
korporasion
Pagarianna
Rolando
##teraneo
Cakchiquel
5000
77
700
Dada
Fidel
Langit
Pala
Ste
Ul
Ze
buc
kali
yaay
yaman
##ror
##nep
##nangan
##danda
##cao
##cabil
##walin
##Di
##DS
##engal
##entibo
##akbay
##angga
##liput
agdin
##sigarilio
##esman
##unday
##els
naglemmeng
nagreklamo
panagsisinn
panagrebelde
inkuyog
makilangen
##uttong
pagap
naimb
naidanon
##upanget
uminom
balak
##aniak
##aramaten
Inang
Indagadag
Agriculture
##mitir
talek
sakak
nagbabawi
base
baston
Marikna
immar
maikuna
##ulina
pammalagip
nadangran
narba
narugian
salem
addaanka
angol
Nasakit
##ranudan
Napigsa
ayatem
##ASING
nadawel
bendicion
naaramidanna
##tangken
Pangulo
ammuentayo
masaksakit
namnamaenda
makasubli
pinagungar
##ruod
sinuratmo
Igorot
dadakkelda
konsult
pannakaseknan
civil
naisagana
pagtut
naparpar
panangmatmattayo
agipadto
Nadumaduma
deklar
suelo
sueldona
Dakami
income
Kannawidan
pilosopia
nagpakada
nakagteng
mabigbigbig
Venecia
appoko
kabangibangna
taxi
kalugaranda
agturturay
pagnanaedan
patauden
DZTP
puntiria
interbiona
prominente
simboliko
kulluong
katurturodan
Immasideg
7171
cancanayon
sindikato
estatua
CCT
Eci
Gog
Kaan
Lid
Lik
Sc
Zed
bob
dinastia
say
yu
##aulog
##gimong
##kawan
##bano
##wah
##59
##PC
##agap
##ages
##akdo
agsig
##umer
##umlom
nagsar
nakana
nakigubat
napudpudno
umum
maipangato
##ebba
propesor
Insi
agpangp
agpipinna
sumabet
##olio
iparit
##tarayan
##intment
taltal
Isardeng
kapadana
narra
##anayonan
pinapanaw
kontin
Naisurat
Pagp
signal
aweng
##quin
##quem
##aliwliw
##isina
insingasing
abel
barok
##liway
disk
Prob
##arigatanda
111
##signa
##seas
##mple
##ernaum
Corn
Sinurot
mangibunga
Narikna
aglawlawda
Nabatad
bimmallasiw
mach
maaddaanka
kabusormo
singko
Basque
##adadaelan
ayayatem
pagkapuyan
bibiang
##ements
Adaddan
makiramraman
tawidna
##silnag
##adpadamag
imahinasion
Makaparagsak
tarakenda
utangna
Manny
##padagus
kinalatak
kaskasano
##ikedkedan
nagpatulong
konsiensiatayo
Ammonita
kakabagian
##endorso
##ograpiko
akusasion
##forc
kaduami
MacapagalArroyo
Coronavirus
emergency
katukad
inicc
Nebucad
##emisperio
Chairman
character
domestic
tumpuar
Alejandro
CABUGAO
Brooklyn
83
Bong
Ly
Lic
Lakas
Matulong
Namin
NAT
Overseas
Pili
P12
Sino
Spain
ino
isaad
inor
jebo
kuti
med
muli
ol
pesti
the
##the
##keddeng
##med
##uta
##ier
##ire
##ness
##nshop
##No
##ayray
##arong
##arra
##angken
##abar
##aiman
##limo
agen
nagtakaw
##osna
kasanom
##egna
adver
maimpluen
##ikaw
inreport
manda
saannanto
##rona
dialekto
##ibot
nakatayanna
pagbay
addatayo
naideklara
##acy
pannakapa
naayaban
##ugl
##alaka
agtubo
Inruar
agpukaw
Chang
Ilokos
impakpak
##doy
parbo
balayko
Siguro
kamo
##anggana
kontento
mabuya
Naited
akseptar
gobiernotayo
##allati
Kristi
dumna
Napukaw
abono
Mabalintayo
pakaidayawan
nagpaut
bakrang
grabe
Simei
##baaw
elec
##kalima
kumamang
madangran
urat
darik
militante
susik
demo
Medical
makisao
makinlaud
planona
planoda
Nephi
ikankano
bagbagitayo
lapdan
napagbalin
Educ
agibtur
siddaaw
##arming
Rox
##ariganna
##endent
nakadep
Agbalinka
denggenyo
tengngedna
Bernabe
personality
Imbagada
isemna
kontrak
panagtitipon
Capernaum
pesos
olona
magusg
ipakitam
Numeros
Impalgakna
partylist
imbatina
kinamaag
Sikem
makitkitana
agdawatac
manugangna
Kaipapanan
kapuonanda
ramramit
total
Naammuak
sintomas
tangke
bacbaca
Lomwe
behikulo
pagbiagan
manufactur
Determinado
Ecija
62
Cuadra
Ding
Fe
Grado
IL
Kagawad
Lis
MAS
Member
Vez
Wri
abal
alim
finan
maram
pika
rub
soli
therap
##lata
##kep
##cu
##asut
##umers
##usom
nagu
nagaramat
##osen
##istay
kasilpo
panagtugaw
panagbayad
##ipiko
mangpakawan
mangliklik
mangbigbig
##ibinn
pagtur
napimpintas
##upud
##ols
##aliano
kinaso
panangsar
nasaon
maiparang
ball
isudan
mapak
##ayanakan
Agduduma
Agannad
Saankami
kalesa
panguartaan
ayanda
##pante
Kinunak
pannakaipatakder
##angrangay
pinna
##amban
saluyot
sinuratan
Maipaay
Nait
addaanen
agbalinkayo
##sublin
nangawat
##rikal
simmarungkar
insentibo
mangam
puor
panagisuro
barangays
kumurang
panangamiris
promo
problemada
144
rumsua
Ammoyo
ulok
##logist
rimmangay
makipagnaed
kolonia
##undar
nailet
dimmawat
maika20
bangkayna
extra
ragsakna
1992
Fiesta
##mercial
##165
maawatanda
Roque
abayna
##ngaasiyo
Caleb
laglagipen
Puerto
mabalbaliwan
tultul
##aksiat
maitulongna
Virgen
komplikado
Dagupan
Bayani
pakadanagan
sititibker
insaadna
epiko
purpura
Jezebel
ibibisita
tiempona
Kolum
Mabasatayo
resources
agdengdengngeg
religious
KAPITULO
73
Apar
Basao
EC
Ipalubos
Mama
Nac
NAL
Papu
dudon
kuma
meeting
tun
tor
tela
utoben
vir
##oa
##kuk
##iana
##hini
##Man
##BI
##agbag
##ardo
##abang
niebe
##aida
##lie
##liber
agriing
##sib
##rimat
nagrebelde
##isal
##inglay
##ilustr
lacay
##ibileg
pagpastoranna
napupuotan
naab
kinasing
nasukatan
##onary
##atayon
agtataeng
kalikaguman
##laki
apal
ipamatmat
nabuntog
import
matuloy
##ehi
paragsak
parnuayen
##balaw
immanamong
Araramid
Artic
##ulila
imbangon
saluadan
##petteng
##rant
Maaddaan
Pananga
agab
binaybay
diosna
nakaipas
##estiona
pannakapaltog
sarucod
##alipan
tagaIlocos
napalabasen
panangap
Kinaag
sacrific
adalak
Efe
##iller
sinapat
inaladan
ultimo
bimmassit
kadaydi
##usionario
##ensiana
dalag
##achin
binasa
##apektar
sursuruen
sursuroten
nagruknoy
##agpagna
Concep
Reyna
Mabigbig
mayanatup
maallilaw
tagtagi
##enny
recording
ilocano
Insungbatna
agtartaray
##eskuel
##arsoda
umanayen
tultulongan
sasanto
forum
Purisi
mangdangran
magatgatang
Alemania
siguraduen
##loyment
Oplan
##kumurang
inawaganna
mangiturturay
Hezekias
kostumbre
kaeseskanna
Ususar
Galician
Local
201809
##UYOG
terminona
Jimm
Kadua
Kachin
Mc
NAB
Pangr
Palubos
Rino
duyaw
jeb
lung
maman
samp
wel
##det
##yada
##ander
##nada
##asona
##arimaan
##apaw
##taeng
##aiwara
agulbod
ageskuela
##sium
##essional
nagap
nagudas
panagayus
maidaydayaw
maidaton
maidatag
mangged
makais
##ubuay
imbal
impatakder
nailista
napanaganan
##asias
##icide
maipakaammo
isn
##adium
Insik
##angayed
##siderasion
apektar
kaing
sumagm
ipablaak
pangit
pagil
##uyg
part
##balinak
kapateg
pannakaipatarus
narikut
##anggaya
kantina
under
mangiparit
panagsakit
##uyoden
baray
##tha
lako
Makas
panagbub
bumassit
maymays
sarungkar
##berano
supapak
agtacder
##lismo
Asinoman
Anakko
nakalkaldaang
naisalip
##alisto
panangpili
agtawenen
lawasna
##cies
killo
Ipaay
Andong
maparnuay
AGT
edadna
malagipna
naawatda
panangsalaknib
agduyos
PagwanawananPag
industri
awatem
ipauneg
kaykayatna
ugma
Linda
napanunotna
ipaneknek
Dandanin
kabukbukod
nasarikedkedan
Team
Rummuar
agsublinto
makitkitak
nagapuanan
CDC
apagkapullo
pannakipagrikna
##amamkan
Alvarez
darikmat
PagwanawananPagadalan
3000
DP
Dami
DENR
Ek
Jah
Jack
KUNA
Napno
Nilo
Purok
PANG
lu
leddaang
numan
pic
patingga
psy
regta
rurod
win
##tanna
##daya
##yen
##cc
##FC
##enka
##agili
##alth
##akman
##aruan
##arma
##intayeg
##etas
##etso
##lipat
agunget
##erng
nagastos
##egnas
panagapit
maim
intan
inlako
ingato
##suor
##edom
saanmon
mangsukat
##utput
nakaragragsak
nairuar
naisaad
##alitok
##alities
##angalang
kinadang
kinatangsit
panangpadakkel
nasurot
nasamsam
kadata
alalia
Agency
Jessie
kabileg
kaungg
arkos
kakaasi
konteks
Nairaman
ibain
kasanoda
##pektura
##rikultura
pannakaingato
##annayat
nagsaknap
simamatalek
napanak
makapataud
damona
sibuyas
limtuad
##warwaras
##ueldo
panagpangato
ilunod
Mountain
canawan
Project
asawada
patad
Mangib
##ATEG
Inawis
Aser
##kettel
Vizcaya
agbiagda
Org
##cantis
pagtataudan
depekto
maika19
##AWEN
cont
ayayatek
ngiwatmo
##kitkita
##biruk
agpasakup
limmasat
ipatpategtayo
Caldeo
##gerger
groto
nagnaedda
##orneo
Kadatayo
dinadaelna
pananggunod
general
Management
tubbog
##romiso
##enous
organic
kangatona
marikriknak
nasarakanna
People
binangonna
nganngani
timpuar
emerhensia
president
paniempo
inanama
insienso
soldadona
siaanus
matutudo
novela
##utluto
September
gunoden
jebova
900
Bato
Beach
Celia
Febr
GS
Iran
Med
Meh
Omb
PA
Puman
Tor
TRA
Wall
cawes
host
honor
lut
of
qu
sagi
sung
tamm
##kib
##pab
##pro
##wes
##55
##ayaan
##atpat
##liwen
agngayangay
##urdes
##emmeng
##elle
##udsman
##oste
##orasion
##ipit
manna
##suko
page
pagla
##ational
##acano
##otam
##andatayo
nangnang
master
masukatan
komision
##apulanda
kalk
agpip
pagib
Nagbiag
immuneg
2022
narab
##uratayo
konduk
kansion
##opulo
Abimelec
Nasantoan
Max
makapapatay
##abawyan
##ware
panagkitak
panagpukaw
pannakapili
sarday
kasasaadtayo
naipamaysa
eleksyon
Trabaho
kump
Ayna
nagkari
agtawid
kuartada
Apok
Apostol
##apatpateg
Bulan
rikep
caac
##ugoten
cunada
aggagayyem
anghelna
##alisado
kuriente
makalapped
##aign
nasisita
##ngaldaw
organisasionna
street
##taming
ipasimudaag
maalada
##ukpok
situtugaw
cararua
##ampanunotan
Manager
insurance
pannakaibabain
pinapatayda
kandidata
Pammaneknek
Thom
homosek
Milagroso
##rogreso
nasaktan
Pranses
Hotel
Badong
##ground
Nestor
Grace
kandela
biblioteka
London
SINGASING
DPWH
February
Ombudsman
3rd
514
Av
Bug
Bangu
Cot
Gib
Human
IV
Land
MIL
Nadadael
Ramb
Rama
Sangk
Tai
Tuga
Yap
abas
get
jez
kli
mali
nabalin
padanum
rac
sat
spec
tasa
tangan
tapi
vacc
##lasion
##luko
##hers
##SION
##Amer
##DO
##BP
##BM
##tiw
##agagar
##aybalay
##nasion
##inp
##angsit
##aduyakyak
##aplit
##ern
##urnongan
##rigan
adday
panagkar
maiwayat
##ikabil
diario
nakom
##uksilan
nailansa
anto
##kuenta
naagum
naamo
kinatar
##bigat
panangbas
panangocom
maadadal
maingato
maaramidam
balbaliw
##aniata
Ind
kalmado
sumarungkar
ipapanna
inarakup
Church
ayay
##uyan
Addaak
reader
Naidumduma
##gapuanan
##yante
##taka
pamiliatayo
kunaek
##abilbileg
mamaayna
##itol
pannakaabak
##ungpalanna
Napas
##uenyo
itungpal
##wena
nakairuaman
##sabali
##ormasyon
##gedanna
##gedanda
minor
Produc
katutubo
101
##petision
datonda
nanam
nagkur
bank
panaglukat
lawwalawwa
maitultuloy
Italia
Permi
pannakasal
250
excise
##ailayon
kararuam
PANUNOT
agkakap
##apital
piliten
nasiona
administrasionna
##rebbeng
##ennakami
puestoda
##apasap
##ustry
Rowena
##asimudaag
mangparmek
pannakaawattayo
mainugot
cadagidi
maipatulod
Laotian
tengngana
scrip
Kadagita
agtalektayo
digo
detalyado
appointment
Merced
lipaten
kapanunotanda
drivers
Henry
Sibibiag
agamak
airport
rabong
nangipasngay
citizens
##viser
pangrabii
Kaipapananna
pagiddaan
agdepende
parmeken
lansad
agraraira
kabesera
##angrugin
body
July
allilawen
Ishty
kinasoberano
##ilustrar
Cob
Fort
Fante
Front
GMA
Husto
Kim
Liklikan
Neftali
Om
Seb
Zabulon
bid
balin
dangran
igat
luana
mapno
mol
wor
##ving
##wick
##KO
##SI
##akarak
##aryo
##arka
##abid
##tore
agu
kadk
##engdeng
##engngat
nagga
naggawid
##ison
##nakem
adingna
panagkanta
##imaten
tack
##suit
##igudan
##ubbon
##ukkon
naidaton
##uppiat
##ugong
##uggo
kinatanok
nangrugida
##dandanag
##apulot
##aramac
Inl
Inayon
Agustin
kinon
espia
Imelda
idadakkel
##oganna
sinagrap
pamiliayo
##inees
##basura
Naangay
mangipakat
ikik
ikkanna
awitna
##dayon
compound
Maawatan
Umili
barrio
nakapigpigsa
binirok
Quin
##light
nakaadal
panagpungtot
tulonganna
Kunam
187
suspet
mangispal
agtalaw
maitungpal
##uranganna
self
sinapul
agbiagtayo
##logical
makipartisipar
caadu
dagayo
pagbib
maca
naisalakan
deposito
mariribukan
bilegna
Elmer
pampanunotek
naparnuay
Aramiden
agpadada
bibing
panangmatmatna
Dimi
aktibista
pinanid
pisker
pannakataming
nakipartisipar
petpet
pilpili
ipapanda
naiyalis
itultuloyyo
buybuya
ikkatenna
agtartaraken
Kadagidi
Chavacano
kakasta
##sionario
kualipikasion
landoc
Liza
sangsanga
kunayo
naipakaammo
##namnamaan
kasinsinna
sangakabbalay
timpuyog
Ginasut
Islamic
kallaysa
panlalawigan
bugguong
Panagkunam
panagsalungasing
suheto
##piker
allawig
ranggo
solbaren
kinajusticia
evacuation
##engaleng
Jimmy
konteksto
86
89
Atanud
Bamb
Babb
Datayo
Kalak
Kaduana
Sally
Saramac
TR
bung
caano
data
ilemmeng
mem
mir
ros
ring
siko
waragawag
##uop
##iety
##verbio
##SU
##Iti
##TM
##TR
##inonto
agna
##siensia
##isarita
##iling
initi
pagsid
nairugi
naiwayat
Diego
Division
##otto
##oles
Tiro
maallukoy
umutang
##oksing
masapsapul
siria
Agpar
pasado
sabon
karbenganda
##aha
Impar
##edio
natawid
Marquez
##agasatan
immimbag
trat
Arch
Aragon
maikeddeng
pannakailawlawag
nadangkok
##siputan
##matang
##iwang
kunadan
mamitlo
Nava
adig
pagsayaatanna
##elihood
ikagumaam
##awidan
pannakaad
##uenta
death
pakairanudan
sibilis
Que
nakaala
##ormon
basolmo
tarusan
##sigurado
Pastor
mangibangon
management
matayda
linabag
Nabot
likod
adat
Bulacan
sentim
213
pannakabuangay
agserbida
atda
pannacar
##akatkatawa
##talektayo
patibker
Medio
1996
##uybuy
Tour
##agidna
busbos
pannakatrato
20181
panaggibus
##puerto
annongenda
##simbolo
campaign
tulongannaka
second
naipasango
makinabagatan
##aiwanwan
##tobre
##ipintasan
Programa
Digong
shot
isaludsodtayo
AMIN
Numona
Kabaelan
salmos
lehitimo
testimon
agiwarwarnak
kustomer
Sinaludsod
sentensia
diskusion
copy
MAIPAPAN
Arnold
Zedekias
Vezo
Aparri
sacrificio
Purisima
Damiyao
Saramaccan
76
FDA
GC
Julio
Kad
Kuk
Moro
Mannalon
Oce
Son
Soc
bao
bagna
caduana
climate
dram
datay
lead
lumba
pablaak
yelo
##tador
##gu
##kilo
##usip
##rero
##nen
##yente
##bulan
##YA
##Bib
##ayanda
##ayaman
##aging
##amis
ninamnam
##liona
##erina
##awada
##unayna
##riribuk
nagdud
nagustuan
##idayan
adobo
maisaludsod
maimatangan
##imgimong
insaad
mannakaawat
saantayon
##wance
napek
napadayawan
napalaus
##upas
##kug
##ayatko
##yonar
##angaan
kinarimon
panangidadanes
##laawan
maong
maipatarus
ispiker
Inrakurak
##tery
pangs
impras
Nagpateg
Nagparang
sabangan
##doza
karwah
mabalinko
tawenda
esc
arida
##entecos
Marib
##obserb
immunan
agingganat
##helite
lala
malib
##sanas
kamote
##awaten
marunaw
Nakapatpateg
kanik
##embers
kunaem
Awanan
##qui
simmukat
Sant
Maawat
nakasurat
129
librona
##dekket
makitayo
grupoda
iyu
maduktalan
nagtuloy
mangitunda
##uyotan
agrago
calde
##lings
##AMAN
rehional
pain
gagayyemda
Mediteraneo
tagicua
apagda
maicapulo
dayaen
Kombension
iraraut
nangpapatay
##angpaya
cabayo
mangyebkas
##tock
Franz
maparti
mangilasin
Kanor
Marigatan
Agserserbi
Inkabil
levi
mangiduron
Tarabay
maalana
##amiliaan
screen
awaganda
##ampanid
##iwaras
pannakipaset
panagdaliasatna
ipalgak
##angatda
mabalud
impakaammona
force
matakuatan
nagnagna
tubngar
##reland
pagananayna
basic
pinanawanna
Birhen
Golpo
inggagara
panlungsod
barbarangay
Morales
##text
Isaludsodmo
maupupay
SOCO
pestisidio
##upudop
Concepcion
Cobangbang
##yonaryo
99
Bos
Basan
Cac
DAL
ILO
Kaniak
LAD
Lilong
Mays
Militar
Mormon
batayan
biktim
deli
giwang
ibal
iwaragawag
iwanwan
lel
lek
moralidad
pit
sunga
tultulong
ut
##smo
##ox
##madlaw
##rgy
##nik
##cn
##IW
##Pro
##DUMA
##titipon
##napan
##asbassit
##algak
##arth
agkuti
##uruan
##uns
nagdaydayaw
nagsukir
##iden
##idnap
##orehir
panaguray
maitured
##imuda
inanam
manangg
mangitan
##uken
##uper
##apunos
##raen
kinapas
panangsuporta
##danton
maprotek
paman
##patulong
provin
agtat
kinitikitan
##mito
kabus
ipak
pangukoman
naluom
Nagdakkel
Nagangayanna
Market
naganak
kaniada
##payag
maladaw
##caz
##kasigudan
sinukimat
Naimas
pannakaukom
Masigurado
simmabat
##anner
##mentar
grup
panagpusp
aglab
canen
sustansia
Pasipiko
Corpuz
##antara
##aykaysada
mangisurat
mangisayangkat
rumabii
araramidentayo
maaramidanna
darang
Singasing
##atinggan
saludsodko
Imbilang
rebba
##apatangan
Bulkan
##imaton
pagbeddengan
##essem
Oktobre
Timp
kawitan
demoni
tagiragsak
Bethelite
##insulto
##ustria
agpayunir
##ripisiona
simrekda
pagkurangan
mangtulad
ngatoen
Napaneknekan
lienzo
nuebe
Damara
materials
pagbalinan
ISECO
buksit
municip
nakisalip
nobia
natakneng
Supreme
Lourdes
Global
sector
Bank
Nakarkaro
pannakiabig
insungbatna
nakadanonda
makibagay
naimimbag
##AOAG
mapanunotmo
nasarac
masursurom
accoun
Maipanggep
Nakapungtot
Impasingked
derrep
aggatgatang
naisalsalumina
pinullo
##amination
granada
Kuw
##aykaysatayo
organiz
private
##iporme
##ubileo
pannarabay
Anthony
napaypayso
CCTV
Kristianidad
##hiniero
Aukan
Binal
Lolo
Lamang
Mem
Nagsak
On
Oras
Pentecos
Sul
Sia
SEA
Tad
Vin
gemgem
nabaelan
parigat
pugot
tuc
##sanay
##spot
##katan
##uangan
##ease
##ju
##San
##500
ting
##gaak
##agiben
##alana
##atro
##ettel
##abigbig
##abkabil
paneknek
##uleg
##ritir
maisar
indagadag
##eddeg
mangrug
mangpanunot
mangikasaba
dialogo
amammom
naiturong
naisardeng
nangim
nanginngina
umatender
##epkep
masapa
##maag
mapadas
##poda
pasardeng
kabat
nalapdan
Nagnaed
##eher
##ehic
agsan
natudingan
Marco
immatender
pannakaik
pammatalged
##cozias
##respon
kankanta
agbalindanto
namsek
Naamiris
pannakaap
agdamag
ngilin
ayatmo
devel
mangab
aniamanna
121
katre
##monitor
natibo
##innar
mapasaran
anacmo
programana
maitudo
suer
sinabat
apoy
sipap
Arabo
naggapuanna
Talna
intuloyna
agraira
sermon
bungada
patiek
##ugotna
putotmo
313
pagtaenganmi
depensa
idulin
##domo
gangganaet
padapada
mangsungbat
##unaynay
lienso
##erraan
pakabigbigan
panagtakem
##camto
##oldid38
##titute
pangalaan
kinalup
mugingko
Mike
##ubbaw
##yaky
##forman
##ingenngen
Jeff
period
makapainteres
masakbayanda
science
dedikasion
petroleo
DWRS
staff
isasarungkar
##caoili
kontinente
Navajo
BOC
DO
Ehip
Ipal
Kinas
Lap
LAGIP
Mati
Nabaknang
OR
Radio
Tril
Yam
beses
dol
dadd
darak
ladawanna
puy
piso
pilo
poll
rad
rinam
##tho
##krip
##niko
##ped
##hat
##hang
##Ng
##Vigan
##agteng
##innam
##angbangon
##ongak
##adles
##amar
##abonda
##note
##ulario
##uds
##udna
naga
##inad
##isen
##orra
panagawid
panagbisita
##impli
manon
mangkitkita
pagat
napanan
##ugsu
kinaemma
panangliklik
##ulodan
nangay
nangpataud
umsi
masabat
##anization
##apulanna
album
Infan
apan
##ennamenna
inasitgan
nabagas
artist
naladladaw
daklis
tallikudan
agsinn
parang
natadem
kapigsa
kapilia
kapadpada
kapigsaan
##amanon
Archi
sangkat
##manehar
nadunor
requir
##amber
mabusbos
mangipatakder
##akitak
simmango
agdam
panagsaknap
commercial
dead
nakasagan
lakoda
nakautang
bumdeng
mayaplikar
122
118
kumitkita
Kayatmi
umayka
130
maaramidna
Asunc
madakamat
##onsulta
sinam
sikig
nailatang
Pinatay
Miz
nangisagana
armadana
agpaypayso
Galim
##akawes
pistol
maawatanna
paca
amammok
##annakkel
panagmaymaysa
surotenda
kabaruan
agkararagtayo
manggunod
kukuak
dignidad
warnakan
pagluganan
kamaudi
brother
kutsara
show
munisipyo
panagsuitik
maapresiar
namagbalin
Airport
Joyce
Naikkan
pagayatam
##AGSAK
principe
Aurora
salamagi
nasustansia
pagdagusan
##adcasting
kamotit
##Biblia
74
Deli
Eh
Gi
Jim
Listaan
LAOAG
Misis
Nyaky
Pagan
Ray
Sang
Tech
arain
alog
bl
bel
bia
band
cai
gay
utong
##satan
##opisina
##kto
##kias
##dol
##cup
##fas
##In
##UV
##asanggasat
##ararag
##indu
##angot
##apilitan
##amac
##aisan
##ulot
##rirag
##udanna
nagdamag
kasarsar
##omar
panagan
panagtaraken
panagkunak
manib
makati
##utub
##utuan
##ubbog
imasna
addakami
naitalek
pannakaman
##raep
##laagan
maasian
maipatakder
##mautisar
agtagi
Insingasing
Agcaoili
##iagan
pakat
##trato
##uyeng
nalipat
##antot
Nagturong
##panang
##panada
Amado
agsapata
natalinaay
pannakaibangon
##karana
##entas
pinn
Nakip
mabannog
mabirokan
##ungaing
palanggana
ikit
Abisai
agdardaras
insagana
Dave
##osiedad
nagpammarang
nakasugatan
makaawis
Makapa
iladawanna
##abaklay
tulonganda
annacda
##uatro
tagaJ
itandudo
problematayo
##usaNg
Joas
##ebron
darum
turturod
mapagduaduaan
Perez
##ganisa
Sumrek
makagunod
##IDS
exam
napaspas
Angel
pampanunotenda
##cios
babaonen
pumatay
Eduar
ipakitada
numo
siledna
kiddawen
Marius
tungpalenna
burbur
napilitan
Pacific
root
apitda
naawatna
garden
marisna
utekna
##ullayaw
yaadu
bisitaen
panagdaliasatda
Atlan
Abiatar
ektarya
agpakada
nalaus
##Ilokano
naamammok
salunatda
sangapamilia
sangapamiliaan
tourist
cellp
nagatel
pangawag
makimisa
makaanay
Tumakderka
##omunikar
makasangpet
palpalasotna
barayti
kinatarnaw
tackiag
NyakyusaNg
NyakyusaNgonde
Fre
Gimong
IRA
Ireland
Kiri
Lach
Suyo
Sinak
TAL
TUL
Wal
Walo
daranudor
field
gunay
gistay
hebron
kop
pip
spe
sennaay
search
videoke
##lagip
##segga
##bed
##wek
##hanan
##SC
##EO
##Cabugao
tidda
##areg
##lion
##lito
agidda
##dir
##umpon
##aana
##rir
##usayen
##oset
panagturong
panagurnos
panagbasol
##iklik
information
mansanas
##ibet
amayo
amami
makic
pagd
naisak
nailemmeng
napipigsa
pannakapu
##ugas
##ugitan
nasungbatan
Tiempo
nangtignay
masango
masigur
komentario
Nob
protec
pastrek
##agsenna
sumukat
##leen
arti
nalib
impetteng
basar
##uca
mangipateg
ikkanda
##itofel
Umadan
binilion
bakla
mangadal
makaasideg
panagibales
cancer
kaaddak
bagbag
makitami
##ARIT
##ARIO
##ARAMID
dalanmo
panagbiagko
Bendision
lumlum
##apatgan
balikasna
maisaysayangkat
##itakami
##kedked
serken
Elisabet
mamatiak
##pose
paadu
##IDAD
kabusoryo
takuat
##limlimo
administrador
pursuit
dalusan
mangsagid
plant
direktor
maitedna
##mutektek
##unayunayna
nangpili
pinarmek
Palarong
manangaskasaba
iccat
panaggagayyem
Ministerio
semento
round
manglukat
mangidumduma
##irog
panagpampanunotna
ADU
##nesar
naginteres
insayangkatda
sangsangaili
kinabilda
munisipal
sasaona
nangegna
Warwick
intultuloyna
pagdaksanna
insaludsodna
Usarem
naminpinsan
pinanawanda
Mendoza
bautisado
bisik
Ponce
kangiting
caycayo
Oliver
##abusoy
iturayanna
August
Akinlaud
realistiko
Munisipal
##atlatak
integridad
##urimes
egipcios
KINAPUDNO
TRAIN
Asuncion
Bab
Gung
Haran
Jenny
Kip
Liw
Mamm
PIN
PIA
Raman
Tul
Up
Zadok
hal
iden
lukot
magan
madal
paimbag
roman
sl
ty
##bongan
##fet
##56
##OY
tidagiti
##arapaap
##innak
##aton
##angonto
##lil
agur
##emento
##unuen
##unubon
##udda
##udez
nagpay
nagtak
nagdesision
##inasan
##nakanto
maitibkol
inangna
intalek
inladawan
inayatna
inlawlawagna
mananga
amorreo
##utek
pagba
##ukar
##biu
panangagas
nangpal
##ngegak
##sionda
isayangkat
mapilitan
mapupuotan
##alakpak
##alakantayo
##ariwawa
Intay
siaannad
##addungal
pasuksok
kabassit
kabaian
pangngaldaw
Nagyaman
##pannak
karbenganna
##tural
Ismael
paruar
parsuana
maikumpara
##alakias
narigrigat
sinursur
namnamatayo
Malayo
mangipatungpal
paltat
awawagan
Maseknan
panagsasarita
deal
##sangpet
lintegmo
pammatik
##sabong
sagana
minimum
##abakuna
##elly
naipangpangruna
##sign
elder
nagtet
Mangnamnama
mangibaklay
rini
Engineer
aglawlawtayo
lampara
215
##etsem
dagam
##ANGAY
mayordomo
prinsipi
Midia
mammapatay
Alaem
##abayad
kayumanggi
diplom
padasem
sangkak
Bataan
Brown
inawatda
Tankarana
cadagita
##abettak
##oldid3
Jehoram
kaanakanna
eropuerto
Rinibu
sekreto
sagsagrap
naipatulod
##dackel
nangirugi
tungtungpal
Teresa
credit
##allaet
dosis
masinuo
kontrolado
##ipagrikna
writer
rebolus
linaksid
panagbakuna
progresibo
managimbubukodan
umapapuy
journa
Sayyaf
Alcantara
judios
November
panagreggaay
##tifar
Nebucadnesar
Roxas
piskeria
Maribeth
##imudaagna
Kuwait
DUYOG
Fin
Has
Hemisperio
Ikararag
JUAN
Musi
Nabi
Napa
Pulos
Uno
Year
akas
beach
cand
eleazar
iga
key
mekan
mobile
she
waya
##genna
##uatayo
##neb
##nical
##pol
##yales
##baran
##brid
##Roma
##anti
##tig
##agraman
##anghero
##abtu
aggap
##erc
##emmeg
##essat
##usana
nagal
nagmaneho
##isak
##iding
##iddan
kastanto
##ington
##ikmut
into
indis
##moder
mangbal
diam
division
nakayanakan
##ukisok
napanna
##ians
pannakitinnulong
kinaparabur
nasikap
nasanger
maipoon
isagana
istruktura
##atayto
alingasaw
mapanna
##solo
apres
kaadalem
pangkab
impormasyon
Nagu
saklot
nagbati
estruktura
Marc
##balayna
kapipintasan
Arlyn
##uch
##ammin
pinasing
##atangken
mangipasimudaag
tumt
simmayaat
##yaon
panagsapul
ayatentayo
Pannaka
nadam
def
##innem
gros
tinarimaan
tinagi
repres
pagtaen
##appapati
Apagisu
Nangisit
214
kordero
Guz
##iddep
##ILI
caatiddug
panagtataripnong
pagbibiag
pulida
macan
Timek
##abbong
registr
##ERS
kararagna
makissayan
Impaganetget
Eleksion
industry
Regular
joas
tagabu
##sacre
mangparegta
Baterina
##angadna
##acaang
pannakadangran
impasngayna
##sirarak
P10000
ikabilangan
cabsatmo
Nakaadadu
Colombia
facebook
Build
Sereno
panagdenna
kailianda
pagariam
pinakbet
makiranget
panagpalutpot
Nangipaay
katayag
##adaptar
Asidegen
impakdaar
mangsupsuporta
##iguiri
astrologo
pannacacayaw
kandidaturana
advertis
Thomas
municipalities
Lachiguiri
Cec
Dac
Dengg
Eks
Epektibo
Ibin
Jar
KOM
LP
Lily
MO
Pamm
The
Tony
atanud
banda
bungbunga
corn
cultural
full
front
hand
ju
lungon
multa
rur
sobre
sutil
ui
yunit
##tanda
##uig
##nia
##papati
##dge
##bok
##esi
##100
##agalog
##angkantis
##adsad
##aidor
agga
##nom
##nology
##ayol
##ely
##elna
##eko
##eklara
##illaw
panagda
mailemmeng
##igsada
##igrigatan
laok
mangiw
payac
##iboran
##ibiang
makapanunot
nakurkurang
nakallalagip
naiwawa
naperdi
##ayatayo
kinadayag
panangusig
isukat
masmasdaaw
propos
Integ
Inkarina
kalamansi
apom
sumuk
arkit
Nagtaray
karabasa
Amis
paria
immisem
pannakaiwayat
##manek
##ucbab
pinuoran
kakaruan
kamkameng
martial
maringgoran
##ultulnog
konsiderasion
Naiduma
##gapuna
panawenda
Taal
simmaganad
Albay
insangpet
Napapatay
Napoles
item
bakal
iluko
panagiwaras
mayannatup
diskurso
tulongna
##salimetmet
tinuno
care
patron
panangala
naikitikit
##digus
nagkurang
##mark
nagim
Inaresto
mangituloy
inkagumaan
mataytayo
linab
sekta
Macario
riknatayo
intedco
nangibangon
cauv
##AMA
rehab
pagbutbut
cunaem
panagadalko
##rusat
##pley
bitamina
##ungsong
##nurotan
partisi
##zone
pakauna
Sinai
lauden
##tamet
poetry
kuartoda
manglaban
##hanced
narigatan
Tarlac
masursuroda
1946
MAIK
nobel
kaarrubami
monumento
Lou
Ipakitam
ipalpalubos
##ungalngal
Agkak
agbaliwbaliw
nadidigra
gurigor
Puraw
sasaaden
pakarikutan
marikriknam
mangsaluad
Alexander
third
ilakoda
mangipasdek
maiddep
negosi
betel
naipaayan
sumurokkumurang
insublina
ipalagipna
agparpartuat
livelihood
Kathleen
nakadakdakkel
pannakilangenna
rangkis
PADAS
walopulo
##dinnungpar
##atehia
sensitibo
Pangrabii
Organization
manibela
Banna
Doc
Gabaon
ITA
Nadalus
Pakawan
Saniata
dose
ice
ling
lansa
puc
plaka
run
tes
##gun
##kenna
##uaan
##ufr
##bra
##57
##GH
##tilio
##asak
##alac
##abulod
##toda
agka
agdanag
agsukir
aglemlemmeng
##eren
##sible
##ulation
##ununeg
##riel
##ussu
##engdan
##ingising
panagriri
panagayayam
inayat
manongna
ambision
##ubyo
##ublin
##ilities
imbalikas
nairuam
napadisi
##ianda
##dador
maay
maungpot
nangdadael
##oktor
maipapaay
bale
Agrikultura
kinelleng
##piente
##pisial
kalib
kabali
pakete
nabucodonosor
nabuslon
##bayag
nalangto
Nagaramid
Nagrigat
Ising
paris
sangom
##entena
##ucat
##ulidanan
nadagdagsen
Isub
Naipas
akikid
panawenen
panagsus
committee
Napili
makapagt
Paneknekan
pagaraban
nadardaras
bukodmi
nagpukkaw
binisita
bakteria
padpadas
##sabat
mayadayo
127
##tograp
pannakapasamak
##very
112
kumpanya
##gipog
nangipatakder
Benaias
##ermudez
presion
agruknoy
##plor
pautang
##inumda
##1200
Basol
kababalintayo
acc
Beth
timekko
makunam
baetan
Mammautisar
komander
binaliwan
addangna
raai
mangtaginayon
##titutional
joac
##uspil
arapaapda
##riminal
mangparnuay
kinamapag
pagalagadanna
annongenna
isublina
Pagsayaatanna
##ungtung
pannacaaramat
##COS
Merari
napanunotko
dilana
##rated
barengbareng
##intawi
assawana
pannakagunod
salunatmo
networking
nakiranget
panagkakabsat
paspaset
##paper
dinguen
utobentayo
Bueno
##inadab
piksionista
pannakabalbaliw
titleKategoriaDagiti
student
##egpeggad
sangakabbalayanna
caldeos
LADAWAN
Pagannurotan
Guzman
Cayet
Der
DNA
Esan
Heteo
Ky
Kid
Knor
Mir
Malakias
Omar
Obispo
PAY
Roc
Sall
Zion
cara
gudua
idad
lig
naman
nanaganan
sea
ted
tuli
##soran
##kkis
##mita
##mutan
##uj
##pher
##yab
##cabayo
##Presidente
##BALI
##RI
##agam
##agbat
##allaki
##aktan
##arkaan
##onias
##ados
##tora
##tawid
##lisan
agku
agric
agedad
panc
##diapanna
##urru
##esh
##une
##ello
##elero
naggi
kasarita
kasinged
##egi
adv
panagsardeng
##imma
##row
mangusig
makumikom
nakadal
##ubsang
imon
##ramidak
##ungtan
anda
##uanto
##bisik
maum
nangpaltog
masagrap
##iche
agtagtagi
##immay
agbisin
agbaybay
agpanggep
apost
pagidulinan
naluto
Nagdardaras
astr
aramidyo
saklawen
nagban
este
ester
kapas
immabut
##erserb
lall
narukbos
##awanen
pinaayaban
1935
pamiliar
##ayson
mangipat
##riknak
ikutna
tumapog
##queo
##ponsoran
##inanama
Maawagan
##sisten
agakem
desierto
##tinna
nakapadas
nakappapati
nakasangpet
panagpapada
panagib
pannakapakawan
##rentaan
180
carbon
environ
madis
mangpatay
agtalna
Asno
saludsodna
linuktan
Efren
makasabidong
baketmo
lengguaheda
sikat
klaseda
panagballig
kolon
bimmileg
panagadalna
pagtaraon
Kaasi
ideo
panangpadas
lidertayo
NGO
##ERN
nagbaetanda
child
dalus
makunami
Simmangpet
bitang
Liberation
mapucaw
panagayattayo
Bolivian
##estigation
##silap
amammona
Inyawat
paggig
##IPUD
##resiaren
Minilion
Mindoro
teltel
##agpaten
Deputy
iparpar
##MATI
##uisan
makinaria
panangyaplikar
house
consumers
Potifar
ehekutibo
##lower
fishing
inruarna
ipakpakitatayo
Martinez
igamna
masursurat
Maragsakanak
PhilHealth
sumsumged
etniko
blogspot
aramatenda
katrabahuan
counter
Milagrosa
pingpingna
claim
katukadna
Padasem
killings
##hedral
hospitals
estranghero
mayora
allowance
pagsarmingan
karnerona
nasimbeng
##insabinsa
kaamaan
abusado
nacascas
Pugos
mabagbagi
education
nataltalged
dragon
Amalekita
employer
agsigsigarilio
Cornelio
kontraktor
kaungganna
##pabeto
MILF
Cayetano
Knorr
Aro
Awis
Bol
Cai
Club
Dalan
Dinan
Ipalagip
Katip
Ladawan
Ley
NIS
Nisan
PL
Pros
Sayang
Sotto
Top
TES
call
dagum
eg
gym
mic
store
trip
vehic
##long
##sena
##mak
##cual
##68
##69
##eni
##astor
##ondo
##aplag
##amente
##abato
agrigrigat
##diente
##ully
##esma
##unte
nagdis
nagsaruno
##idna
kasda
##eken
##omague
panaggaraw
panagteppel
manangna
##suten
##kolan
mangasikaso
##loc
makunak
##ubor
pagdi
pagruar
pagmulaan
##upen
pannakaay
##ugor
##apanawen
kinaulpit
masulisog
masetas
isagan
isursur
mapakpakadaan
agtataripnong
Agpal
Agyamyaman
kabis
nabirokan
Nagtaud
##endatayo
matayo
matuang
Amayo
Amos
##ahon
agsagrap
nagboluntario
##ukop
maikaddua
##anantayo
pinati
##responde
kanyak
aklon
Esp
Malacaang
ibaklay
Naawagan
nangawis
Sakada
##perty
ayatko
abimelec
panagkurang
distan
kencua
tinarig
tinawid
Nalabaga
panangipatungpal
papag
##urkurangan
Corazon
madmadlaw
problemak
plume
seknan
sekular
##imbaw
koordina
Coun
konsentr
relasionmi
##tarayanna
ayanayat
##aritaka
imbilinko
akinngato
Ikagumaam
contain
ragsakko
Simmurot
##ungsungad
papananda
presinto
kakaduak
Sinar
AGBALIN
Kasapulantayo
malagipmo
ipatpategmo
Broadcasting
maipaspas
##unamgunam
Laglagipen
Agbalinto
itultuloymo
bukbukod
ibagbagam
uggot
minamaag
pannacaawat
makibiang
Nalaklaka
magunggonaantayo
Poe
pagrebbenganda
mapalpaliiw
eskediul
rimsua
nagparintumeng
organismo
nakaawatda
##ayasay
gubuayan
sebada
Nigeria
basbasaem
pederal
tartarig
manugang
embah
Sekret
December
nasukalan
Renato
olibo
bonus
kidkiddawen
Costa
##AYAAT
pagadalanda
paggastuan
Operation
Changana
Education
apektaranna
panagbubutos
Babbai
4000
Asian
Awat
Balak
Black
Cles
DAD
Jas
Nimmay
Oseas
Puon
Rilo
Tap
Trial
alo
atr
asina
average
batang
dud
eher
eliseo
hin
lipat
mit
mana
nep
pol
pato
plot
rut
raniag
##rurumen
##nham
##eus
##fin
##NS
##akes
##angin
##adagna
##situ
##sica
##ury
nagawan
##issay
##eget
##ingkaw
panagangkat
inay
tac
##hoon
nakig
nakabi
##ubuat
##abaet
##atigid
napegges
naasian
##uganna
kinaub
kinasukir
nangsu
nangiwayat
masubok
masnop
##irna
maipag
balon
isaysayangkat
##ebb
sidad
kaati
ipaka
ipangp
paktoria
##amitim
Change
pagimp
##rist
##talo
immannugot
maikasiam
sangana
##enten
mala
malalaki
pammutbuteng
imbelleng
##deliber
saf
Naim
addaanak
namunganay
kunaenna
##basak
inaramidco
nangalada
pagsayaat
##elito
puseg
##atorio
compe
libano
baruc
nakapokus
Makis
panagbadb
##angkay
basolko
pannakapas
panangiparang
tinubngar
Pascual
iyununa
iyadadalan
##mart
146
lumaban
Jojo
bangolan
Mapas
timmawag
Kabyle
lamolamo
selah
linong
addanton
##ruay
pimmusayen
intudo
intabonda
itedda
Eliezer
nagtaeng
relihionda
aggigiddan
single
mangidalan
perlas
exper
kadakkelna
mangsanay
Supor
##sawang
agkakadua
##ingaybingay
pungtotmo
mayataday
nasirib
Alaentayo
Napanda
pannalaknib
Akinamianan
Panunotenyo
balbalayda
Makapaladingit
nabalud
balaam
kukuam
professional
##kanaey
Pakai
boksit
Gilgal
mabalbalin
pananggundaway
Felix
##adadun
genre
magustu
rimmaut
Napalabas
##romot
gurruod
isuratmo
panagtutunos
nakipagadal
nakiraman
ABC
pakapil
Java
nangipasdek
Arameo
makapagserbi
##adispensar
Pransia
##ploitation
kankanen
kasasayaatan
Premio
masakupanda
pinaimbagna
Dapayan
agbanbantay
Laguna
Pepeng
Huebes
jehu
Leonardo
agdindinamag
deklarasion
##forcement
144000
importasion
paglaingan
script
sibilisasion
demoniona
##kripsion
Galimuyod
##abtuog
Bili
Ciro
Hus
HIV
Kurang
Kunkuna
Kitkita
Nel
Serb
Tud
Turod
Vilo
dai
gaway
kos
kanan
ner
nor
rosas
sosiedad
toc
##rong
##bu
##Am
##DF
##aymays
##alacan
##etret
##aph
##apaan
##abam
##totak
agek
agko
agir
agdalus
agsisinn
##awdawat
##useng
##ayos
nagramut
panagtipon
panagsursuro
maidasar
##impa
##ikana
##eding
nakapatay
nakangeg
naklaat
##uble
napabaro
##acal
##acnang
##other
##reat
##angabit
##bisi
panangkita
Tirad
##laet
Diosmi
umab
masasao
alinta
##asaad
##aridad
protoc
projects
##aramatan
agbati
apresiar
##lawat
ipang
pangb
pangil
nabis
Ilocandia
art
araramaten
##uyaan
aldawen
nagbaliwan
Martes
immulog
##uce
pinulotan
kakayk
##orth
kampanya
##niit
##chor
sals
##dee
sinno
##lasinna
Esther
namimpinsan
##lemmengan
interview
##basit
mamal
Naudi
nangab
mapankayo
Kasanotay
##rikmat
Nasursurok
abner
Maui
damili
agatiddog
Quiche
##uela
nakasursuro
padayawan
makaawid
##liwak
Salomague
puerto
Prof
nainkasigudan
##togon
##azi
tagaT
panangipakat
kongkreto
tulagan
naikaykaysa
##aykays
##ADAN
uraro
lumakay
inkapilitan
madamag
gastu
pagsasaoda
coordinator
Orte
Eliz
##raktis
##disenio
Immadu
##eauty
nangibati
panagtagi
nailubongan
ulila
macakita
agaramidda
imatangda
department
Company
##lands
examination
##ungbong
channel
piesa
makapagp
College
karirigatan
1994
Binilin
mangbuybuya
ngiwatda
panangmatmatmo
toldana
mannakik
presentasion
Brenda
sidud
panangidaydayaw
nakipaset
pakaangayan
##IPIO
kampani
##useum
Akinabagatan
pannakaipablaak
tagab
naammuantayo
capitol
lands
agtulnogtayo
naimpluen
mangiraman
nagtimbukel
panagsikog
tubeng
nagsisina
nagsikog
Wikang
gubgubat
maminpinsan
paginteres
kinagaget
Mariknak
sexual
Morris
PANNAKA
##ompromiso
sirios
teknik
adingko
TMI
kinaagtutubo
kabanbantayan
##azael
Britania
pagminasan
liklikanda
Ipatpateg
agidaton
device
daddadakkel
salinong
sinsinan
financial
worker
imprastraktura
##ehersisio
Infantry
kamaudianan
Viloria
ATM
Bukod
Ev
Fl
IR
Itogon
Lito
Mul
Out
P9
Tabag
Ung
buen
bucod
crop
ged
heh
iwayat
kagay
lamb
od
polusion
rambak
sq
sanay
surg
udi
##ls
##ous
##gik
##uokan
##hay
##juana
##zan
##angd
##aduraan
##etpet
##apapatay
agag
##siam
##noli
##ules
##umok
nagunggonaan
dayagna
##egda
##omer
panagal
panagdanag
maiduma
idis
note
inwar
inhiniero
##igrante
##iboset
aman
makasao
makabirok
##ramaram
napataud
pannakang
kinada
kinatibker
masanay
awananda
balangat
##mao
proverbio
##rayanna
Saannak
kalalainganna
agpup
agpakan
sumal
nalapat
impannak
##liance
##aroan
nagbeddengan
##aganen
pards
natbag
naturay
Arce
##dakto
##katen
kakuyog
##angguseng
Naipasngay
siudadna
agbalinen
panawentayo
pusher
insawang
##aland
grade
pammatiyo
panagbuya
panagipatarus
sangoananda
1500
##engguahe
republi
madre
problemam
##denaren
masaker
Nabara
nawatiwat
adatna
senario
sipapar
ingpen
ingangato
dadakkelmo
dadakkelko
##dumaanda
##ddogan
panagtungpal
rehistrado
labba
taktika
administratibo
panangisur
Cathedral
##insin
Carlo
contrac
makinngato
raaysa
Amming
Edward
naalana
naalsem
##ensen
Magagaran
Natalged
kabagianda
##heno
mangngegan
empanada
sukatan
pigsam
nakitulag
pinilik
mangidaydayaw
teacher
magunodda
selebraran
impatalged
Manoa
Mamatiak
digital
mangallilaw
mangpasardeng
##lerk
bunubon
matulongannaka
##IMB
kadaraan
Forces
traffic
mangdusa
matulongannatayo
matmatan
salimetmetan
kaakaba
Alilem
Lacson
sipupudno
tuktukoyenna
##amaysana
nakaibatayan
lolok
panangtaripato
lisensiado
viol
Impatalged
##lalayaw
Relihion
madandanagan
##erkoles
machine
tunnel
Ehipto
Archives
cellphone
##ayolente
84
911
Aris
Aten
Aya
Bon
Begnas
COP
Dela
Hill
Hudio
Isid
Inoc
Jairo
Lar
Puro
Susan
Tinal
aan
cayatna
derra
git
garan
kuatro
lais
pot
penned
rinn
sponsor
town
wayaw
yuyeng
##lunod
##tanga
##nayo
##host
##fu
##ayud
##arbar
##atawen
##eten
##abayna
##liam
agsip
agwaras
aglibas
agreklamo
##siak
##usak
##usuat
##udom
##isar
##isenio
##ortal
panagpanunot
panagrames
inkam
##ipo
manmanon
mangraut
makaturpos
nakadi
nakigtot
##ubuan
pagayam
napukawen
naadaw
##aliasat
##angabak
kinasar
nasan
nasalakniban
##andatna
##onam
##unog
##alakam
##aramsam
Inkararag
Intaray
siwaw
Agm
Agbasbasa
##pitik
##eca
agbambantay
apros
##agsag
inara
##tayonto
nalalatak
impro
impakat
##ahero
nagba
parab
parangay
immabot
Arte
maikaduapulo
sangit
malipat
mareg
marigrigatan
pinab
saleng
masapulan
mababalaw
##iwing
ibangon
agkaka
Daytoyen
mamagp
inaramidyo
ikagumaanda
Awanton
nagsarita
abram
Maute
##sisem
makapagi
Panl
itta
nagpabautisar
##than
diosmi
Makik
sagP
minero
##uatem
superb
mapasag
##ukatanna
plunder
panagbiagmo
##agayway
urno
Assistan
rebulto
pagpag
sireregta
sungbatmo
punn
council
##eksper
makipagili
agsublisubli
panagtultuloy
Amazias
Pinampanunot
relasionmo
imatangko
Timor
singgalut
##ensiada
##waywayat
desisiontayo
bitla
Libre
Liberal
pagkuranganna
panagayatda
Ipagarup
diktador
papanak
dekalidad
limmugan
luppona
tungpalentayo
1980
##heni
##agkaykaysa
sukimaten
Rodolfo
prize
isublik
##abeth
inkeddengko
impalawag
dusaen
mailunod
cucuana
Antio
P100
nabasana
PRINS
Nagin
Daras
Bumangon
Highway
naidulin
Itultuloymo
tagaCorinto
sapsapulen
tsunami
##adkad
Sisera
rebolusionario
basketball
PAMMATI
##aibbek
ceremon
Congress
beinte
Nicarag
kinasiasinona
madamdama
invest
irepresentarna
sangsanguen
naaddaanda
pawnshop
##akinilia
Alfredo
texto
Workers
paggargar
irigasion
pagtugawan
konsultasion
Kaanonto
mangamammo
Cotabato
Rambaud
Tugade
pannakasaluad
napeklan
burburtia
Kiriat
bisikleta
rebolusyonaryo
PRINSIPIO
512
Agawid
Austr
Basi
Cities
Jay
Lt
MT
MM
Mende
Mangrugin
Nadanon
P20
Ruther
SB
Sun
Step
Taraon
WEN
Zamb
buko
bond
cudil
free
guddua
hudi
home
merienda
members
pm
pilit
tara
tabas
uga
word
##layna
##idi
##nunum
##piko
##del
##KEL
##AH
##VI
##zu
##RV
##lide
agriri
agangkat
##urac
##ulbo
##espeto
##umn
##undo
##ayot
kasam
##ektaran
##ilanna
panagraman
maiyan
intayo
saankan
makabasol
makariing
##utam
pagpak
imul
napuotan
pannakit
pannakatak
kinaruay
panangpat
##andakami
Noy
agtatakaw
sienti
Agpa
##pidio
##ecias
Saandan
arbis
##trabah
daksanggasat
Nagpar
##landia
karuotan
saksak
Imbatad
natulongan
imbitasion
bagio
mare
1930
##cha
Maikalima
Naireport
##lasag
Espa
##allang
##allon
pannakain
pannakaaresto
angangaw
##ists
Napia
Napadas
Napatpateg
ubbingmi
library
nakaited
nakaidumaan
makaadal
nakaalal
panagpap
bumtak
##sikko
kasasaadmo
Matthe
igig
naglatak
mangitandudo
timmaliaw
Assam
160
adadalan
sirena
##tingiting
cour
count
Naminadu
pulitiko
kursona
makalapan
kababalinda
##ross
Mierkoles
##depende
agnaedda
natauan
Kompad
Komusta
pagkikinnaawatan
presko
pacai
sakupenna
Dakdakkel
Kankanaey
##riminasion
agayayus
##hane
piloso
benepisyo
##endisionanna
nagnada
websit
historikal
panagsisina
Ipakpak
P5000
maammuak
pension
agawawit
nakikadua
sagsagut
ammonan
nasaracan
kunkunak
pagbasuraan
##UNGG
kaputotanda
kinamaingel
Usaren
Publish
mapagsasaritaan
oksi
PRO1
lengguahetayo
nasiglat
agmatalek
##ederalismo
indigenous
##unnatna
tamingen
PGMA
agencies
Pumanaw
Ocean
Trillanes
puyupoy
sinamsam
Ibinda
nacascasdaaw
Leyte
Tudayan
Rutherford
Matthew
05
Bah
Bio
FB
Father
Hay
Mit
Million
NS
PAR
RH
Sasao
Torre
bangar
gil
gundawayan
hunta
nadalusan
seal
torneo
##sna
##sawan
##kingan
##ux
##pok
##paliw
##cast
##63
##tiana
##aganna
##entation
##alec
##alnag
##arua
##aritana
##apatak
##abanto
agrek
##nod
##ulp
##ument
##adada
##udog
##ination
##idor
panaganak
panagsukir
mailaok
##imple
##suyan
mangbaliw
##ibit
amn
nakakatkatawa
pagpat
pagpa
paggatang
impateg
##ukayab
naisuro
naimatangan
naimaldit
napabileg
napukawan
anunsio
##ugp
##ugotan
##uahena
maas
masup
masalaknib
masasaan
##umaut
##atayag
mapang
pammigat
##eban
siroc
Agpak
##pisi
##anaganda
kalas
kabaddungal
pangiy
nabannayat
ayug
nalidem
impaganetget
Nagsi
##palaon
sabbath
taldiapan
basingkaw
Arsobispo
naday
mardo
ammoc
kanunongan
kunami
mamman
Naawat
mapankami
mapaneknek
dakkelen
dumaray
Sanhed
ayatenna
Mausar
danumna
Umadadu
Umanayen
##END
nagpaputok
nakasubli
Makai
pannakapasayaat
panangipaayna
naipila
inyetnag
patadem
panggepmo
Pascua
kumakab
madian
Panagdaydayaw
mangibaon
naginana
##tyur
##ATAY
lawalawa
Engr
pinagayan
sipip
##asidegna
PhP
Ortograpia
Guiller
itedyo
itedconto
konsensia
patientayo
Pinat
##aritatayo
labsing
ipatarus
kawar
singin
takdang
panangpampanunot
Balik
##plex
Elpidio
talonna
Aramidenyo
galadna
inikkanda
birth
tagapulot
panangiturong
panangikkat
##utengak
pannakalapped
suportada
makipagadal
nangiturong
Malagipmo
##asabali
1960
naipalawag
##ampannakkel
kaykayatko
Tumulong
kaanakan
awiten
maibagatayo
sanguananda
sumangsango
makitkitada
asug
kasukatna
konsiensiada
AMMA
guide
imperpektotayo
ispalen
nganngan
##SOD
nangparsua
nangiduron
pagaayat
mangapektar
supplem
pannakibiang
pakikappia
##liwengliweng
##asures
Buklen
matarusantayo
magnetite
##eknanda
umadanin
##konsulta
supsuportaran
natakuatanda
destinasion
naggaput
revol
greenhouse
balikbayan
Paoay
waiting
apagcapulo
tseke
criticism
nakadepende
apagdarikmat
Pentecostes
pannakaaprobar
tulisan
Assamese
basingkawel
Sanhedrin
Avenue
Banao
Bermudez
Dario
Iyeg
Lengguahe
MAB
Nadamag
Rub
Sulu
Ted
Task
XRM
anal
fair
gamin
karigat
kired
lom
loan
lingg
quen
tagas
wit
wheel
##led
##minas
##rapi
##raniag
##pre
##jon
##TE
##DAW
##ananto
##ankano
tisa
tiliwen
##angt
##apresiar
##tower
##liten
agriculture
paneknekanna
##nok
##ursig
##ullo
##ullit
##unet
##riko
##engteng
nagayat
nagbirok
##isalakan
panagbirok
panagdaniw
inangay
indaydayaw
##kohol
mangsan
##iba
##ibuso
##ilig
imula
##ukisan
naiget
naipakat
napets
naputar
anan
##otal
##kuat
##kuatan
##kuentro
##old
naed
##raf
kinaasinona
kinaubbaw
##pasahero
uma
umimdeng
maipalagip
balac
isaias
pamayan
Insuro
siquem
kabuklan
kaasian
pakag
panggapuan
arin
##board
##taripato
impalagip
##aonak
##inten
sakam
agserv
Impalagip
##edier
natedda
ariwawa
##mantener
real
pasetda
Isuzu
martir
##chair
sinn
Nakapar
Maipak
##baklay
##bakuit
Altai
dump
Maar
makapabangar
pakaipas
barbas
nakaik
lintegna
ilgat
dimon
barangaymi
##aminto
prangk
dinengngeg
panagluto
panaglalang
##baruanan
sacsac
gases
immayak
inallilaw
pagpili
ulom
eksp
agrupsa
itedkonto
pannacaammo
Immuleg
ulidanna
Dinawat
pagtungpalan
##alisal
idul
Diakon
##limetmet
panangisubli
kararagda
marijuana
##arruba
##ABALI
naparmek
##adayoda
ministeri
cabcabayo
##awidak
panagbalinda
Magdal
Sangaribu
shik
nagrukob
##udinganna
Bishop
Agpaay
mangngegna
kapitalista
napukawna
##jority
##UDSOD
Malagipna
traysikelan
nagaramidda
Nasuroken
awisen
##ungdong
Nakarikna
nagmalem
panangyadal
lanut
construction
pagrebbenganna
Loren
agyamanak
idadauluan
sanguanak
kadaraantayo
##sobra
pinapatayna
nagbutengda
konsiensiana
bilbilinna
pinakawan
insaona
kaputotam
negosyo
purpuro
pagbiagda
bangonen
imbilangna
panagserbik
ikaskaso
tartarigagay
##mpluensia
##durasan
agragsac
##ughter
apokona
volunte
pagpaaraban
naduktalanna
inrugina
kaayanayatna
agbakasion
gumilg
##redibilidad
idolat
ngipenna
sumao
inkankano
Mozambique
Zealand
mananggundaway
artipisial
Gunglo
Kipende
##ufrates
TESDA
DADDUMA
##situsit
nakabitin
kaatiddogan
pagimprentaan
hehehe
derraas
Barak
Banner
Dia
FERN
Gor
Mangit
Puso
Rosi
SAK
Sangsang
Tak
atake
baon
idda
iyanninaw
kaman
mong
maba
monitor
naram
tw
trial
ukay
zone
##sec
##seba
##mam
##rint
##rador
##yat
##eu
##esita
##PIR
##Es
##WWA
##andi
##tiba
tiliw
##enrol
##ady
##adelo
##ame
##itla
nagsa
##istiko
kastan
##ommy
panagamak
##edng
saanakon
saankonto
##room
mangnayon
##holic
amamm
nakakaasi
pagkar
pagammuan
addaakon
naisar
nairehistro
##asir
naabuso
nauyong
panangig
panangraut
nasolbar
##epensa
mask
masayang
baliktad
isas
##atayda
pamalpal
agtaytayab
Insal
pasintawi
##side
kabkab
sumungsungad
ipilit
pangsup
nabibileg
Ilokan
artis
arungaing
pagip
nalukneng
##risgo
talk
agsakripisio
parokia
Marcel
##sata
pannakailadawan
sangc
##kaminto
casda
##respet
salisal
Nakipag
lallakina
Naibaga
##dalapus
siudadda
akkub
Kalkal
interamente
lubongna
unnoy
dinal
##alling
maibangon
ikal
awar
tumibker
comman
ubbingna
##ayamusom
makaakar
Makab
iladladawan
biangna
saoc
##uadam
panangipalubos
panangipakaammo
papastor
##baliwanna
natiliwan
natinnag
##agrago
kasoda
nagikkat
##ADO
silalawag
135
134
namnamaem
Laur
##ASAM
##tingen
##urnosna
Guadelo
parikutna
Immisem
mamatika
taksi
NGEM
panangisayangkat
Ikagumaan
Elf
makapagagar
##ervisor
obrana
orgilo
masir
rekom
Fire
diksionario
naalada
kinadakesda
manangngaasi
pakaammuan
diperensia
pannakaisagana
panagtalekna
ibilangna
agsida
ususarenda
awatentayo
kaarrubam
gangani
Nangabak
ikabilna
pasaher
sidadaras
Sadiri
mangawis
INDAY
naimnas
panagsublina
pannakaisuratna
areas
Water
nangidaton
appro
farming
ararapaap
##ANDO
Burnham
ikarkararag
panagbasada
Mangipaay
maaprobaran
Itedmo
##lubungan
gabinete
Sison
groups
Gregoriano
natarnaw
MANIPUD
koneksionna
Apagbiit
NCIP
makakitkita
Debora
bengbeng
kapkapnekan
nakaaruat
prosecutors
Quiapo
Pagyamanan
Patricia
physi
electron
mangitantandudo
development
deadline
tesor
Elizabeth
Isidro
Noynoy
Banaoang
FERNANDO
Guadeloup
528
Budget
Cron
Dadd
Euro
MP
Mensa
Mef
Madadael
Ori
Pampanid
Ragsak
Tro
Tult
alig
botan
bunton
dingo
gayadan
ikuyog
laya
leppas
nutrision
pob
pungan
rungsot
stan
squ
swe
##lero
##layen
##klon
##kdakamat
##nut
##yana
##boro
##RIS
##tiaw
tiansa
##asay
##agin
##alais
##alungun
##akop
##akurak
##arin
##araid
##adaya
##abara
##abali
##lisar
agbag
agikut
agdengngeg
agdisso
##dinal
##emot
naguneg
nagdakes
##anael
##idutna
kasangsang
##ilagro
panagamiris
panagkasar
indawat
##igs
##edral
mangsursurot
dibision
nakapu
impatarus
nailaok
##acnib
##kuelaan
pannakakita
##raine
##tez
maukom
nanganda
umayon
awanda
##unoy
Noli
gapuananna
mapampanunot
mapapigsa
##ebles
##addekan
agpag
##agsagaba
kaabay
kaunasan
pangtao
nabiktima
nabungon
##trata
##tarus
impang
dakdakes
nagbassit
troso
##rudo
##ammatian
##alaen
##alaingan
policy
##anggayan
##ambannog
##ministro
kanenna
namulaan
##itimpuyog
ibas
ibus
mamaay
dinac
angesna
insak
inserrek
probinsi
##abawida
##ENYO
makaagas
nakaammo
Makalaw
Simalungun
panagbutos
Salsaludsod
puoran
bumaknang
bumasbassit
kuartam
candida
Siam
katawa
##saknap
104
117
Nalab
##berto
patrol
Panagkunak
##teka
mangibilang
##kontrol
nangipakaammo
riniwriw
##tisya
nalabbaga
bangen
maaramidtayo
likido
linuktanna
makasurat
sinalaknib
rebeli
Paregta
naibus
##layus
sinuratda
operators
##ulart
duog
kaggo
##ugotda
aggunay
makalibas
patayenna
kararagmo
siguden
nayimprenta
control
##dinas
asiasi
ahente
ayayatenda
langada
##putar
pinaltog
Paltiing
busb
Baasa
Inyunayunay
tapnu
shell
tungpalenda
ISBN
ipaspas
##TOP
Batseba
syudad
##munic
Kameng
Makapag
pannakalukat
pannakadusa
nagtultuloyda
monmon
maileppas
##unction
ayayamen
Makitatayo
minat
agcurang
mangirugi
makaaramidtayo
antigo
pananglapped
Rinugian
responsible
##abpabasol
Virg
isusuko
sinurotna
Agbibiag
ungetna
binalaybalay
ulitegna
Plant
Intedna
ASG
Asaf
kaunggak
ARAMID
ikararagtayo
iyaadu
##utrition
ibibisit
opisyales
muebles
TMX
Hilda
Inaklon
dungdungnguenna
Personal
itdenna
agmatuon
fertili
pannagnana
agpampannuray
Dexter
##urrimao
Indauluan
otso
arkeo
Kinaagpaysuanna
Tourism
shotgun
maprotektaran
Eduardo
agbaybayad
Caifas
ehersisio
6000
7000
94
Bileg
Dos
Dol
Far
Guti
Itang
Jeb
Lallo
Nik
Pope
Rek
SC
Suso
Sungbatan
UTC
Vera
asitgan
bayy
cami
cle
drin
gene
gabaa
gukayab
light
rap
tup
temp
tukoy
waw
walang
##auneg
##lek
##ladan
##uf
##uian
##pang
##yc
##back
##cari
##BC
##EAN
##altalon
##akak
##aturatayo
##adig
##tona
##ailo
agang
agman
##dim
##diborsio
##awilan
##ematika
##toyo
nagasawa
##isuot
##ispensar
kasungani
panagala
panaglibas
panaganges
panagpiesta
panagtulid
##imos
inrakurak
taep
##edes
metap
mangliwengliweng
makaturog
##ubay
impasngay
naibal
ansi
##uges
##ugkel
kinabassit
panangdalus
panangutob
nasaririt
umaw
##okr
##dante
##irpirit
Information
kaldero
agbotos
agpab
agpangadua
##siddaawan
kabbalay
##uarda
nabaneg
##uykuyog
naluc
nalayus
naladawen
##tarimaan
Impek
##aganak
basan
Marlon
maikar
pannakaipar
naris
pinatal
pinasardeng
1918
##aduami
gov
lugartayo
##erbisio
sangapar
mabutosan
Maigapu
##rekom
Nailanad
Naipadamag
Esdras
Pagt
Naulimek
##ungawan
##ategory
Nasarak
##daytoy
Napak
##agustuan
aba
mangaramat
nakaas
panagpatingga
ilinteg
ilalabas
puur
##alemmeng
sagabaen
bassiten
tinab
kasasaadko
Nalawa
tagaL
panangipagarup
naipabuya
inyamammo
Trump
Trade
kongreso
Panagbiag
umayca
asidegna
mangpukaw
mangpatibker
##AKKEL
Ruso
lumabaga
Inawagan
bangus
maitudtudo
itayen
maaramidantayo
##istrasion
173
mapagballigian
literaturatayo
pannakabigbig
sinuratko
kurtina
pabp
turayen
##unduan
nakarigrigat
nangngegan
manganka
ragsakda
interesna
talonda
masida
agkakabagian
ahensya
ngiwatco
raemen
nagtaudanna
lapis
Panangip
masanguan
mannakigayyem
##ashington
selponko
bulongna
joiada
AGP
mangparpar
nakadis
nakadumog
Nakasarak
##ademia
butengna
month
nayonan
annugoten
struc
pangabbong
##onduras
basaentayo
agkamang
Naipablaak
##arambakan
bigbigat
BANNAWAG
pagtrabah
kuton
UNP
kandidatura
kapammatianda
naggapuanda
Bimmaba
caturodan
Duapulo
maipakitam
##bolbaran
##ULOY
Nasdaawak
sedecias
mapaspasaran
Ilawlawagmo
Sidon
pedaso
Bucaneg
values
PAMIL
inawaganda
nagdadakkel
Natakuatan
mangiturturong
agsarday
hustisya
kaibatogan
naduktalanda
naimatanganna
krismas
Chuabo
publisher
dengdenggen
STL
Florida
pakasaritaanna
Dadael
paragsaken
kinadangkok
sagiden
partisipante
Katipunan
Ortega
pannakangiwat
sealed
Guillermo
Atiddog
Barr
CO
CPA
Currimao
Ele
Kit
Kiddaw
KAB
Kobra
Kaday
Mao
Nur
Napu
NIA
OWWA
Pada
Series
TAO
Usig
buyon
daram
danog
eadagiti
gami
ira
ican
idanon
justice
lec
nanayonan
raan
ruti
rigrigat
##otosan
##kin
##ysis
##basaen
##vic
##SP
##Tapno
##87
##BL
##BAL
##EX
##ares
##atras
##amed
##libay
##lidda
##lisog
agdak
agkasar
panio
##erator
##sika
##rina
##usada
##inario
##isbisita
##oras
##unatna
##iles
panagagas
##iks
##ikit
inwaras
intaltalek
managsak
manarawidwid
disip
##utkuti
##ubukodan
pagaw
##ukuok
naputed
naatap
##ugkaw
kinatak
##ngilin
masaludsod
masursurot
Kasanonto
maipagpannakkel
##mauyong
mapilit
mapatanor
##arisit
agtaraken
Insardeng
Intel
##pias
##pion
Saantay
kalabanna
##atanes
apar
aposto
nabayadan
##tonto
impaka
babal
##lanadan
aramidento
nagbiahe
##ograpia
aritos
##deran
kappi
##amante
##riban
pannakaid
##ammayet
malawlawagan
pinis
reina
kampeon
castanto
1920
##urayda
saok
Est
Pagb
Pagta
##TION
agkupas
mamim
##agmaymaysa
Allen
rest
nadat
itulod
bukodyo
barona
nakaisigudan
panagkedked
panagkinnaawatan
Makip
panagiinn
##uez
saguday
katao
##dekl
suppor
kabsatyo
Pasig
Pasnaan
Cortez
espiritual
Joe
Mapukaw
saludsoden
linap
linakam
##onsagr
Sabong
Unit
nakalawlawa
siket
calasag
patiem
##AMB
pirma
naisawang
kabusortayo
panangisalakan
Iladawan
pagimbaganna
segunda
##urnongda
indulin
##ungsungbatan
##ULT
Exploitation
##akpakat
biangmi
Palawan
agpataud
games
1984
point
pannakaawatda
capcap
Britain
##endana
panagtalektayo
nationals
panagungarna
panagtakemna
survey
kinataoda
iparparegta
nasursurona
agapit
P100000
gatangenda
buniag
maibagbaga
Jehoas
Resort
inaklon
facilities
kotsena
pinagbalinda
heograpiko
Jane
Kakristianuan
##ulawesi
LGUCabugao
panagkitada
Revolution
inaramatna
matulonganda
kakabagianna
Baclig
pagilianna
Obed
##fonias
##adkadua
##ablabas
Beers
elections
testigo
Sublian
binasana
pinatgan
heritage
Nariknak
kaibatoganna
##eppang
inkaskaso
##apsutan
ginasgasut
Problema
Ususaren
bibingka
Kalaksidan
Mizpa
slug
frontlin
Ungto
mardoqueo
napetsaan
idolatria
INDAYON
Daddy
Virgilio
ATI
Billion
CID
Carias
Kil
Leh
Laden
Mod
Mez
PPO
Tub
Vati
Washington
badi
dug
hamba
lep
nayo
pitik
rip
sch
selio
teg
tuloy
vers
wangaw
##song
##tapat
##mtimek
##uod
##person
##cuc
##Saan
##tiopia
##agem
##ennan
##asakas
##alty
##akayan
##akgak
##akbayan
##arik
##arayan
##innek
##inayad
##ateng
##aben
##abong
##abayen
##taoan
panpanunot
##sisina
##sive
##urit
##umaan
##unti
##rie
nagas
nagpan
nagakem
##egget
panagkusit
maitan
maimat
mairanud
manursuro
##igsana
saanac
##iah
naku
nakanganga
nakalemmeng
##ungor
##ungpungtot
##atik
##atives
##upin
naususar
kinasarita
nangbal
umanges
umisem
##epen
##iren
mapataud
##garda
agtultulnog
agpagnapagna
naban
##tratar
##boc
impudno
Nagsurat
matungtungpal
##ANAY
eskar
paratignay
Arman
malac
pammigbig
nadang
##kamkamat
##matana
salunatna
mabutbuteng
akina
Eskuelaan
##abias
kunaenda
Naespirituan
##kenan
pannakaadipen
##akitan
Alliance
##anne
##inante
makapad
##abawna
itataud
nagpaing
##tograpi
pannakaparigat
pannakapataud
##ffair
tagaugma
papaya
inyunayunayna
##innarak
##ugawan
nangipar
panagleddaang
Jour
Sepulana
linipat
naggapuda
serrek
alaenyo
subsid
duagasut
panagtagikua
painum
imatangmo
demon
panangisagana
ciudadna
tumulongda
dalikan
Institute
##lene
mangsapul
jeru
planom
pilienna
Komisyon
kinabannuar
pumurok
panangibagana
biddutna
dadaelenda
kayarigan
##malmalem
tungpalem
sangoananyo
ISP
Nainaganan
pigsada
agpalawag
armasna
love
marigatanak
Italiano
makitamto
##oldid34
Insungbatda
naaddaanak
##rambakan
##kritikar
pannakisao
Filipina
umdasen
Semaias
##daptar
panagtrabahoda
bigbigentayo
Respon
pannakarikna
##ingsinged
nagkamang
kitkitaenda
ngumat
Moabita
Javier
isusurot
pampamilia
gaputta
cumita
araraw
Agaramid
##urasen
intultuloyda
kapadasanda
gloria
tourism
panangirurumen
laboratorio
##elennek
panagriknak
nagatendar
ikaskas
writers
value
pinulot
agngangabit
agpaspasada
km2
Nicod
pagyamanan
Irrigation
suhestion
##suelto
Lando
iturayanda
Boracay
pagpaarabanna
Persona
managimbubukod
pugon
agpalpalama
pinalubosanna
Ambros
##adpadto
ganansia
KANTA
carcarnero
tinulonganna
eksaminasion
dokumentasion
##estionaran
caacaba
##inadun
nangayed
##ubyob
kananakem
superbisor
Antioquia
mammanday
Magdalena
##PIRIT
Kalkalpas
Amo
Ayan
Audio
Austria
Capito
Class
Gerson
Haz
Honduras
Ibal
IMP
Normal
Panto
Paraon
Pagilian
Sapul
Sangir
Tagi
Ting
VI
av
dulang
fl
gut
guyoden
hard
idud
ja
jet
josias
joram
kumb
nec
namber
pasiar
white
##ski
##tle
##ori
##kh
##kenda
##maw
##yag
##edam
##Sin
##LI
##77
##annaka
##timpuyog
##askua
##agina
##arikes
##arbara
##abbalay
nig
##aili
ages
agregget
##emsem
##ulate
##eskediul
##riam
nagku
nagpayunir
##inawan
##isuro
##isasyon
##ingta
panagras
panagulbod
panagkandidato
maitantan
inusig
taok
##robin
mangususar
ambulan
makilaban
nakakawes
##ubba
paggatangan
nailako
napunno
Dio
pannakakon
nauram
naammoan
naagap
##bie
nasiput
nangpanaw
umaddang
masna
komendasion
isbo
isursurona
dagit
alkohol
provid
siete
##rayak
##piang
##lakom
pakaragsak
##tayyek
Child
##intengnga
aduda
kard
natuloy
Marian
trabajo
ilitayo
pannakairaman
pannakailako
maluto
pammaliiw
pinagl
kakik
marugian
##cop
##gawat
sinungbat
sinsilio
Nakad
Nakai
Maibag
ibbatan
ibilbilang
##aysayang
mapanen
mangipan
##rikut
ikompara
##awiden
simmal
##isiw
panagserrek
##alanse
abor
kasapulanmi
##regtana
nakappia
bakr
Quito
padayaw
ilelennek
panagbaba
panagbara
aglangoy
disgrasia
disease
123
naanano
##hiya
tarpa
tarimaan
panangipatarus
papang
##innaw
sites
entr
naikuna
Danaw
nanamay
##martsa
mangparigat
mangpaimbag
managyaman
##retariat
Afg
nawar
produktibo
sinalimetmet
relasyon
intuyang
korup
bilinmo
bilinko
caarrub
narigaten
pannakasolbar
##dagadagna
mangaramidka
##akarta
##bendision
##aburek
maika15
##alison
bangketa
administration
nayanac
jerico
Komite
ngiwatko
Toyo
Napanak
Edwin
gamgam
rummuarda
shed
kiddawna
paggibusan
karamanen
Ahitofel
##cale
surotem
Nainsiriban
officers
##suportar
pigsak
Impakitana
Rafa
agkararagka
titleP
nabalbaliwan
ususarenna
Ituloy
panangidaton
cararuac
impaltiing
kiday
naibatayBiblia
##taraknan
Aniada
Mamatika
bayadanna
P1000
mapatalgedan
agtitinnulong
##ungtongan
pagnaedanda
maibagam
measures
nagmayat
kalugaran
##reetown
sekretaria
agkamali
nagpatnag
managin
##ALINA
ikararagan
pabori
ispalenna
ginatangna
isublida
##dependiente
##paganda
Kayong
##ARITAANNA
nasursuroda
Ngimm
immune
Naammuanna
mayawat
pagsaritaanyo
kinaagtutub
Criso
Crime
Gomez
autonomia
Sheol
Magusg
panagsaona
nagtengngaan
statement
ibabangon
BFP
pagbutngan
PAKASARITAANNA
aggargaraw
Bessang
kabilgan
Ronnie
sayangguseng
##usipos
ORG
##BALIW
Sekretario
##IMBAG
##intenance
Diaz
PAMILIA
capcapitan
Nicodemo
413
519
Bulong
Cop
Earth
Farias
Freetown
Gaz
Ibaon
Kuarta
Malakan
Ohio
Rican
Umanamong
Van
Zo
bub
cayat
cangatoan
duma
dod
dote
daliasat
filipinas
fruit
gart
hon
ilegal
ilaok
keddeng
kredibilidad
maliwliw
marigatanda
one
overseas
patar
sop
sais
vape
way
zac
##iya
##nudo
##bona
##hurado
##62
##Co
##agawa
tipo
##alud
##alengaleng
##aken
##arasaas
##atas
##ataan
##ontes
##apap
##amaysada
##liku
##likasyon
agy
agagas
aglasat
##siris
##ullam
##ripa
##usingsing
##engeng
##uden
##udong
##itamin
nagulimek
##ids
##ingp
##ilasin
panagayunar
indep
##sualidad
##edric
##kopia
mangili
mangsurat
mangikas
mangdalus
##uts
##utanna
nakul
nakariing
pagdig
imnas
##alinte
##ungay
##ungro
napudaw
##uped
##acion
Diay
##oter
##olet
##reel
##repaso
##ugog
##biroken
panangbasa
panangsango
nasileng
##andac
##teur
maur
mauma
nangpak
nangrug
nangsurat
##ngudo
masuktan
##icam
balatong
##tanabutob
alun
mapaksiat
##arito
##arammag
Agkar
Agkararag
##lakuanna
sumabat
ipudno
ipapilit
babaenna
paginan
##uyuyaw
##ristiano
babak
##tuok
Nagtrabaho
matukod
matatayo
karuahena
##kanawan
##ahan
partaan
natukkol
##derson
Aringay
##karit
imbunga
pinuur
kadagit
sinuportaran
namarkaan
internal
sigagagar
Nainget
Nazi
##alls
palawa
ikak
##agnawa
bullalayaw
##arakgak
pannakaadda
##quis
simmarsaruno
dumagas
##ayyeg
nagpangato
nagpirma
##ikoordina
nakaunget
##AYY
putahe
##dudona
katupag
sardinas
kaaddan
naipaima
pappapan
inyunayunay
tinengngel
natimbeng
1800
1521
##INT
cards
kabsattayo
kumpleto
##ARS
enter
naaramidda
saannatayo
dinayaw
##fisial
problemana
platap
Grecia
##ulturist
##uyogda
##right
nacai
##dengak
araramidenyo
sacer
sacana
maaramidda
##turonganna
kapanagan
Pinang
##portante
Sumaruno
Sovi
Balligi
panangisakit
naragsakda
Ikagkagumaan
gumat
daldal
makapagsao
napartuat
aramidemto
pumar
irur
Jobert
Tamag
agibales
mangikagkagumaan
##gie
pressure
1989
surotenna
napnoan
sangkapanunot
Nainkalintegan
ipasimudaagna
panagtalekda
Mapankayo
naggian
maliklikantayo
rebbengen
##hanistan
naridam
Nakasagana
Madri
reaksionna
lobo
Fernandez
nagnaan
pangngeddengna
saandanton
kukutel
naammuam
Manoling
Sarai
ikabilmo
Pakistan
trina
nadlawna
kalidadna
insurhensia
panangaramidna
##toldada
Ecl
tungtungan
ilimed
impaulog
ASEAN
kinataom
paayen
gabsuon
isurom
##werret
maammoandanto
##uliglig
pagtalinaeden
siririing
player
Navy
tension
family
break
sintoma
Lagipem
nagkalubbon
impaisurat
nakainbolbaran
itatabuno
researcher
pannakaipasa
##lohiko
Network
pannakatarimaan
Nalpasen
daradara
durasan
Komunista
kombento
Olympic
langenlangen
rambakan
##Dios
Liklikam
kalkalainganna
##inpintas
malibak
sungaban
organizations
piloto
##implimentar
konsentrasion
nordis
republika
pilosopo
Guadeloupean
gamigam
Crisologo
Soviet
412
88
9165
Ada
Alan
Den
FIL
Gul
Gub
Gac
Hadad
IK
Ipatulod
Jubileo
Kaman
Let
Los
Laya
MV
Mamin
Photo
Rights
Sher
af
ate
atang
cananeo
fas
ge
gawat
ikamen
ilakona
klin
kuliglig
mos
magazine
pump
pulotan
radi
rumaut
serbina
tapu
tsismis
upa
vill
##afil
##laan
##laban
##tami
##tuloy
##gr
##kor
##klam
##mai
##nm
##puan
##bario
##biddut
##cus
##52
##54
##HO
##CM
##agatang
##aynment
##dakayo
##aritak
##atek
##adre
##apana
##appon
##apait
##abagas
##too
agtin
agdis
aggaraw
##awawis
##urm
##riac
##inatay
##ingas
panagnaed
panagdesision
nota
inuk
insub
inyanak
manarita
mangiranud
##ibar
makapatay
makitinnulong
##ubim
##ubalna
pagsaadan
##ukad
##uklear
naibagana
##upda
##upang
Direk
pannakawaswas
##reach
naas
naingel
##ugtar
##ugsat
##ugubat
##alie
kinari
kinala
##bii
panangayat
panangtubngar
nasyon
nasiken
mautob
maaramidak
nangpat
masinga
iserrek
ismael
alal
alarm
alpabeto
mapadasan
mapatibker
##surotan
##patnag
propaganda
agtudo
Inkayo
Aganay
Agusar
Agnaed
kinitana
##tern
pascua
agburbur
ipanaw
pangid
nalukmeg
impila
##panunotan
karat
aramidec
Amorreo
agserserb
##torsiklo
##ribado
Arapaap
pannakaiyanak
##health
##ammak
##partite
malas
imbalakad
narco
narabaw
1916
kont
sinubbot
##erbios
name
namat
sigida
##rugina
dinalapus
Kasanoka
Ababa
Alm
agdalan
company
Maadda
damok
##inner
##innukat
panagkal
puers
##rasya
Protes
nainayad
katoli
sarunuen
suppli
iggaman
Danum
umaycayo
kuentas
adalna
ammami
maaramidanda
senti
217
subsob
##gamer
##asingked
Godo
patinayon
uliten
ayanayatda
iduron
napaspasamak
padakkel
padamag
kararagko
chapter
Mira
##ciano
ayayatennak
##olusionan
Oscar
Ipapatay
##alagad
Report
biangko
tapoc
ship
nagrubbuat
Damo
Natukay
kinalintegna
ginandat
negosioda
##datonda
impakitada
##dalanan
purokmi
mangparparigat
tignayennatayo
henero
nagbayad
Brigada
1973
1970
panangikabil
Madanagan
armasda
makipagturay
##kandalo
Intsik
kukuada
cararuana
##sirmata
lapayagda
lapayagmo
papatayenda
kinaimbagna
naipasa
##umpiskada
PRC
pannakiraman
Jehoyada
Version
panangusarna
Panawenen
nabautisaranak
P200
Silulukat
agpadispensar
cacabsatda
##umikoman
block
serserb
maipasangotayo
Namnamaen
nagipila
aramatenna
country
nadisenio
writing
##uniagan
matignaytayo
kapardas
kasinsinko
Nalagipna
maliklikam
CHR
agsuksukisok
##ITIK
Pariseo
##ennial
Dionisio
kudeta
lehislatibo
##udpud
pasayaaten
##egdegan
pabasolen
Keila
panagdaldalus
Isuratmo
panagsisinnukat
diskriminasion
pannakapaadda
Lisensia
alimpatok
tultuladen
Wallkill
kliente
Society
##modern
nepnep
kakaykaywan
ceremony
amnestia
gumilgilayab
rekomendasion
poblasion
Afghanistan
Malakanyang
Kamanilaan
220
612
Abogado
Batanes
Dib
Form
Gimma
Horn
Hindu
Jayson
Kuar
Kagiddan
MS
Madi
Mangan
Nato
Nalinteg
NAKA
Og
Pos
Puli
Sci
SUM
Temp
Tubal
TULONG
Total
bek
binan
banio
bekkel
clo
dayo
jail
maraem
plak
quo
rating
ragpaten
surok
spu
sadoc
tokar
vari
##sda
##giti
##muli
##yas
##cub
##cue
##wey
##hento
##fort
##filo
##xes
tiro
##daangan
##akim
##angkaso
##adayag
##apk
##aimas
##liiw
agreg
agrehistro
panpan
##errec
##siano
##sirip
##ulgar
##adaras
##ellan
##elaks
##ude
naglaka
kaslada
adviser
##illan
maisub
noe
mangsak
mangwayawaya
nakabal
nakiasawa
nakabilbileg
##ubbo
pagnam
pagragsak
paglin
##rame
naic
##ungrod
##atina
anya
nau
##aputotan
##daddadael
kinali
nasangpet
nasnasion
maestr
##ngas
masuk
##alakanda
##surok
##ariwaw
pampasahero
siy
agpakita
Andal
Anya
aplikasyon
##adoda
kaha
sumup
summit
artic
##trabtrabaho
impalladaw
dakdak
##tall
Nagtignay
matulongam
estori
biagyo
bassitusit
immalsa
pannakaipat
Sige
##heast
##ucc
##ammat
nadeskribir
sadiwa
resi
marab
##matalek
salsaludsod
sinub
mabak
##petna
##atangen
agkur
Nauro
Naamammo
##ungadan
mapantayo
##elista
ikon
tumipon
##aliwak
dumawdawat
agdaton
inspeksion
Napaisem
simged
napanen
nadameg
barut
sibayna
nakapasa
bakbak
limed
kitaek
##tikul
##itanak
sagumbi
sarana
saritak
saringit
##eytor
##piritual
##ITOY
panangipar
##eveo
##asantuan
##innab
##innabat
suso
tulagna
naikawes
plum
mangpapigsa
gundawayna
mangibati
##apput
silaba
##unior
naananayen
##riginal
Jov
laws
##ongabong
buong
Imbilinna
presiona
namnamaentayo
sungbatanna
Arabiko
##imbaba
##2014
Coast
##tudio
##ILANG
agsubliak
##post
dagdag
##AMP
##AMMO
##undary
Pinak
agtalinaedto
##APU
maika16
sumrekda
performan
##ensiya
desisionmo
mariing
Care
##ayabanda
pampanunotentayo
makapagtalektayo
1993
maicapat
mapug
pungtotco
Jonathan
isunton
papanawen
lif
dekorasion
mannakipagrikna
pakausaran
Natanael
##komp
##suppiat
Cont
AGK
Mini
Mining
pannakaipawil
dumngegka
Tinungpal
sukisok
panagdaydayawtayo
naggibus
nariingan
naiyawat
dawaten
season
iparangarang
Intuloyna
imperyalista
mangirepresentar
Mamatikami
##faafil
tagtagainepna
##beth
karkardayo
Bertha
##peling
Bayanyo
consul
Positibo
makadanonda
liwliwaen
namnamana
impagarupna
##UNGB
servant
makidenna
panagriknam
testing
nadiskobre
##kubre
nagbabaet
##vised
tinallikudan
Pinarsua
teknikal
Nalagipko
lengguahena
beerhouse
agsabong
KALPAS
message
equip
Kaadduan
##udpudot
palausen
lohika
maimpluensiaan
##allatibong
pagbibingayan
escriba
Maysaka
provincia
Naguilian
macanawan
container
tartarigagayan
sidudungngo
sientipiko
nadayeg
kumakabalio
Makalawas
wangawangan
korupsion
323
Ami
Bunga
Cle
Dev
Dinastia
Ever
Git
Guatem
Ida
Joc
Jakarta
Kamay
Kamba
LUC
Nun
Nabati
Pum
Sch
Sef
bags
bog
bumb
duri
dagsenna
eku
kes
kanto
kamm
katak
krudo
ly
lus
mum
mino
ofisial
pinget
sint
sentensi
teppang
vice
##ganto
##ryo
##nonto
##nilaan
##pers
##bec
##vania
##wersa
##67
##zuela
##tita
til
##garil
##arayat
agsina
agyamyaman
panad
##erde
##ditan
##ununi
##adamagna
##ayonak
##eld
##udero
nagab
nagduma
panagawat
panagakem
##imilagro
inisi
inagaw
inheni
mangagas
##lolo
##logan
makil
nakuk
nakanga
pagyan
daytoyto
##ukese
##ungday
napakawan
pannakabalud
##asidad
panangbalbaliw
nasayud
##laughter
maurnos
nangasawa
##irc
kompetision
alawan
Agoo
Agnanaed
##nayasan
kinangato
kinangayed
##eco
agpamp
ayaban
##boan
Nagbaliw
Nagbasol
Nagballigi
kargana
urayno
ubet
##derrep
kaparang
kapasidad
##nacto
malaylay
sales
sallap
mabaybay
Maiparit
Esper
mangipalubos
pagsus
maibelleng
simmiasi
agnegosio
makapak
##innulig
binay
nakairuam
laki
##estiero
agtutunos
babbabassit
magawidan
sarang
tart
##reno
##salacan
Math
patgan
Sinungbatan
naaramidna
dinutokanna
Panagriknak
lumned
##sukatan
##onstr
linuc
Nangnangruna
pinagb
pagpagilian
pannursurona
nakalista
itednanto
dagensen
pannakaselebrar
makaip
macaay
##lamation
Dinak
Natiliw
panglakagan
kabusorko
extr
panangpadayaw
Baluarte
Basar
turayna
Catholic
chic
Ikagk
Carmen
Insin
##achment
obserb
Libingan
phen
kinapadi
kinabacnang
panagayatmo
Kappon
##ensor
Magellan
##apsapo
eksperimento
nanangmo
narugitto
imbaonnak
aginteres
naawatko
panagdaydayawda
pinilim
Isacar
inusarda
ministerioda
ministeriotayo
pannakalabsing
gunguna
##enneb
marigatanka
itultuloyda
pannakikadua
sapulenda
translation
makigimgimong
lapayagko
##rupa
bayadanda
Ipakaammo
schools
Rosal
Josephine
Mikong
pagrukodan
maysanto
sasawen
mangiyeg
kapanunotam
cabusorco
sinurotda
Administrator
praktis
Chopi
pagbasaran
matarimaan
Florentino
Teresita
naadalko
idatonna
makirupak
##rubaran
mangpaksiat
PO1
simmanglad
siuulimek
inikkatna
tinakaw
longganisa
gramo
sipupuso
Makunami
##urnok
Linaon
nalagipna
igatangda
mangrisut
pannakirupak
premiado
software
kulturatayo
Chuukese
daydayawen
edukasyon
Nakakumpiska
robot
maangangay
Otomi
sagrapen
Escudero
therapy
lalaem
Atlantiko
##ARITAAN
Integrated
PADASEM
Serbia
aanakan
maregmeg
investment
Mefiboset
frontliners
##Sinursuran
Toyota
Kamaynilaan
610
639
87
98
AW
Ahi
APO
Doro
Gall
Gary
Jean
Lahu
OB
P17
P18
Ris
SM
Sor
Serbisio
Tit
Tek
Turay
Zeb
abo
bemb
cu
custo
dor
dapanna
fut
iron
itakder
iranud
leddeg
misis
port
son
yi
##set
##kosan
##mento
##ienda
##vio
##hana
##his
##Ania
##TAL
##400
##zz
##zen
##xer
##tives
##agal
##agang
##dapo
##alikas
##atel
##apos
##apkap
##ailang
##liera
agmin
agrigat
##errez
##dile
##awaw
##urso
##ursok
##ritan
##rikan
##riarka
##usda
##usong
##ussog
nagaburan
nagretiro
kasan
panagretiro
maidad
nood
##ikon
insao
inves
manags
mandar
##ignay
saanca
saannaka
saankanto
mangti
diaya
diretso
makom
makagar
##uton
pagam
pagkal
pagdanagan
addaac
naikamang
napilaan
##upg
##ugasan
##ugpog
kinaba
panangpa
nasap
nasabat
nasuroc
##epektibo
masuron
##taneman
##ariribukan
Inladawan
kaaldaw
arpad
##uyem
##uyek
##gatangna
Nagkatawa
asaynment
matul
matgedan
talinaay
nagbedngan
Addaanda
natulawan
##balos
##abasak
sangas
##ananam
##ucaw
##part
malip
kamera
pinadayawan
pinabileg
##umbent
Nakakita
Nakadanon
Naklaat
##TIK
##bakan
maibaon
adadun
ikumpara
##quital
Allan
insin
Sandi
ayatenda
Maangay
makapakatawa
Mabalinyo
Umdas
pakaipaspas
itabon
nagpap
nakapas
nakapappapati
Makapas
aglal
aglukat
annacyo
tarabay
pappap
kumpay
enhanced
dineskribir
##agrag
Mangngeg
##AKITA
kuer
139
##ATTA
banglo
bangcay
buaya
Nababa
Italy
Ordin
##akatawaan
317
proyektoda
botika
Chico
takk
nagsubliak
apagkatlo
Impaay
panagrago
Elect
makinilia
letter
pilienda
nakaturong
mannakabalinamin
mangyaplikar
numer
maiyawawan
maiyannatup
1988
PAGASA
Ibagayo
##bassiten
ginuyod
ipalubosmo
##roblema
sound
nakitatayo
maipasa
##IKA
panangitandudo
nagpakarsoda
butengda
Shir
Makapnek
musico
##ukpukawen
nagtalinaedda
yaasideg
Louis
kinamatda
##UBONG
agtitipon
Lazo
Kadakuada
arami
mangawit
medal
kasarsarita
panagtrabahona
Jehov
sinalungasing
Resulta
patpatiem
face
sirkulo
##ringpas
pampamiliada
P20000
pakaragsakan
##ANTAYO
Forum
production
matulongantayo
1898
panagbasak
kakabagianda
helper
pinadasna
payakna
paayayam
nakamulagat
maidulin
##depender
license
etc
Venezuela
bisiesto
idaydayawyo
Hananias
kustodia
caguddua
Naynay
nagdappat
panirig
immununan
pabilgen
naibagbaga
inkararagna
##sueldo
maliklik
barioda
CPP
##lohikal
journal
asikasuen
##yphoon
Lenje
Defense
Alfred
intelligence
mikrobio
pinuoranda
##inalidad
arbanda
pagsasalipan
lebadura
Ahazias
Writing
Bangued
sentimetro
apresasion
cauvasan
lallalo
distancing
##egetable
sipipinget
Oriental
fertilizer
Intelligence
Mezquital
Agaw
Bot
DS
Gawad
Hal
Hom
Hazael
Iraman
Jab
Meg
Nangit
Pabil
PMA
PITIK
RTC
Sah
Sudi
Sistema
Tip
UL
Vel
Zera
atur
buti
baut
butbut
caan
dob
fiksion
gurong
ha
has
heb
kata
kigtot
lemon
mara
mabautisaran
pla
raya
sep
speaker
skill
tomo
tui
##lapped
##leppas
##tenna
##mail
##rai
##duana
##yot
##btibker
##word
##61
##LU
##DR
##xia
##tino
##agayam
tinam
##ayl
##agimbub
##alian
##ont
##onders
##apekto
##abna
ago
aglawag
agrebbeng
##siado
##siyon
##unanto
##adara
##elyn
nagsukisok
nagkandidato
nagraduar
##ides
##idday
##ongko
##ilpili
panagkan
panagsukat
panagkuti
panagbotos
panagdandanag
insar
##iplot
##rokan
mangsip
##hola
amen
makam
makatakder
nakus
pagsan
pagurnongan
##ramida
##atias
napagasatan
##upi
##acbayan
##ugbog
##alitiko
panangtal
panangpak
maalam
nanglukat
umada
masurat
##apulp
allilaw
allukoy
##asaem
pamataudan
agtayag
##ayanayat
agpigerger
apongna
##agsep
ipadamag
pakabur
Christo
##tarantayo
impanaw
aser
assembly
agsaksak
kayatnan
##ucnoy
##payapay
pinadis
##batog
##anggan
sinig
Nakik
Nakigtot
sangad
sangab
Maited
ibasar
##nanam
sigsig
##basada
palacio
Abdias
Sakit
##istem
nagsakay
panagsag
itugot
bars
nakaisem
nakainom
Makaayayo
##angkatan
mayebkas
disabilidad
Kunaen
##ffick
Saint
elders
##ARD
umaydanto
mangisakit
panagbiagmi
ruanganna
nangipila
Benh
##less
##sukay
inkalintegan
Asin
Kabambantayan
masaksak
Nabukel
likudak
rupac
##ighter
##itakan
sadut
Ukom
koreo
##gamento
##asingkedan
parikutda
dual
##porma
napasubli
makalusot
##usibo
indauloan
convention
tablet
agsaoda
Aramidek
pagimbagantayo
Liberia
nagballig
raang
isunan
mangtaming
agpaagas
irupir
Ammomi
##titusional
##angpangan
##anamnama
didiosenda
maparegta
##representa
usok
kiddawda
##earning
trabahomi
tagalog
kabagis
mangngegmo
incumbent
emperador
kalaksidan
##tabonan
1978
Lawin
teatro
20190
operasionda
agpartuat
benepisi
Konseho
agtulnogda
Mannubbot
Tinaliaw
seed
Itatta
Itneg
karakterisasion
##oldid37
##untonen
naipalaon
##burayan
Paulo
agtimek
mangiruar
INTER
tripartite
nakikaidda
Dinayaw
tuktokna
naipatangatang
inkabilda
Sermon
ganas
kompian
Lake
##uporta
cream
naamammona
aircon
patpatgen
bulbulan
dinamagko
kalikagumanna
siuumiso
panagriknana
maammoanyonto
lebel
certific
Southeast
umarngi
azul
##tinnulongan
Dumngegka
Innalada
NCR
Hilkias
inabakna
Franklin
panagasawada
nasirmata
rauten
pakakumikoman
pagnanaedanda
Rogelio
suportana
##talimeng
ekspektaren
##ABSAT
##siderar
agpangpanggep
##kukuna
##utputong
homoseksual
Omri
adigina
lektyur
Makapainteres
pangkabiagan
koordinasion
Mensahe
Jebuseo
Rafael
pagnamayan
Agap
Acan
Bim
Bog
Bayang
CAF
Dek
Dril
Eg
Gimm
Habak
Idaydayaw
Iddo
Jon
Jenni
Mara
Mok
Mapa
Museum
Pari
PDA
PUDNO
Rico
SANG
Vhen
aro
baw
bua
cari
hog
jud
king
kir
mes
mito
mister
member
quar
sanda
sayamusom
tedted
ura
##langna
##laglagip
##iudad
##ruan
##nitan
##denna
##cl
##clo
##Kontrol
##Sal
##AIT
##tiingan
##ayong
##ension
##gala
##onlagip
##adang
##amongan
kendi
##abtab
##aiti
##ainak
aglak
agretiro
agwaywayas
##ere
##nogak
##email
##esan
kaddu
##unkunak
##engbeng
##engneng
##engreng
##itaka
nagtur
naglako
naglaok
nagPresidente
##oster
kaskenan
panagandar
panaglakay
##iknana
##ikmutan
inurnos
inngato
##ipsiputan
saanakto
mangiti
mangtiliw
mangpatanor
##lok
amalec
makapanaw
imet
##anonak
##acaammo
pannakaan
##asiaran
##olos
naulbod
##ugt
panangbay
panangdisiplina
nasamek
##lav
nangayab
##eptar
##daneta
maipuon
ballig
##garakgak
Inreport
Agric
kinana
kinangina
Jessica
Saanton
agbiddut
kaeskuela
nabusbos
naladingit
##tallo
Nagkasang
aramidtayo
Amburayan
parada
nataba
##agasanna
##agascar
tratar
trading
##karon
##mann
##parat
##ulitan
##paysona
imbutaktak
##kampania
pinaayabanna
1911
salsal
sinelas
motib
nangap
mangipagarup
mangipangag
##akaammuan
pagserbi
maibabawi
adadunto
##AGAN
##akitam
##isim
commit
simeon
nakapimpintas
nakaal
panagkunam
panagbangon
panagim
unegko
sagat
sangoda
native
##bery
##asandile
##innason
##estre
Cory
mangpadas
##AKAN
lumtuad
adalanda
maitabon
sacsi
sacbay
maaramidmo
##istry
Narekobre
timmayab
Kabataan
linagip
suerte
sinaps
pagsasaotayo
##ruangan
relo
Karit
atten
##turayanna
##ukbukel
agsublika
pannakasalaknib
pagbabawyan
makaidna
##umpinas
labus
maika12
sumrekka
takki
##AWA
templona
##roso
nakarehistro
##dalias
rekado
maibilangen
binabalaw
##impiman
pumigsa
Panangukom
nakaparking
Academ
alikam
ipaayda
prosek
mangyadal
birbirok
Dakamaten
mangilako
paggigian
standard
Ramot
nangaramidda
AGS
##inggaget
##mitar
gargaret
pigur
##ipatulod
teach
Madagascar
agdung
kinamannurat
nagpakleb
1941
seaw
##fredo
cararuam
impasigurado
Loida
ikkannak
amoda
pangalaanda
Ipakpakita
Disaster
awitda
Sagada
Merc
dinadaelda
nadlawko
napaadda
dilak
Magsaysay
agyamantayo
##rodkas
cabusormo
ukomen
naapres
##uggod
Store
panagpasakup
bisukol
##tact
Naglabas
##ikapik
maaklon
elektron
mangpatpataud
##welga
ninong
TagaRoma
naamammuan
mapaspastrek
bayanyo
technical
Lacasandile
lotto
okra
NASAYAAT
agiwaras
uyek
inpras
naamirisko
pataudenna
palabsen
wasay
inwayatda
makitkitam
nakapanawen
Nariknana
Britaniko
Gomorra
napusgan
nagisayangkat
Grand
Kaadduanna
smugg
##igrasion
Tuladenyo
whale
pagsasaritaantayo
maikunatayo
Lidlidda
manufacturers
##uyguyod
addaytan
painting
sikiganna
Umadanika
kangitingitan
##lilinn
##agramankadagiti
pinasingkedan
juice
negosiona
titleKategoriaDagitiar
Kitkitaen
gedeon
Panlalawigan
Bumangonka
Nicaraguan
paggargarawan
ngannganin
prangkisa
Marcelino
##ASAMAK
physical
metapora
subsidy
naagapad
Ngimmato
##AYYEM
pappapel
Benhadad
PDAF
411
517
623
Buya
BABA
DAG
Fu
FM
GN
Gabaa
Itong
Kultura
LUBONG
MASAPUL
Pab
Pris
Pop
P50
Pamili
Rason
Set
Talin
Tomo
TLE
Umi
bulo
binn
best
burak
belen
bapor
clas
cod
club
eff
fran
firing
haz
ilaklako
lumb
lola
mm
mus
neftali
puto
rfaafil
sun
ste
wag
##latan
##kers
##mana
##iar
##nng
##nista
##dra
##bac
##bitna
##vement
##cons
##cill
##wri
##faz
##NL
##Gen
##89
##Ch
##CS
##agud
tis
##ensial
##asu
##asaka
##akupan
##ars
##adanda
##apir
##abilang
##abban
agul
agdud
agtinnulong
panawanda
##siit
##ditor
##noyan
##urces
##ursor
##este
kadan
##umek
##rilio
##udyante
##itud
naguni
nagsursurat
##egtana
##ongbong
panagulimek
panagholdap
maiw
maibal
##imri
##ede
##road
mangin
mangsi
mangpanaw
diamante
##hoy
makabayad
##utkot
nakay
naitan
naisingasing
napagt
##upus
##upadi
kinaasin
kinaalumamay
panangpanunot
nasapulan
##paset
##ulona
mausig
nangaywan
umulog
##ngasan
masan
maspa
masupor
issue
alerto
mapaimbag
##alakadna
##surom
Insubli
Agdada
kinaykayat
kinirog
Saantayon
kaas
kaSinursuran
pakan
inasi
nabunot
##tres
Nagkam
Nagaget
Naguummong
Nagmayat
aldawmo
nagbanag
essay
##toran
##torya
##deretso
Sigud
imbas
narr
kakaro
Nakatakder
##mbagan
mamimpinsan
Nauneg
Apolina
dinarup
mangipawil
##elist
awawis
timba
tumayab
##isik
##idap
tiempoda
##ponan
insalakan
comfort
napanawan
Panam
Umasideg
Umabot
bark
nagpipintas
nakasaysayaat
lakona
panagkitam
rienda
bulanen
Proc
tulongda
taripa
1513
##eve
##eknekak
igos
kumapuy
Luek
Panagungar
umayak
Mangm
Mangpili
##appuak
kritikal
Mapar
matayak
aglawlawmo
Nabalitokan
168
Koreano
innaganan
maisagana
maisagsagana
pimmigsa
pannakabingbingay
ingga
##mbang
Bagong
makipangan
Pinilit
2414
mangaramidda
tengngam
agtalinaedka
Dinadael
labaan
maika18
Urdaneta
region
regulasion
presioda
Angeli
Angie
Betel
##awlawan
Impormasion
Impukkaw
makunatayo
naparaburan
nakemmeg
ayayatennatayo
Binigbig
Camar
rekurs
Nephite
kimmapuy
panagayatko
aliaw
##entive
amammotayo
Pannakabagi
lupes
state
Natalna
##angarangna
##agpagarup
##EMA
autoridadna
pagbalinenda
ISIS
mangidanon
Laglagipenyo
delana
tagtagiragsak
1943
1949
populasionna
ugalina
##kseptar
Aglukat
nakakitaak
##oldid36
nagturongda
pannakapapatayna
Sirmata
pakaibatayan
##awesan
Roberto
Abias
kriminalidad
naglugananda
Belong
kerubim
Constan
##ugguan
Erning
Nagbuteng
impalubosna
ilawlawagmo
kinamatalekna
pakadanag
Asael
binangonda
Philhealth
maakaran
MAKAP
Christine
feature
Brando
kinaagpayso
##talion
##astosan
agikkat
malabsan
panagserbim
ALVI
##ustuanna
agngudo
namayec
Watchtower
panangpasangbay
PSHS
Annakyo
puntiri
kapuonanyo
binagkat
Maibatay
pammagina
congressman
tropikal
agpampanday
Farmers
##numaran
panagyamanda
Paliiwem
Palauan
psycho
##ernger
konduktor
malisian
minorya
pamanecnec
manangabuso
##etsemes
Nabiit
tumtump
ideolohia
embahada
panangisurona
nakadidillaw
arinunos
approach
Gutierrez
ATILA
verse
iduduprak
karatula
Protestante
KALPASAN
noodles
kaaldawanna
Apolinario
ALVIYA
91
92
Aja
CAR
Dor
Dusa
Dadakkel
Hamat
Kari
Kaduak
Lang
LIB
Mol
Pit
Page
P14
Sapasap
Training
aten
bri
dit
dungaw
drum
ear
fin
flag
gud
ital
isis
kaya
kayaw
lista
lasat
muyong
rucod
tono
tukot
uken
wayawayaan
##lanto
##ltiliw
##grim
##mel
##mud
##nda
##pris
##dut
##dusa
##donar
##cug
##cent
##crip
##wiki
##fle
##jada
##Iluko
##HE
##Filipino
##FLA
##tida
##tigerger
##agado
tino
##endi
##endan
##ensio
##alinaed
##anglad
##adeng
##aduna
##apda
##abawan
agto
pant
pantar
##siaanna
##awmaw
##notan
##emngem
##ullat
##esngaw
##adac
##risut
##ridep
##udanda
nagala
nagtoldada
##iss
kaskarina
kasumbangir
##ingpas
##unac
##ille
panaggar
panagwaywayas
maisupadi
##ikor
##ikkil
##suek
##molan
manganan
mangkom
makolekta
nakang
nakic
nakabak
pagc
pagulidanan
pagkonsulta
imigrante
naisang
napirmaan
##reo
##ream
naayayo
##ugnod
##alization
panangpal
pananglabsing
panangpaltog
panangdeskribir
nasalam
nasiputan
##ngilangil
##okesman
masolusionan
isagut
iskediul
ispeling
mapunno
mapapanaw
##ebate
process
##polit
Agsak
Agtignay
Saankon
agboluntario
apro
kaadal
sumiasi
pakadadaelan
inadaw
Chan
pagit
impeksion
Nagkararag
Nagbalinak
##intendent
matami
karim
karera
Imper
##aganatayo
pardon
basbasaen
idal
immal
trac
pannakaisuro
pannakaisardeng
pannakailaksid
##erserrek
malaon
##udicial
imbukbok
kamkamat
marukod
##reseta
##usaranna
mabiag
Naisubli
aktor
akmen
##atangna
Tax
ibukbok
sigur
##basana
##namay
##allugod
kaibuk
tumengna
Mass
Masmasdaaw
##istra
Napat
simngay
abot
##antayon
##aranta
Umanay
##innag
agarapaap
##ENS
##ock
kakabsatyo
panagpuor
panagplano
panagpaputok
panagpipinna
##liwanna
bumabbaba
##udam
128
saoem
Sihon
katatao
##ungguna
##versidad
103
naipangato
maawawan
nating
patriarka
tulangna
naglusulos
dinengdeng
Panagb
Ayos
mangpampanunot
agtultuloyda
kuestion
nangipaulog
Pangngaasiyo
maitanok
asawaen
darepdep
##ongaagramankadagiti
Nangiwayat
##aisy
##vidual
Anakmo
kortina
##ulodna
##gamak
Namati
Immununa
macar
##atadem
Sumurot
naisangrat
pagtam
pagtatal
maika14
maika10
Sofonias
indatagna
##basolna
Betania
desisionda
nayakar
nayetnag
Cardinal
Impaganetgetna
nangisaad
obrero
Mamang
sagutna
Library
mammagbaga
direktiba
Nepal
Book
maitedto
WikipediaKontrol
nangpabileg
Guard
tawiden
pannakatagiben
birbiroken
tape
##kabsatan
tulagco
makikaidda
matiliwan
kinabaknangna
##tipkel
Ibagbag
semen
semei
lagipem
madadaelto
Bridge
##ipatpat
panangtulad
naiyawawan
Johnson
1948
pagannayasan
magnada
nagbasolda
music
iparikna
1968
agbibiagtayon
impasingked
##ungparna
ungor
secretary
pakaibabainan
naipasalista
minasan
##atista
nagbaliwen
agalas
espesialista
pagrukod
nangbuangay
Inikkanna
Point
kitkitaenna
broad
brown
takderna
Hesbon
pannakatayna
LGUs
immakarda
Teodoro
traffick
serbesa
SINAIT
salunattayo
ikagkagumaanda
impalgakna
DVD
katugangak
Clavio
panagpartuat
Annusan
Naibilin
risgo
Agsublika
panagtarigagay
inawisna
tagikuaen
nagtalawda
masakbayanna
kapamiliada
masarac
doctor
mangisim
nakadakdakes
tumacderca
naigagara
Rebbengna
agbibiahe
##quarters
##eknanna
##estoriana
katrabahuak
katrabahuanna
natakuatanna
Denggem
Lingayen
Gonzales
robbery
Nakatugaw
agkarkarayam
##igration
panagyamanna
kadaksan
Jacinto
##presa
balakadna
pagtutuokan
kutit
Dingras
abalbalay
kabukbukodanda
karwahe
biktimada
##cnico
Memong
Ondoy
tingiting
DOJ
requirement
##panangilasin
Liwliwa
pannakaaywan
protocols
naimpluensiaan
mapangnamnamaan
AMMAFLA
managsakripisio
##ULTULOY
malacsid
Quitoriano
##klamasion
##tikulongaagramankadagiti
Shirley
titleKategoriaDagitiartikulongaagramankadagiti
##panangilasinti
titleKategoriaDagitiartikulongaagramankadagitipanangilasinti
319
82
Ath
Bed
Budi
Bonto
Eufrates
Hul
Hans
Kimat
KASAPUL
Lun
Long
Leksion
Maay
MAL
Oro
Pann
P16
Penn
Rim
Recto
Stop
Tre
TAG
Tandro
Yanna
abog
acaz
baga
cho
dPro
fan
fast
ges
iram
kitikit
luktan
memo
py
payo
pali
pempen
rama
sef
tut
tso
##milion
##uatak
##iano
##nagna
##pac
##plan
##phy
##yeng
##wela
##SIT
##Ps
##GR
##VAC
##zill
##CH
tibker
##nasium
##asangapulo
##atu
##adpadas
##etal
##aplay
##amuspusan
##abog
##erty
##ayoyo
nagayus
nagalis
##idliday
adaywan
##inger
##ongregasion
##imongan
incayo
inulit
inannugot
##ipog
manarimaan
##suod
saanmonto
##kona
##lood
nakanan
nakalan
##ubeng
##ubgubat
paggap
pagalaan
##uksil
naisa
naitanem
anyo
pannakitimpuyog
##asiona
##asional
##olar
naulila
##uge
##araudi
##angatan
##angaway
kinalam
panangbaliw
Tir
kadadakkelan
umawawat
aminda
##epna
mastrek
masubbot
##irt
maipabuya
isak
alum
agtakem
Inv
Insan
Inday
Inayaban
pasista
agbay
agbatay
agpokus
##uardia
ipag
ipanda
pagirikan
nalev
##tuanna
Nagusar
talip
Amami
agsingir
nagbunga
Impetteng
##tedted
basehas
natulong
kapatad
kapuskol
##amanian
trail
maikon
##karna
##pakauna
nadismaya
resibo
##ursuruan
marmar
ammoen
pinasi
##anggulo
sangalubungan
mabiktima
Maipar
Naipak
Estr
##opera
##taken
##takuat
interest
Pagarup
mamayor
##pennek
Kristal
ikagumaanna
pannakaamiris
Masaludsod
insal
Napeggad
ayatenyo
napankami
Maaca
Panamanian
libr
panunotenna
nakaitarayanna
nakailanadan
saritaanda
panagbantay
panagik
basolyo
124
1200
##rasan
##duksion
nainkabsatan
taripato
Saf
panangipapan
panangipalawag
benef
naglukat
naikapet
naikumit
Tagt
mangpap
mangprotektar
taraonna
panaglusulos
131
##lism
nacabasol
lumnek
Inamin
ammam
1717
inkagumaanna
link
sananto
Nangina
suicide
ramutna
sippit
Persiano
siketna
pannacadadael
Good
##adawam
pannakasukat
Pinapatay
aggi
Dinamagna
naisem
Braulio
ayanko
Nagsasaruno
maika13
##alisar
sumrekan
##usisa
pabrika
chem
gumaw
bilegda
beranda
piang
timekda
Deut
pilientayo
Doming
Kombinsido
pagkapuy
puonna
Panangasaba
Tobias
Andrew
Representa
##angpangag
tarigagaytayo
pinaneknekan
Barzill
prostitusion
Magal
maawatda
Inyebkas
1981
Internasional
pannakaipagna
pagbalinem
drugs
mangngegko
Inkagumaan
nagsaoda
pinilida
nabigbigko
1970s
nariribukan
##fication
100000
reaksionmo
##simbeng
Enforcement
primary
MAADAL
Depende
sapulenna
panangidalan
##mulmula
##kappi
ground
Bernar
agaplay
editorial
agtalekka
Seir
gatangem
harina
##lergy
abilidadna
bilyon
makaaramidda
pagragsakan
mismon
iyegna
##IMAT
siaasi
##formed
masalbar
basbasolyo
sanguanam
inlunod
nalaad
Economic
shooting
Revilla
creative
services
matulonganna
naadalna
Ricardo
Labang
napatalgedan
tuladenda
POEA
kaduatayo
kinaagnanayon
diesel
palubosam
paspasurot
naipaulog
agsublin
Suero
ipategtayo
maamammotayo
Pinanawan
pagtaktakderanna
giya
annadan
presidential
denom
pangawis
nalagipko
paggugusto
##omenon
pagayatak
Dumngegkayo
Solid
mayawawan
nasigo
organization
logging
petroleum
rangkap
nakayanakanda
nagbakuit
Defensor
follow
iniggamanna
##usposan
Espesial
PAKASARITAAN
nakaayayay
kaaspingna
puspusoda
Otomano
URAY
Europeano
binendicion
bitbituen
tumanor
Gehazi
impakpakauna
ECQ
Papua
pagilyan
lutuen
species
##ernity
antolohia
kinapasnek
sheol
astronom
##pertyP
competition
parabantay
Ambrose
night
##laughterhouse
Camarines
rekursos
pagkonsultaan
pagtatalonan
Tandroy
dPropertyP
tsokol
Barzillai
Adam
Anas
But
Bert
Cent
Citiz
Climate
Cananeo
Dona
Elam
Lep
Lanao
M16
Masirib
Piman
Rabii
Rwanda
Sister
Tex
Tingg
Tibet
VII
Wave
aj
aku
buma
[...]
